{
  "version": "1.0",
  "truncation": null,
  "padding": null,
  "added_tokens": [
    {
      "id": 0,
      "content": "<PAD>",
      "single_word": false,
      "lstrip": false,
      "rstrip": false,
      "normalized": false,
      "special": true
    },
    {
      "id": 1,
      "content": "<UNK>",
      "single_word": false,
      "lstrip": false,
      "rstrip": false,
      "normalized": false,
      "special": true
    },
    {
      "id": 2,
      "content": "<URL>",
      "single_word": false,
      "lstrip": false,
      "rstrip": false,
      "normalized": false,
      "special": true
    }
  ],
  "normalizer": null,
  "pre_tokenizer": {
    "type": "ByteLevel",
    "add_prefix_space": false,
    "trim_offsets": true,
    "use_regex": true
  },
  "post_processor": {
    "type": "ByteLevel",
    "add_prefix_space": true,
    "trim_offsets": false,
    "use_regex": true
  },
  "decoder": {
    "type": "ByteLevel",
    "add_prefix_space": true,
    "trim_offsets": true,
    "use_regex": true
  },
  "model": {
    "type": "BPE",
    "dropout": null,
    "unk_token": null,
    "continuing_subword_prefix": null,
    "end_of_word_suffix": null,
    "fuse_unk": false,
    "byte_fallback": false,
    "ignore_merges": false,
    "vocab": {
      "<PAD>": 0,
      "<UNK>": 1,
      "<URL>": 2,
      "!": 3,
      "\"": 4,
      "#": 5,
      "$": 6,
      "%": 7,
      "&": 8,
      "'": 9,
      "(": 10,
      ")": 11,
      "*": 12,
      "+": 13,
      ",": 14,
      "-": 15,
      ".": 16,
      "/": 17,
      "0": 18,
      "1": 19,
      "2": 20,
      "3": 21,
      "4": 22,
      "5": 23,
      "6": 24,
      "7": 25,
      "8": 26,
      "9": 27,
      ":": 28,
      ";": 29,
      "<": 30,
      "=": 31,
      ">": 32,
      "?": 33,
      "@": 34,
      "A": 35,
      "B": 36,
      "C": 37,
      "D": 38,
      "E": 39,
      "F": 40,
      "G": 41,
      "H": 42,
      "I": 43,
      "J": 44,
      "K": 45,
      "L": 46,
      "M": 47,
      "N": 48,
      "O": 49,
      "P": 50,
      "Q": 51,
      "R": 52,
      "S": 53,
      "T": 54,
      "U": 55,
      "V": 56,
      "W": 57,
      "X": 58,
      "Y": 59,
      "Z": 60,
      "[": 61,
      "\\": 62,
      "]": 63,
      "^": 64,
      "_": 65,
      "`": 66,
      "a": 67,
      "b": 68,
      "c": 69,
      "d": 70,
      "e": 71,
      "f": 72,
      "g": 73,
      "h": 74,
      "i": 75,
      "j": 76,
      "k": 77,
      "l": 78,
      "m": 79,
      "n": 80,
      "o": 81,
      "p": 82,
      "q": 83,
      "r": 84,
      "s": 85,
      "t": 86,
      "u": 87,
      "v": 88,
      "w": 89,
      "x": 90,
      "y": 91,
      "z": 92,
      "{": 93,
      "|": 94,
      "}": 95,
      "~": 96,
      "¡": 97,
      "¢": 98,
      "£": 99,
      "¤": 100,
      "¥": 101,
      "¦": 102,
      "§": 103,
      "¨": 104,
      "©": 105,
      "ª": 106,
      "«": 107,
      "¬": 108,
      "®": 109,
      "¯": 110,
      "°": 111,
      "±": 112,
      "²": 113,
      "³": 114,
      "´": 115,
      "µ": 116,
      "¶": 117,
      "·": 118,
      "¸": 119,
      "¹": 120,
      "º": 121,
      "»": 122,
      "¼": 123,
      "½": 124,
      "¾": 125,
      "¿": 126,
      "À": 127,
      "Á": 128,
      "Â": 129,
      "Ã": 130,
      "Ä": 131,
      "Å": 132,
      "Æ": 133,
      "Ç": 134,
      "È": 135,
      "É": 136,
      "Ê": 137,
      "Ë": 138,
      "Ì": 139,
      "Í": 140,
      "Î": 141,
      "Ï": 142,
      "Ð": 143,
      "Ñ": 144,
      "Ò": 145,
      "Ó": 146,
      "Ô": 147,
      "Õ": 148,
      "Ö": 149,
      "×": 150,
      "Ø": 151,
      "Ù": 152,
      "Ú": 153,
      "Û": 154,
      "Ü": 155,
      "Ý": 156,
      "Þ": 157,
      "ß": 158,
      "à": 159,
      "á": 160,
      "â": 161,
      "ã": 162,
      "ä": 163,
      "å": 164,
      "æ": 165,
      "ç": 166,
      "è": 167,
      "é": 168,
      "ê": 169,
      "ë": 170,
      "ì": 171,
      "í": 172,
      "î": 173,
      "ï": 174,
      "ð": 175,
      "ñ": 176,
      "ò": 177,
      "ó": 178,
      "ô": 179,
      "õ": 180,
      "ö": 181,
      "÷": 182,
      "ø": 183,
      "ù": 184,
      "ú": 185,
      "û": 186,
      "ü": 187,
      "ý": 188,
      "þ": 189,
      "ÿ": 190,
      "Ā": 191,
      "ā": 192,
      "Ă": 193,
      "ă": 194,
      "Ą": 195,
      "ą": 196,
      "Ć": 197,
      "ć": 198,
      "Ĉ": 199,
      "ĉ": 200,
      "Ċ": 201,
      "ċ": 202,
      "Č": 203,
      "č": 204,
      "Ď": 205,
      "ď": 206,
      "Đ": 207,
      "đ": 208,
      "Ē": 209,
      "ē": 210,
      "Ĕ": 211,
      "ĕ": 212,
      "Ė": 213,
      "ė": 214,
      "Ę": 215,
      "ę": 216,
      "Ě": 217,
      "ě": 218,
      "Ĝ": 219,
      "ĝ": 220,
      "Ğ": 221,
      "ğ": 222,
      "Ġ": 223,
      "ġ": 224,
      "Ģ": 225,
      "ģ": 226,
      "Ĥ": 227,
      "ĥ": 228,
      "Ħ": 229,
      "ħ": 230,
      "Ĩ": 231,
      "ĩ": 232,
      "Ī": 233,
      "ī": 234,
      "Ĭ": 235,
      "ĭ": 236,
      "Į": 237,
      "į": 238,
      "İ": 239,
      "ı": 240,
      "Ĳ": 241,
      "ĳ": 242,
      "Ĵ": 243,
      "ĵ": 244,
      "Ķ": 245,
      "ķ": 246,
      "ĸ": 247,
      "Ĺ": 248,
      "ĺ": 249,
      "Ļ": 250,
      "ļ": 251,
      "Ľ": 252,
      "ľ": 253,
      "Ŀ": 254,
      "ŀ": 255,
      "Ł": 256,
      "ł": 257,
      "Ń": 258,
      "Ġt": 259,
      "Ġa": 260,
      "Ġth": 261,
      "in": 262,
      "re": 263,
      "on": 264,
      "ou": 265,
      "Ġthe": 266,
      "Ġs": 267,
      "er": 268,
      "is": 269,
      "at": 270,
      "Ġw": 271,
      "it": 272,
      "ed": 273,
      "or": 274,
      "Ġb": 275,
      "Ġc": 276,
      "an": 277,
      "le": 278,
      "en": 279,
      "Ġp": 280,
      "ing": 281,
      "Ġf": 282,
      "Ġm": 283,
      "Ġto": 284,
      "Ġo": 285,
      "ĠI": 286,
      "Ġh": 287,
      "Ġan": 288,
      "es": 289,
      "Ġd": 290,
      "al": 291,
      "ic": 292,
      "Ġy": 293,
      "Ġn": 294,
      "Ġyou": 295,
      "Ġin": 296,
      "Ġof": 297,
      "as": 298,
      "ion": 299,
      "ar": 300,
      "Ġand": 301,
      "Ġre": 302,
      "ot": 303,
      "om": 304,
      "us": 305,
      "Ġis": 306,
      "Ġbe": 307,
      "ly": 308,
      "ve": 309,
      "Ġthat": 310,
      "Ġl": 311,
      "ll": 312,
      "ĠT": 313,
      "\"\"": 314,
      "Ġon": 315,
      "Ġit": 316,
      "ent": 317,
      "ag": 318,
      "ct": 319,
      "Ġe": 320,
      "Ġwh": 321,
      "Ġg": 322,
      "Ġnot": 323,
      "ut": 324,
      "ow": 325,
      "ĠW": 326,
      "Ġfor": 327,
      "ĠA": 328,
      "id": 329,
      "im": 330,
      "he": 331,
      "ik": 332,
      "ro": 333,
      "ld": 334,
      "ĠS": 335,
      "ce": 336,
      "ver": 337,
      "st": 338,
      "Ġha": 339,
      "ay": 340,
      "th": 341,
      "Ġas": 342,
      "tic": 343,
      "Ġar": 344,
      "ig": 345,
      "ere": 346,
      "ia": 347,
      "se": 348,
      "Ġthis": 349,
      "ad": 350,
      "ck": 351,
      "am": 352,
      "Ġcon": 353,
      "ith": 354,
      "Ġ(": 355,
      "ation": 356,
      "ch": 357,
      "ĠC": 358,
      "age": 359,
      "un": 360,
      "if": 361,
      "ticle": 362,
      "Ġse": 363,
      "ĠP": 364,
      "Ġare": 365,
      "Ġst": 366,
      "Ġarticle": 367,
      "ould": 368,
      "ip": 369,
      "Ġhave": 370,
      "out": 371,
      "Ġde": 372,
      "Ġ\"\"": 373,
      "op": 374,
      "Ġwith": 375,
      "ĠB": 376,
      "'s": 377,
      "ĠH": 378,
      "ol": 379,
      "ate": 380,
      "ist": 381,
      "Ġdo": 382,
      "ĠM": 383,
      "Ġyour": 384,
      "ome": 385,
      "Ġsu": 386,
      "Ġor": 387,
      "Ġwas": 388,
      "ers": 389,
      "Ġme": 390,
      "ir": 391,
      "'t": 392,
      "!!": 393,
      "our": 394,
      "Ġus": 395,
      "edia": 396,
      "and": 397,
      "est": 398,
      "et": 399,
      "ill": 400,
      "il": 401,
      "ĠY": 402,
      "el": 403,
      "Ġab": 404,
      "..": 405,
      "edit": 406,
      "ak": 407,
      "Ġat": 408,
      "ĠThe": 409,
      "ur": 410,
      "Ġedit": 411,
      "ĠF": 412,
      "ikip": 413,
      "ain": 414,
      "ĠD": 415,
      "Ġr": 416,
      "oo": 417,
      "Ġpro": 418,
      "ore": 419,
      "ĠN": 420,
      "rom": 421,
      "pe": 422,
      "Ġpage": 423,
      "ikipedia": 424,
      "Ġsh": 425,
      "ĠTh": 426,
      "Ġne": 427,
      "Ġk": 428,
      "ul": 429,
      "ter": 430,
      "qu": 431,
      "Ġbut": 432,
      "Ġex": 433,
      "ri": 434,
      "Ġad": 435,
      "ble": 436,
      "ally": 437,
      "Ġun": 438,
      "ust": 439,
      "ht": 440,
      "ant": 441,
      "ment": 442,
      "Ġwe": 443,
      "alk": 444,
      "Ġmy": 445,
      "let": 446,
      "Ġv": 447,
      "Ġcom": 448,
      "ase": 449,
      "Ġcan": 450,
      "ink": 451,
      "Ġby": 452,
      "ĠG": 453,
      "Ġsome": 454,
      "ĠR": 455,
      "Ġfrom": 456,
      "Ġal": 457,
      "Ġso": 458,
      "pp": 459,
      "ĠWikipedia": 460,
      "Ġ\"": 461,
      "Ġany": 462,
      "Ġcont": 463,
      "Ġabout": 464,
      "em": 465,
      "Ġj": 466,
      "Ġ2": 467,
      "nd": 468,
      "ie": 469,
      "ive": 470,
      "ss": 471,
      "11": 472,
      "ther": 473,
      "ight": 474,
      "up": 475,
      "nt": 476,
      "one": 477,
      "ike": 478,
      "Ġdis": 479,
      "Ġ1": 480,
      "ra": 481,
      "ĠL": 482,
      "Ġhe": 483,
      "ĠE": 484,
      "lo": 485,
      "ish": 486,
      "Ġhas": 487,
      "nn": 488,
      "ĠJ": 489,
      "ort": 490,
      "Ġif": 491,
      "ĠU": 492,
      "ĠO": 493,
      "ces": 494,
      "Ġall": 495,
      "ity": 496,
      "Ġpo": 497,
      "Ġwould": 498,
      "Ġch": 499,
      "lease": 500,
      "ame": 501,
      "Ġwor": 502,
      "la": 503,
      "Ġlike": 504,
      "Ġwill": 505,
      "ank": 506,
      "Ġle": 507,
      "ions": 508,
      "um": 509,
      "ich": 510,
      "Ġthere": 511,
      "now": 512,
      "Ġim": 513,
      "Ġwhat": 514,
      "ard": 515,
      "Ġdelet": 516,
      "ry": 517,
      "Ġone": 518,
      "00": 519,
      "ite": 520,
      "ies": 521,
      "ect": 522,
      "Ġfa": 523,
      "ous": 524,
      "Ġadd": 525,
      "Ġ-": 526,
      "oug": 527,
      "Ġbeen": 528,
      "Ġknow": 529,
      "use": 530,
      "Ġno": 531,
      "ure": 532,
      "Ġjust": 533,
      "ated": 534,
      "Ġdon": 535,
      "iv": 536,
      "der": 537,
      "all": 538,
      "ud": 539,
      "ge": 540,
      "ian": 541,
      "ake": 542,
      "Ġwho": 543,
      "Ġtalk": 544,
      "âĢ": 545,
      "Ġthey": 546,
      "ĠIf": 547,
      "so": 548,
      "art": 549,
      "Ġqu": 550,
      "Ġup": 551,
      "Ġshould": 552,
      "Ġag": 553,
      "Ġwhich": 554,
      "Ġthink": 555,
      "ind": 556,
      "ack": 557,
      "Ġen": 558,
      "ĠIt": 559,
      "Ġother": 560,
      "Ġint": 561,
      "ong": 562,
      "Ġmore": 563,
      "ĠYou": 564,
      "ook": 565,
      "CK": 566,
      "ca": 567,
      "Ġsour": 568,
      "very": 569,
      "!!!!": 570,
      "ree": 571,
      "ue": 572,
      "ab": 573,
      "og": 574,
      "Ġac": 575,
      "pl": 576,
      "cl": 577,
      "for": 578,
      "ial": 579,
      "OU": 580,
      "ha": 581,
      "ast": 582,
      "Ġam": 583,
      "rit": 584,
      "Ġmo": 585,
      "Ġgo": 586,
      "Ġhere": 587,
      "Ġout": 588,
      "Ġev": 589,
      "Ġpe": 590,
      "Ġrem": 591,
      "ide": 592,
      "pt": 593,
      "os": 594,
      "Ġhis": 595,
      "cus": 596,
      "UCK": 597,
      "ople": 598,
      "cause": 599,
      "ess": 600,
      "fere": 601,
      "ime": 602,
      "Ġpre": 603,
      "ine": 604,
      "ction": 605,
      "'m": 606,
      "her": 607,
      "Ġdid": 608,
      "Ġsee": 609,
      "ages": 610,
      "ire": 611,
      "Ġspe": 612,
      "uck": 613,
      "ough": 614,
      "end": 615,
      "Ġpeople": 616,
      "...": 617,
      "rib": 618,
      "ĠK": 619,
      "ound": 620,
      "able": 621,
      "ood": 622,
      "iz": 623,
      "are": 624,
      "Ġuse": 625,
      "Ġbecause": 626,
      "Ġsay": 627,
      "form": 628,
      "ĠYOU": 629,
      "ell": 630,
      "lf": 631,
      "ory": 632,
      "lock": 633,
      "ang": 634,
      "ary": 635,
      "Ġdoes": 636,
      "sion": 637,
      "erson": 638,
      "ign": 639,
      "ber": 640,
      "Ġonly": 641,
      "thing": 642,
      "ĠWh": 643,
      "ove": 644,
      "Ġi": 645,
      "ĠThank": 646,
      "ious": 647,
      "Ġthem": 648,
      "ject": 649,
      "per": 650,
      "od": 651,
      "Ġbeing": 652,
      "ence": 653,
      "Ġget": 654,
      "Ġtr": 655,
      "Ġwere": 656,
      "Ġmay": 657,
      "ice": 658,
      "Ġtime": 659,
      "ep": 660,
      "ism": 661,
      "int": 662,
      "ub": 663,
      "nnnn": 664,
      "ors": 665,
      "Ġneed": 666,
      "Ġhow": 667,
      "Ġcons": 668,
      "Ġalso": 669,
      "ved": 670,
      "Ġfe": 671,
      "Ġwant": 672,
      "Ġarticles": 673,
      "ced": 674,
      "ff": 675,
      "ĠThis": 676,
      "Ġthen": 677,
      "ose": 678,
      "ci": 679,
      "Ġman": 680,
      "self": 681,
      "Ġperson": 682,
      "Ġres": 683,
      "ĠPlease": 684,
      "Ġdiscus": 685,
      "ile": 686,
      "Ġtheir": 687,
      ").": 688,
      "Ġwhen": 689,
      "Ġlink": 690,
      "IG": 691,
      "Ġinform": 692,
      "ĠâĢ": 693,
      "iew": 694,
      "1111": 695,
      "Ġunder": 696,
      "Ġthan": 697,
      "Ġblock": 698,
      "Ġcomp": 699,
      "Ġwork": 700,
      "Ġact": 701,
      "ans": 702,
      "feren": 703,
      "Ġimp": 704,
      "ens": 705,
      "ĠIn": 706,
      "ER": 707,
      "ex": 708,
      "Ġ200": 709,
      "ult": 710,
      "vert": 711,
      "ass": 712,
      "ations": 713,
      "ick": 714,
      "'ve": 715,
      "elp": 716,
      "ount": 717,
      "Ġsub": 718,
      "Ġagain": 719,
      "Ġgu": 720,
      "reat": 721,
      "Ġread": 722,
      "Ġatt": 723,
      "Ġmake": 724,
      "ict": 725,
      "ser": 726,
      "ical": 727,
      "Ġlook": 728,
      "Ġrep": 729,
      "Ġwhy": 730,
      "Ġinformation": 731,
      "ars": 732,
      "Ġnow": 733,
      "Ġrel": 734,
      "Ġhad": 735,
      "min": 736,
      "AT": 737,
      "Ġplease": 738,
      "ĠSt": 739,
      "Ġfact": 740,
      "ings": 741,
      "act": 742,
      "Ġsa": 743,
      "LL": 744,
      "Ġcomment": 745,
      "ade": 746,
      "Ġapp": 747,
      "Ġeven": 748,
      "Ġ'": 749,
      "Ġper": 750,
      "ason": 751,
      "irst": 752,
      "Ġpol": 753,
      "Ġdeletion": 754,
      "andal": 755,
      "Ġwr": 756,
      "Ġcall": 757,
      "Ġnew": 758,
      "ving": 759,
      "Ġway": 760,
      "ress": 761,
      "Ġmat": 762,
      "Ġbel": 763,
      "Ġcould": 764,
      "ac": 765,
      "Ġhelp": 766,
      "Ġoff": 767,
      "Ġuser": 768,
      "Ġvery": 769,
      "ance": 770,
      "Ġlist": 771,
      "Ġgood": 772,
      "con": 773,
      "ribut": 774,
      "ph": 775,
      "ĠCh": 776,
      "'re": 777,
      "Ġacc": 778,
      "fore": 779,
      "ific": 780,
      "Ġpoint": 781,
      "Ġname": 782,
      "Ġquest": 783,
      "ĠV": 784,
      "ition": 785,
      "uch": 786,
      "Ġreally": 787,
      "ap": 788,
      "Ġsources": 789,
      "ual": 790,
      "Ġpages": 791,
      "ng": 792,
      "Ġrec": 793,
      "Ġbet": 794,
      "itt": 795,
      "Ġits": 796,
      "Ġsuch": 797,
      "les": 798,
      "Ġdes": 799,
      "ince": 800,
      "way": 801,
      "wn": 802,
      "arn": 803,
      "ention": 804,
      "ful": 805,
      "Ġsection": 806,
      "clud": 807,
      "Ġfo": 808,
      "Ġover": 809,
      "Ġpla": 810,
      "Ġback": 811,
      "Ġfind": 812,
      "Ġseem": 813,
      "lish": 814,
      "Ġhim": 815,
      "ĠWP": 816,
      "Ġright": 817,
      "Ġpl": 818,
      "UR": 819,
      "Ġdeleted": 820,
      "Ġgr": 821,
      "Ġcre": 822,
      "Ġ19": 823,
      "ates": 824,
      "Ġsource": 825,
      "ach": 826,
      "Ġind": 827,
      "Ġrevert": 828,
      "Ġfirst": 829,
      "Ġremo": 830,
      "iki": 831,
      "Ġreason": 832,
      "ew": 833,
      "Ġreferen": 834,
      "Ġvandal": 835,
      "Ġob": 836,
      "ail": 837,
      "Ġmade": 838,
      "haha": 839,
      "FUCK": 840,
      "ually": 841,
      "Ġask": 842,
      "Ġpr": 843,
      "Ġpart": 844,
      "Ġevery": 845,
      "fter": 846,
      "Ġpar": 847,
      "Ġedits": 848,
      "Ġsp": 849,
      "Ġtoo": 850,
      "Ġwhere": 851,
      "ĠAnd": 852,
      "ĠThanks": 853,
      "Ġediting": 854,
      "Ġcl": 855,
      "Ġused": 856,
      "Ġmuch": 857,
      "Ġwell": 858,
      "cy": 859,
      "cept": 860,
      "Ġcontribut": 861,
      "ĠHow": 862,
      "other": 863,
      "''": 864,
      "oc": 865,
      "Ġcle": 866,
      "come": 867,
      "arch": 868,
      "Ġ|": 869,
      "Ġdiscussion": 870,
      "Ġmany": 871,
      "Ġthese": 872,
      "Ġdif": 873,
      "Ġsame": 874,
      "ĠAl": 875,
      "ord": 876,
      "amp": 877,
      "Ġmost": 878,
      "erm": 879,
      "ĠRe": 880,
      "Ġfuck": 881,
      "UT": 882,
      "Ġap": 883,
      "ise": 884,
      "Ġcomm": 885,
      "Ġinto": 886,
      "Ġco": 887,
      "Ġ3": 888,
      "ĠHe": 889,
      "Ġsomeone": 890,
      "),": 891,
      "Ġtw": 892,
      "The": 893,
      "ug": 894,
      "Ġtry": 895,
      "Ġexpl": 896,
      "!!!!!!!!": 897,
      "ote": 898,
      "IN": 899,
      "Ġadmin": 900,
      "01": 901,
      "ib": 902,
      "Ġinclud": 903,
      "Ġsupp": 904,
      "Ġpost": 905,
      "Ġref": 906,
      "du": 907,
      "Ġreg": 908,
      "Ġown": 909,
      "ave": 910,
      "cess": 911,
      "ever": 912,
      "Ġver": 913,
      "Ġrequ": 914,
      "Ġsim": 915,
      "oth": 916,
      "own": 917,
      "Ġtag": 918,
      "ĠSo": 919,
      "Ġhist": 920,
      "aking": 921,
      "Ġword": 922,
      "\"\".": 923,
      "ext": 924,
      "ĠThere": 925,
      "ied": 926,
      "Ġbefore": 927,
      "ĠAs": 928,
      "Ġop": 929,
      "ope": 930,
      "Ġke": 931,
      "ob": 932,
      "Ġye": 933,
      "ES": 934,
      "laim": 935,
      "read": 936,
      "arly": 937,
      "ne": 938,
      "AN": 939,
      "Ġ<": 940,
      "opy": 941,
      "Ġsex": 942,
      "Ġbelie": 943,
      "ost": 944,
      "Ġthose": 945,
      "Th": 946,
      "Ġdef": 947,
      "ility": 948,
      "ox": 949,
      "ĠPIG": 950,
      "'ll": 951,
      "Ġspec": 952,
      "Ġconsid": 953,
      "Ġsaid": 954,
      "Ġher": 955,
      "view": 956,
      "mer": 957,
      "ting": 958,
      "Ġent": 959,
      "FUCKFUCK": 960,
      "Ġgen": 961,
      "nnnnnnnn": 962,
      "olog": 963,
      "Ġafter": 964,
      "Ġput": 965,
      "Ġclaim": 966,
      "Ġiss": 967,
      "tern": 968,
      "vers": 969,
      "URL": 970,
      "ange": 971,
      "Ġcrit": 972,
      "Ġsomething": 973,
      "ON": 974,
      "ĠTH": 975,
      "Ġcontent": 976,
      "blem": 977,
      "Ġstill": 978,
      "Ġass": 979,
      "orre": 980,
      ".\"\"": 981,
      "ru": 982,
      "==": 983,
      "Ġpolic": 984,
      "gest": 985,
      "ible": 986,
      "Ġstate": 987,
      "ven": 988,
      "erest": 989,
      "rop": 990,
      "Ġwrit": 991,
      "Ġbit": 992,
      "ased": 993,
      "Ġsure": 994,
      "raph": 995,
      "ten": 996,
      "Ġgoing": 997,
      "Ġsince": 998,
      "Ġproblem": 999,
      "Ġtwo": 1000,
      "ating": 1001,
      "Ġreal": 1002,
      "red": 1003,
      "ense": 1004,
      "stand": 1005,
      "talk": 1006,
      "pect": 1007,
      "ee": 1008,
      "right": 1009,
      "ĠThat": 1010,
      "Ġcopy": 1011,
      "hing": 1012,
      "tain": 1013,
      "ons": 1014,
      "Ġche": 1015,
      "11111111": 1016,
      "ited": 1017,
      "ered": 1018,
      "UTC": 1019,
      "Ġour": 1020,
      "Ġph": 1021,
      "Ġinv": 1022,
      "OT": 1023,
      "less": 1024,
      "iable": 1025,
      "Ġsubject": 1026,
      "ys": 1027,
      "ĠBut": 1028,
      "Ġyourself": 1029,
      "Ġfeel": 1030,
      "Ġadded": 1031,
      "Ġchang": 1032,
      "ought": 1033,
      "Ġconf": 1034,
      "Ġweb": 1035,
      "ark": 1036,
      "Ġser": 1037,
      "lic": 1038,
      "ative": 1039,
      "Ġplace": 1040,
      "ines": 1041,
      "Ġprov": 1042,
      "ft": 1043,
      "ĠTalk": 1044,
      "Ġwithout": 1045,
      "uth": 1046,
      "Ġimage": 1047,
      "Ġfish": 1048,
      "llow": 1049,
      "Ġinterest": 1050,
      "irect": 1051,
      "orrect": 1052,
      "Ġtop": 1053,
      "ĠAr": 1054,
      "Ġtake": 1055,
      "ily": 1056,
      "Ġmention": 1057,
      "ild": 1058,
      "oup": 1059,
      "Ġblocked": 1060,
      "ann": 1061,
      "Ġinf": 1062,
      "Ġmight": 1063,
      "ĠIs": 1064,
      "Ġsign": 1065,
      "Ġquestion": 1066,
      "NT": 1067,
      "ather": 1068,
      "elcome": 1069,
      "Ġremoved": 1070,
      "Ġmean": 1071,
      "ĠAn": 1072,
      "ments": 1073,
      "ĠUn": 1074,
      "be": 1075,
      "Ġcase": 1076,
      "Ġmess": 1077,
      "we": 1078,
      "Ġshow": 1079,
      "vious": 1080,
      "inal": 1081,
      "Ġanything": 1082,
      "Ġcontin": 1083,
      "com": 1084,
      "sent": 1085,
      "ably": 1086,
      "ty": 1087,
      "Ġmis": 1088,
      "Ġsug": 1089,
      "Ġlong": 1090,
      "Ġstart": 1091,
      "Ġday": 1092,
      "ĠWhat": 1093,
      "ident": 1094,
      "Ġbetter": 1095,
      "Ġfollow": 1096,
      "Ġsuggest": 1097,
      "33": 1098,
      "Ġeditors": 1099,
      "ize": 1100,
      "ern": 1101,
      "Ġunderstand": 1102,
      "RE": 1103,
      "ĠBA": 1104,
      "Ġbelieve": 1105,
      "Ġcur": 1106,
      "gr": 1107,
      "Ġnever": 1108,
      "Ġstop": 1109,
      "Ġdone": 1110,
      "Ġlet": 1111,
      "Ġview": 1112,
      "Ġpub": 1113,
      "Ġdec": 1114,
      "Ġpersonal": 1115,
      "Ġthr": 1116,
      "Ġdoesn": 1117,
      "ond": 1118,
      "imes": 1119,
      "Ġkeep": 1120,
      "led": 1121,
      "ath": 1122,
      "cycl": 1123,
      "Ġwikipedia": 1124,
      "ĠDe": 1125,
      "Ġappe": 1126,
      "ational": 1127,
      "cyclop": 1128,
      "Ġhope": 1129,
      "ont": 1130,
      "Ġel": 1131,
      "Ġhistory": 1132,
      "rent": 1133,
      "ute": 1134,
      "ST": 1135,
      "Ġseems": 1136,
      "Ġanother": 1137,
      "ards": 1138,
      "OV": 1139,
      "??": 1140,
      "Ġbr": 1141,
      "Ġprop": 1142,
      "ral": 1143,
      "Ġfree": 1144,
      "igh": 1145,
      "Ġusing": 1146,
      "Ġdesc": 1147,
      "Ġcheck": 1148,
      "ale": 1149,
      "Ġspeed": 1150,
      "ves": 1151,
      "anks": 1152,
      "ists": 1153,
      "orry": 1154,
      "not": 1155,
      "Ġhapp": 1156,
      "Ġlinks": 1157,
      "gu": 1158,
      "Ġinst": 1159,
      "Ġrequest": 1160,
      "ĠWe": 1161,
      "Ġexplain": 1162,
      "Ġattack": 1163,
      "rat": 1164,
      "Ġthing": 1165,
      "Ġthings": 1166,
      "\"\",": 1167,
      "Ġsimp": 1168,
      "Ġnum": 1169,
      "thers": 1170,
      "Ġorig": 1171,
      "Ġagree": 1172,
      "ife": 1173,
      "ĠDo": 1174,
      "Ġbook": 1175,
      "Ġsupport": 1176,
      "Ġdiscuss": 1177,
      "Ġtext": 1178,
      "Ġ.": 1179,
      "Ġte": 1180,
      "fuck": 1181,
      "Ġfair": 1182,
      "GER": 1183,
      "Ġsc": 1184,
      "vel": 1185,
      "ither": 1186,
      "Ġshe": 1187,
      "ics": 1188,
      "Ġnote": 1189,
      "ix": 1190,
      "Ġreview": 1191,
      "Ġchange": 1192,
      "ĠUser": 1193,
      "Ġothers": 1194,
      "ĠNIG": 1195,
      "LLS": 1196,
      "~~": 1197,
      "Ġ5": 1198,
      "Ġbi": 1199,
      "19": 1200,
      "Ġru": 1201,
      "ĠNIGGER": 1202,
      "Ġgener": 1203,
      "EL": 1204,
      "Ġopin": 1205,
      "Ġ[": 1206,
      "here": 1207,
      "ĠSUCK": 1208,
      "Ġgiv": 1209,
      "'d": 1210,
      "Ġcomments": 1211,
      "ĠBALLS": 1212,
      "Ġwrong": 1213,
      "akes": 1214,
      "Ġpolicy": 1215,
      "ames": 1216,
      "Ġem": 1217,
      "ittle": 1218,
      "wh": 1219,
      "Ġbl": 1220,
      "Ġboth": 1221,
      "ĠEng": 1222,
      "Ġ4": 1223,
      "Ġfound": 1224,
      "Ġ,": 1225,
      "ready": 1226,
      "Ġeditor": 1227,
      "OM": 1228,
      "old": 1229,
      "ĠYour": 1230,
      "Ġencyclop": 1231,
      "ically": 1232,
      "ull": 1233,
      "oy": 1234,
      "ah": 1235,
      "lect": 1236,
      "Ġthough": 1237,
      "Ġdidn": 1238,
      "az": 1239,
      "Ġcount": 1240,
      "Ġactually": 1241,
      "Ġterm": 1242,
      "Ġform": 1243,
      "ĠCU": 1244,
      "Ġexamp": 1245,
      "ferent": 1246,
      "Ġfew": 1247,
      "Ġnothing": 1248,
      "Ġmain": 1249,
      "Ġalready": 1250,
      "Ġvandalism": 1251,
      "You": 1252,
      "Ġagainst": 1253,
      "ĠIS": 1254,
      "osed": 1255,
      "Ġimport": 1256,
      "Ġcorrect": 1257,
      "ateg": 1258,
      "Ġresp": 1259,
      "Ġelse": 1260,
      "aw": 1261,
      "ature": 1262,
      "mm": 1263,
      "Ġcopyright": 1264,
      "ĠCUNT": 1265,
      "Ġ7": 1266,
      "Ġro": 1267,
      "ertain": 1268,
      "Ġlittle": 1269,
      "Ġu": 1270,
      "Ġet": 1271,
      "Ġdifferent": 1272,
      "Ġyears": 1273,
      "angu": 1274,
      "Ġsy": 1275,
      "ĠFor": 1276,
      "the": 1277,
      "Ġlast": 1278,
      "Ġwelcome": 1279,
      "IT": 1280,
      "aj": 1281,
      "ians": 1282,
      "Ġcurrent": 1283,
      "Ġthrough": 1284,
      "ace": 1285,
      "ps": 1286,
      "Ġexper": 1287,
      "Ġgot": 1288,
      "ensus": 1289,
      "Ġreport": 1290,
      "Ġcit": 1291,
      "Ġmor": 1292,
      "ĠAN": 1293,
      "ĠFUCK": 1294,
      "Ġgreat": 1295,
      "Ġexp": 1296,
      "Ġremove": 1297,
      "Ġtrying": 1298,
      "Ġaccount": 1299,
      "meric": 1300,
      "Ġgive": 1301,
      "ING": 1302,
      "ify": 1303,
      "ged": 1304,
      "ately": 1305,
      "vi": 1306,
      "Ġwon": 1307,
      "Ġabove": 1308,
      "Ġanyone": 1309,
      "ĠUS": 1310,
      "ATE": 1311,
      "Ġmust": 1312,
      "Ġrather": 1313,
      "âĢĻ": 1314,
      "cond": 1315,
      "ĠâĢĶ": 1316,
      "Ġargu": 1317,
      "erial": 1318,
      "Ġide": 1319,
      "Ġtem": 1320,
      "Ġwhile": 1321,
      "err": 1322,
      "Ġguid": 1323,
      "Ġissue": 1324,
      "Ġcare": 1325,
      "AL": 1326,
      "Ġconsider": 1327,
      "ĠMy": 1328,
      "Ġmaking": 1329,
      "ĠNo": 1330,
      "hip": 1331,
      "yle": 1332,
      "Ġthought": 1333,
      "Ġfar": 1334,
      "Ġtell": 1335,
      "Ġprob": 1336,
      "Ġstr": 1337,
      "Ġdoing": 1338,
      "Ġ)": 1339,
      "igg": 1340,
      "Ġplay": 1341,
      "__": 1342,
      "Ġposs": 1343,
      "Ġgroup": 1344,
      "Ġwar": 1345,
      "any": 1346,
      "ues": 1347,
      "ĠAlso": 1348,
      "lev": 1349,
      "ĠHi": 1350,
      "lete": 1351,
      "Ġend": 1352,
      "ĠTHE": 1353,
      "ead": 1354,
      "Ġinc": 1355,
      "Ġlangu": 1356,
      "Ġdefin": 1357,
      "Ġwebs": 1358,
      "Ġ8": 1359,
      "Ġconc": 1360,
      "ĠBe": 1361,
      "Ġetc": 1362,
      "urther": 1363,
      "ĠIP": 1364,
      "Ġaccept": 1365,
      "Ġcome": 1366,
      "av": 1367,
      "land": 1368,
      "Ġ6": 1369,
      "Ġstand": 1370,
      "::": 1371,
      "day": 1372,
      "idence": 1373,
      "Ġmaterial": 1374,
      "EW": 1375,
      "ody": 1376,
      "Ġquestions": 1377,
      "Ġpartic": 1378,
      "Wh": 1379,
      "Ġsent": 1380,
      "Ġreference": 1381,
      "Ġspeedy": 1382,
      "Ġnon": 1383,
      "Ġleave": 1384,
      "Ġcriter": 1385,
      "urn": 1386,
      "atch": 1387,
      "HA": 1388,
      "ents": 1389,
      "Ġaddress": 1390,
      "ke": 1391,
      "Ġsch": 1392,
      "ĠCom": 1393,
      "Ġreferences": 1394,
      "Ġins": 1395,
      "pr": 1396,
      "Ġlot": 1397,
      "Ġusers": 1398,
      "Ġ201": 1399,
      "Ġcalled": 1400,
      "Ġcontinue": 1401,
      "its": 1402,
      "Ġcour": 1403,
      "Ġinter": 1404,
      "ĠEnglish": 1405,
      "ool": 1406,
      "Ġdown": 1407,
      "Ġreliable": 1408,
      "ĠAmeric": 1409,
      "als": 1410,
      "Ġcertain": 1411,
      "Ġlife": 1412,
      "ropri": 1413,
      "Ġguidel": 1414,
      "Ġwarn": 1415,
      "man": 1416,
      "Ġca": 1417,
      "ĠCan": 1418,
      "Ġsit": 1419,
      "Ġsite": 1420,
      "Ġaround": 1421,
      "Ġexist": 1422,
      "ĠâĢ¢": 1423,
      "Ġexample": 1424,
      "ular": 1425,
      "Ġworld": 1426,
      "ween": 1427,
      "ution": 1428,
      "ater": 1429,
      "Ġleast": 1430,
      "hahahaha": 1431,
      "Ġsimply": 1432,
      "ĠWiki": 1433,
      "Ġfun": 1434,
      "Ġprobably": 1435,
      "Ġisn": 1436,
      "Ġdelete": 1437,
      "Ġmon": 1438,
      "Ġvi": 1439,
      "me": 1440,
      "gan": 1441,
      "ĠJEW": 1442,
      "Ġhi": 1443,
      "ified": 1444,
      "ĠFAT": 1445,
      "Ġencyclopedia": 1446,
      "Ġimportant": 1447,
      "upp": 1448,
      "Ġconsensus": 1449,
      "Ġopinion": 1450,
      "Ġsays": 1451,
      "Ġreverted": 1452,
      "ability": 1453,
      "Ġtit": 1454,
      "Ġhate": 1455,
      "Ġenough": 1456,
      "ello": 1457,
      "Ġrecent": 1458,
      "Ġdirect": 1459,
      "ĠSe": 1460,
      "ways": 1461,
      "OR": 1462,
      "ĠHATE": 1463,
      "Ġbetween": 1464,
      "Ġrese": 1465,
      "Ġcreated": 1466,
      "FUCKFUCKFUCKFUCK": 1467,
      "Ġmatter": 1468,
      "ities": 1469,
      "Ġwrite": 1470,
      "Ġprom": 1471,
      "ĠNew": 1472,
      "ograph": 1473,
      "nnnnnnnnnnnnnnnn": 1474,
      "ren": 1475,
      "Ġsaying": 1476,
      "Ġmoron": 1477,
      "Ġimpro": 1478,
      "Ġnor": 1479,
      "cc": 1480,
      "Ġchar": 1481,
      "ĠHowever": 1482,
      "sw": 1483,
      "Ġlog": 1484,
      "....": 1485,
      "ED": 1486,
      "ĠWhy": 1487,
      "Ġbad": 1488,
      "Ġbest": 1489,
      "Ġeff": 1490,
      "Ġrest": 1491,
      "orn": 1492,
      "Ġwiki": 1493,
      "Ġunt": 1494,
      "Ġwee": 1495,
      "Ġstud": 1496,
      "Ġprodu": 1497,
      "Ġoriginal": 1498,
      "Ġeither": 1499,
      "Ġmin": 1500,
      "rip": 1501,
      "ided": 1502,
      "Ġspecific": 1503,
      "Ġdisp": 1504,
      "Ġregard": 1505,
      "ract": 1506,
      "Ġpos": 1507,
      "Ġneeds": 1508,
      "Ġty": 1509,
      "ized": 1510,
      "ĠSh": 1511,
      "ĠGo": 1512,
      "ts": 1513,
      "omin": 1514,
      "Re": 1515,
      "Ġtrans": 1516,
      "Ġkind": 1517,
      "Ġadding": 1518,
      "ropriate": 1519,
      "load": 1520,
      "haps": 1521,
      "Ġcommun": 1522,
      "Ġ20": 1523,
      "ised": 1524,
      "Ġred": 1525,
      "Ġclear": 1526,
      "Ġcriteria": 1527,
      "OO": 1528,
      "Ġ9": 1529,
      "ĠAd": 1530,
      "Ġauth": 1531,
      "Ġever": 1532,
      "Ġquite": 1533,
      "Ġresearch": 1534,
      "ks": 1535,
      "ĠOn": 1536,
      "ower": 1537,
      "ology": 1538,
      "Ġav": 1539,
      "cial": 1540,
      "Ġcontributions": 1541,
      "Ġevidence": 1542,
      "Ġwebsite": 1543,
      "mage": 1544,
      "Ġhaving": 1545,
      "ĠPro": 1546,
      "ier": 1547,
      "ĠInd": 1548,
      "mber": 1549,
      "Ġold": 1550,
      "rist": 1551,
      "Ġcol": 1552,
      "ese": 1553,
      "Ġdisag": 1554,
      "oh": 1555,
      "Ġhigh": 1556,
      "Ġlead": 1557,
      "Ġmove": 1558,
      "Ġmessage": 1559,
      "Ġallow": 1560,
      "He": 1561,
      "plate": 1562,
      "uff": 1563,
      "ision": 1564,
      "1111111111111111": 1565,
      "Ġnotable": 1566,
      "Ġval": 1567,
      "ef": 1568,
      "Ġtest": 1569,
      "Ġnigg": 1570,
      "Ġext": 1571,
      "Ġnotice": 1572,
      "Ġconcern": 1573,
      "icture": 1574,
      "Ġcomplete": 1575,
      "cient": 1576,
      "Hi": 1577,
      "Ġsm": 1578,
      "Ġyet": 1579,
      "Ġwhole": 1580,
      "tion": 1581,
      "Ġclearly": 1582,
      "Ġviol": 1583,
      "box": 1584,
      "Ġobvious": 1585,
      "Ġnumber": 1586,
      "Ġlanguage": 1587,
      "Ġ{": 1588,
      "Ġsumm": 1589,
      "Ġpret": 1590,
      "ĠTo": 1591,
      "uation": 1592,
      "Ġ0": 1593,
      "utral": 1594,
      "ĠThey": 1595,
      "Ġinvol": 1596,
      "Ġadv": 1597,
      "Ġfl": 1598,
      "bers": 1599,
      "ether": 1600,
      "ash": 1601,
      "Ġgiven": 1602,
      "Ġsecond": 1603,
      "Ġwritten": 1604,
      "Ġaw": 1605,
      "sp": 1606,
      "empt": 1607,
      "ruct": 1608,
      "ajor": 1609,
      "app": 1610,
      "ĠAll": 1611,
      "Ġfam": 1612,
      "Ġbitch": 1613,
      "Ġbased": 1614,
      "Ġcontro": 1615,
      "Ġversion": 1616,
      "ole": 1617,
      "=\"\"": 1618,
      "of": 1619,
      "Ġleg": 1620,
      "Ġpresent": 1621,
      "Ġalways": 1622,
      "levant": 1623,
      "Ġmyself": 1624,
      "Ġfurther": 1625,
      "Ġtrue": 1626,
      "Ġconsidered": 1627,
      "HAHA": 1628,
      "IC": 1629,
      "Ġlisted": 1630,
      "Ġguidelines": 1631,
      "Ġsever": 1632,
      "Ġuntil": 1633,
      "AM": 1634,
      "Ġcannot": 1635,
      ".\"": 1636,
      "Ġcr": 1637,
      "Ġconst": 1638,
      "lished": 1639,
      "line": 1640,
      "ĠMay": 1641,
      "ĠJust": 1642,
      "Ġwish": 1643,
      "Ġansw": 1644,
      "ĠZ": 1645,
      "Ġdet": 1646,
      "Ġinstead": 1647,
      "12": 1648,
      "Ġpicture": 1649,
      "Ġhand": 1650,
      "aken": 1651,
      "Ġpublic": 1652,
      "Ġseveral": 1653,
      "otect": 1654,
      "istrat": 1655,
      "ĠOr": 1656,
      "Ġleft": 1657,
      "ĠPOV": 1658,
      "ĠAny": 1659,
      "ET": 1660,
      "ret": 1661,
      "Ġdescrib": 1662,
      "Ġdist": 1663,
      "stem": 1664,
      "Ġpolit": 1665,
      "Ġchanges": 1666,
      "Ġ&": 1667,
      "Ġtri": 1668,
      "Ġthanks": 1669,
      "Ġmakes": 1670,
      "Ġmeans": 1671,
      "Ġimages": 1672,
      "att": 1673,
      "Ġfr": 1674,
      "Ġidea": 1675,
      "Ġentire": 1676,
      "FF": 1677,
      "ets": 1678,
      "Ġupload": 1679,
      "18": 1680,
      "med": 1681,
      "ĠFe": 1682,
      "Ġsur": 1683,
      "ember": 1684,
      "Ġless": 1685,
      "Ġlove": 1686,
      "Ġmajor": 1687,
      "Ġwhether": 1688,
      "Ġfollowing": 1689,
      "Ġclo": 1690,
      "EC": 1691,
      "reed": 1692,
      "ivers": 1693,
      "ony": 1694,
      "riend": 1695,
      "ĠHello": 1696,
      "ĠDI": 1697,
      "Ġhappen": 1698,
      "ax": 1699,
      "ording": 1700,
      "ategory": 1701,
      "istic": 1702,
      "Ġbas": 1703,
      "ĠNot": 1704,
      "Ġwords": 1705,
      "IL": 1706,
      "air": 1707,
      "Ġmentioned": 1708,
      "Ġcourse": 1709,
      "Ġhard": 1710,
      "Ġobject": 1711,
      "usion": 1712,
      "MM": 1713,
      "Ġmind": 1714,
      "Ġign": 1715,
      "though": 1716,
      "Ġinclude": 1717,
      "Ġonce": 1718,
      "201": 1719,
      "Ġbig": 1720,
      "Ġfil": 1721,
      "vern": 1722,
      "Ġtitle": 1723,
      "Ġresult": 1724,
      "Ġstatement": 1725,
      "AR": 1726,
      "ric": 1727,
      "Ġret": 1728,
      "Ġeas": 1729,
      "body": 1730,
      "io": 1731,
      "Ġthree": 1732,
      "Ġstat": 1733,
      "Ġpop": 1734,
      "Ġpossible": 1735,
      "10": 1736,
      "ock": 1737,
      "ledge": 1738,
      "Ġopp": 1739,
      "dit": 1740,
      "Ġlearn": 1741,
      "AG": 1742,
      "Ġtimes": 1743,
      "iss": 1744,
      "Ġ10": 1745,
      "!!!!!!!!!!!!!!!!": 1746,
      "Ġseen": 1747,
      "Ġtopic": 1748,
      "Ġattempt": 1749,
      "ĠSome": 1750,
      "ĠLe": 1751,
      "reci": 1752,
      "Ġclass": 1753,
      "Ġpretty": 1754,
      "cing": 1755,
      "Ġfour": 1756,
      "Ġeach": 1757,
      "ĠQ": 1758,
      "uss": 1759,
      "icial": 1760,
      "Ġfacts": 1761,
      "ork": 1762,
      "Ġrequire": 1763,
      "Ġissues": 1764,
      "ĠNOT": 1765,
      "Ġrules": 1766,
      "oun": 1767,
      "Ġpast": 1768,
      "arent": 1769,
      "14": 1770,
      "uc": 1771,
      "uring": 1772,
      "sh": 1773,
      "agraph": 1774,
      "onest": 1775,
      "Ġproper": 1776,
      "Ġvar": 1777,
      "rup": 1778,
      "Ġes": 1779,
      "}}": 1780,
      "Ġproject": 1781,
      "Ġuns": 1782,
      "Ġappreci": 1783,
      "xt": 1784,
      "bo": 1785,
      "ories": 1786,
      "ush": 1787,
      "ness": 1788,
      "Ġaut": 1789,
      "ins": 1790,
      "ĠSp": 1791,
      "Ġcommon": 1792,
      "Ġpur": 1793,
      "ives": 1794,
      "te": 1795,
      "Ġdisc": 1796,
      "Ġparagraph": 1797,
      "Ġdem": 1798,
      "Ġhead": 1799,
      "cially": 1800,
      "ĠChrist": 1801,
      "Ġdate": 1802,
      "Ġauthor": 1803,
      "17": 1804,
      "Ġpri": 1805,
      "Ġmer": 1806,
      "Ġsense": 1807,
      "Ġfix": 1808,
      "Ġyear": 1809,
      "Ġsystem": 1810,
      "20": 1811,
      "Ġlar": 1812,
      "Ġclaims": 1813,
      "Ġinfo": 1814,
      "fuckfuck": 1815,
      "Ġcharact": 1816,
      "Ġneutral": 1817,
      "HE": 1818,
      "Ġprocess": 1819,
      "Ġ2005": 1820,
      "Ġeveryone": 1821,
      "Ġphot": 1822,
      "arr": 1823,
      "000": 1824,
      "Ġindic": 1825,
      "Ġ...": 1826,
      "Ġsorry": 1827,
      "Ġpat": 1828,
      "ared": 1829,
      "Ġtemplate": 1830,
      "Ġmedia": 1831,
      "Ġbeha": 1832,
      "Ġset": 1833,
      "Ġargument": 1834,
      "Ġdisagree": 1835,
      "IS": 1836,
      "Ġsl": 1837,
      "arl": 1838,
      "Ġdetail": 1839,
      "ĠSee": 1840,
      "ries": 1841,
      "Ġcreate": 1842,
      "my": 1843,
      "Ġwatch": 1844,
      "Ġline": 1845,
      "ĠChe": 1846,
      "Ġserious": 1847,
      "where": 1848,
      "Ġchanged": 1849,
      "Is": 1850,
      "Ġshort": 1851,
      "ning": 1852,
      "ilar": 1853,
      "Ġcalling": 1854,
      "Ġprovide": 1855,
      "cu": 1856,
      "ribs": 1857,
      "Ġsing": 1858,
      "16": 1859,
      "ended": 1860,
      "Ġbot": 1861,
      "ude": 1862,
      "Ġdays": 1863,
      "uro": 1864,
      "zer": 1865,
      "Ġloc": 1866,
      "Ġknown": 1867,
      "name": 1868,
      "resent": 1869,
      "Ġself": 1870,
      "Ġexact": 1871,
      "Ġ18": 1872,
      "Ġgeneral": 1873,
      "ward": 1874,
      "Ġorgan": 1875,
      "Ġsock": 1876,
      "Ġguys": 1877,
      "Ġappropriate": 1878,
      "Ġ/": 1879,
      "Ġtoday": 1880,
      "Ġra": 1881,
      "ĠWhen": 1882,
      "Ġassum": 1883,
      "ĠComm": 1884,
      "Ġmonth": 1885,
      "Ġadministrat": 1886,
      "ĠAt": 1887,
      "ĠGerm": 1888,
      "Ġanswer": 1889,
      "It": 1890,
      "ov": 1891,
      "Ġcreat": 1892,
      "ĠLI": 1893,
      "Ġopen": 1894,
      "Ġâ": 1895,
      "Ġfriend": 1896,
      "ĠAg": 1897,
      "ird": 1898,
      "Ġincluding": 1899,
      "block": 1900,
      "Ġdeal": 1901,
      "Ġwriting": 1902,
      "leg": 1903,
      "Ġdou": 1904,
      "Ġstuff": 1905,
      "ization": 1906,
      "This": 1907,
      "Ġincluded": 1908,
      "VE": 1909,
      "Ġhum": 1910,
      "sel": 1911,
      "olution": 1912,
      "Ġstarted": 1913,
      "Ġabs": 1914,
      "Ġrelated": 1915,
      "Ġtaken": 1916,
      "ikiped": 1917,
      "2010": 1918,
      "pg": 1919,
      "Ġmist": 1920,
      "ional": 1921,
      "Ġgetting": 1922,
      "Ġimprove": 1923,
      "ms": 1924,
      "Ġaway": 1925,
      "Ġcent": 1926,
      "Ġeng": 1927,
      "Ġhowever": 1928,
      "Ġschool": 1929,
      "ĠAf": 1930,
      "to": 1931,
      "Ġnomin": 1932,
      "ĠNow": 1933,
      "pecially": 1934,
      "umb": 1935,
      "ference": 1936,
      "Ġlooking": 1937,
      "Ġdiff": 1938,
      "sert": 1939,
      "ross": 1940,
      "Ġstyle": 1941,
      "ĠAmerican": 1942,
      "Ġtra": 1943,
      "upid": 1944,
      "ived": 1945,
      "Ġposition": 1946,
      "CT": 1947,
      "In": 1948,
      "ored": 1949,
      "Ġfail": 1950,
      "ient": 1951,
      "ok": 1952,
      "ides": 1953,
      "Ġrun": 1954,
      "Ġprevious": 1955,
      "eed": 1956,
      "jpg": 1957,
      "ising": 1958,
      "Ġrelevant": 1959,
      "uture": 1960,
      "Ġcompl": 1961,
      "Ġok": 1962,
      "Ġlaw": 1963,
      "Ġstay": 1964,
      "Ġaccus": 1965,
      "ĠReg": 1966,
      "Ġappears": 1967,
      "Ġable": 1968,
      "ĠFA": 1969,
      "Ġjob": 1970,
      "Ġdont": 1971,
      "ger": 1972,
      "Ġfull": 1973,
      "Ġmem": 1974,
      "3333": 1975,
      "Ġbu": 1976,
      "Ġfin": 1977,
      "ĠHere": 1978,
      "Ġrelig": 1979,
      "ti": 1980,
      "fully": 1981,
      "Ġnotability": 1982,
      "Ġsummary": 1983,
      ".)": 1984,
      "usic": 1985,
      "Ġsentence": 1986,
      "by": 1987,
      "Ġitself": 1988,
      "ĠâĢľ": 1989,
      "Ġwrote": 1990,
      "Ġappear": 1991,
      "most": 1992,
      "res": 1993,
      "Ġsort": 1994,
      "Ġorder": 1995,
      "uppet": 1996,
      "ton": 1997,
      "Ġhour": 1998,
      "ĠPer": 1999,
      "Ġhistor": 2000,
      "Talk": 2001,
      "ĠSer": 2002,
      "Ġshit": 2003,
      "lack": 2004,
      "Ġinterested": 2005,
      "Ġregarding": 2006,
      "iber": 2007,
      "ĠJew": 2008,
      "âĢĿ": 2009,
      "15": 2010,
      "oss": 2011,
      "Ġquot": 2012,
      "Ġmiss": 2013,
      "velop": 2014,
      "gin": 2015,
      "ially": 2016,
      "ĠMan": 2017,
      "Ġnext": 2018,
      "Ġknowledge": 2019,
      "Ġremoving": 2020,
      "Ġband": 2021,
      "ode": 2022,
      "bit": 2023,
      "ĠTO": 2024,
      "ĠCon": 2025,
      "Ġwanted": 2026,
      "Ġprotect": 2027,
      "Ġsimilar": 2028,
      "Ġwarning": 2029,
      "vent": 2030,
      "ator": 2031,
      "ĠOF": 2032,
      "Ġmaybe": 2033,
      "!!!": 2034,
      "AS": 2035,
      "Ġpass": 2036,
      "used": 2037,
      "ĠMU": 2038,
      "Ġaccur": 2039,
      "Ġbehavi": 2040,
      "lict": 2041,
      "ran": 2042,
      "Ġfile": 2043,
      "Ġstupid": 2044,
      "Ġgovern": 2045,
      "ground": 2046,
      "Ġsearch": 2047,
      "Ġdel": 2048,
      "atever": 2049,
      "Ġ{{": 2050,
      "Ġcult": 2051,
      "Ġnames": 2052,
      "Ġequ": 2053,
      "Ġaddition": 2054,
      "Ġrespect": 2055,
      "Ġident": 2056,
      "Ġfal": 2057,
      "Ġintern": 2058,
      "Ġalong": 2059,
      "ivil": 2060,
      "Ġqual": 2061,
      "Ġexplan": 2062,
      "Ġcritic": 2063,
      "22": 2064,
      "Ġ==": 2065,
      "hel": 2066,
      "andbox": 2067,
      "Ġ199": 2068,
      "OS": 2069,
      "gle": 2070,
      "Ġnotic": 2071,
      "Ġwouldn": 2072,
      "Ġrefer": 2073,
      "de": 2074,
      "iment": 2075,
      "Ġcertainly": 2076,
      "Sex": 2077,
      "Ġest": 2078,
      "amm": 2079,
      "Ġdeb": 2080,
      "Ġchild": 2081,
      "Ġattacks": 2082,
      "13": 2083,
      "iar": 2084,
      "oid": 2085,
      "rodu": 2086,
      "Ġwasn": 2087,
      "RS": 2088,
      "Ġlater": 2089,
      "Ġplaced": 2090,
      "ging": 2091,
      "Ġ=": 2092,
      "Ġrepe": 2093,
      "Ġtruth": 2094,
      "ification": 2095,
      "ĠBrit": 2096,
      "outh": 2097,
      "ases": 2098,
      "Ġshall": 2099,
      "ield": 2100,
      "iving": 2101,
      "AB": 2102,
      "ration": 2103,
      "ĠImage": 2104,
      "ulation": 2105,
      "Ġcompletely": 2106,
      "Ġbitches": 2107,
      "Ġfuture": 2108,
      "und": 2109,
      "Ġtalking": 2110,
      "Ġago": 2111,
      "error": 2112,
      "Ġcommunity": 2113,
      "Ġstates": 2114,
      "Ġspeak": 2115,
      "Ġadmins": 2116,
      "uly": 2117,
      "Ġcame": 2118,
      "anned": 2119,
      "Ġniggas": 2120,
      "ler": 2121,
      "par": 2122,
      "Ġocc": 2123,
      "oman": 2124,
      "ney": 2125,
      "ĠsexSex": 2126,
      "Ġsignific": 2127,
      "idd": 2128,
      "ĠâĢĵ": 2129,
      "Ġcurrently": 2130,
      "selves": 2131,
      "got": 2132,
      "ĠBr": 2133,
      "wise": 2134,
      "Ġpower": 2135,
      "omat": 2136,
      "Ġentry": 2137,
      "iversity": 2138,
      "Ġmed": 2139,
      "Ġtot": 2140,
      "roll": 2141,
      "ĠPr": 2142,
      "Ġjo": 2143,
      "ively": 2144,
      "____": 2145,
      "OB": 2146,
      "Please": 2147,
      "ital": 2148,
      "ĠNor": 2149,
      "Ġsituation": 2150,
      "Ġfig": 2151,
      "Ġdr": 2152,
      "ĠPh": 2153,
      "Ġperhaps": 2154,
      "ering": 2155,
      "Ġmark": 2156,
      "amb": 2157,
      "ural": 2158,
      "Ġprof": 2159,
      "''''": 2160,
      "AND": 2161,
      "Ġpolicies": 2162,
      "Ġpurp": 2163,
      "Ar": 2164,
      "ĠDAM": 2165,
      "ortun": 2166,
      "ĠOne": 2167,
      "Ġeverything": 2168,
      "roject": 2169,
      "Ġwonder": 2170,
      "24": 2171,
      "IST": 2172,
      "ai": 2173,
      "Ġir": 2174,
      "Ġhom": 2175,
      "Ġlack": 2176,
      "ants": 2177,
      "IP": 2178,
      "POV": 2179,
      "more": 2180,
      "Ġwithin": 2181,
      "Ġfaith": 2182,
      "Ġnews": 2183,
      "Ġduring": 2184,
      "ĠDAMN": 2185,
      "onse": 2186,
      "Ġtyp": 2187,
      "ait": 2188,
      "Ġsound": 2189,
      "Ġdevelop": 2190,
      "Ġkill": 2191,
      "Ġ24": 2192,
      "Ġfalse": 2193,
      "No": 2194,
      "Ġ11": 2195,
      "iple": 2196,
      "Ġnecess": 2197,
      "Ġofficial": 2198,
      "Ġespecially": 2199,
      "Ġconfir": 2200,
      "Ġcountry": 2201,
      "ctions": 2202,
      "ĠWell": 2203,
      "ĠMar": 2204,
      "Ġcontact": 2205,
      "log": 2206,
      "Ġ2006": 2207,
      "Ġinvolved": 2208,
      "rel": 2209,
      "ata": 2210,
      "ĠTr": 2211,
      "ĠPol": 2212,
      "Ġreverting": 2213,
      "IM": 2214,
      "Ġdeleting": 2215,
      "ublic": 2216,
      "Ġrecord": 2217,
      "23": 2218,
      "Ġgame": 2219,
      "add": 2220,
      "oph": 2221,
      "Ġ2007": 2222,
      "Ġdefinition": 2223,
      "urope": 2224,
      "Ġmult": 2225,
      "Ġnice": 2226,
      "Ġalone": 2227,
      "ogn": 2228,
      "Ġdescrip": 2229,
      "Ġthreat": 2230,
      "inc": 2231,
      "Ġhar": 2232,
      "olute": 2233,
      "Ġneeded": 2234,
      "Ġproposed": 2235,
      "Ġrespond": 2236,
      "FUCKFUCKFUCKFUCKFUCKFUCKFUCKFUCK": 2237,
      "ner": 2238,
      "times": 2239,
      "Ġbus": 2240,
      "ĠSH": 2241,
      "ĠBy": 2242,
      "Ġedited": 2243,
      "clusion": 2244,
      "Ġworking": 2245,
      "Ġasked": 2246,
      "ĠUnited": 2247,
      "nnnnnnnnnnnnnnnnnnnnnnnnnnnnnnnn": 2248,
      "rupt": 2249,
      "Ġrepla": 2250,
      "put": 2251,
      "chn": 2252,
      "ĠRep": 2253,
      "Ġtried": 2254,
      "Ġfigure": 2255,
      "25": 2256,
      "cience": 2257,
      "Ġguess": 2258,
      "DI": 2259,
      "Ġtaking": 2260,
      "Ġdue": 2261,
      "Ġsoon": 2262,
      "igned": 2263,
      "ling": 2264,
      "ĠWikiped": 2265,
      "Ġsmall": 2266,
      "fer": 2267,
      "Ġbecome": 2268,
      "Ġmet": 2269,
      "ohn": 2270,
      "aug": 2271,
      "ats": 2272,
      "rael": 2273,
      "Thanks": 2274,
      "Ġprovided": 2275,
      "Ġbooks": 2276,
      "Ġredirect": 2277,
      "ILL": 2278,
      "Ġsk": 2279,
      "ently": 2280,
      "Ġdocu": 2281,
      "Ġposted": 2282,
      "Ġpublished": 2283,
      "Ġeffect": 2284,
      "ada": 2285,
      "ivid": 2286,
      "Ġsandbox": 2287,
      "ots": 2288,
      "Ġ15": 2289,
      "Ġuseful": 2290,
      "ission": 2291,
      "iter": 2292,
      "Ġnational": 2293,
      "Ġdep": 2294,
      "ĠEx": 2295,
      "LE": 2296,
      "Ġhaven": 2297,
      "Ġguy": 2298,
      "Ġweek": 2299,
      "you": 2300,
      "Ġside": 2301,
      "ane": 2302,
      "ĠGe": 2303,
      "ĠAND": 2304,
      "Ġturn": 2305,
      "head": 2306,
      "ury": 2307,
      "Ġdispute": 2308,
      "ĠAgain": 2309,
      "ina": 2310,
      "using": 2311,
      "Ġreading": 2312,
      "Ġconflict": 2313,
      "Ġ2008": 2314,
      "St": 2315,
      "Ġwhatever": 2316,
      "Ġactual": 2317,
      "Ġaccording": 2318,
      "Ġreasons": 2319,
      "Ġexperi": 2320,
      "Ġcontrovers": 2321,
      "Ġlarge": 2322,
      "aper": 2323,
      "iness": 2324,
      "Ġrev": 2325,
      "Ġcontext": 2326,
      "Ġobviously": 2327,
      "get": 2328,
      "Ġhold": 2329,
      "Ġquote": 2330,
      "Ġ2004": 2331,
      "Ġrepresent": 2332,
      "Ġusername": 2333,
      "Ġmeaning": 2334,
      "Ġemail": 2335,
      "Ġpolitical": 2336,
      "Ġsingle": 2337,
      "page": 2338,
      "ains": 2339,
      "Ġ17": 2340,
      "ending": 2341,
      "67": 2342,
      "ron": 2343,
      "ream": 2344,
      "Ġtold": 2345,
      "ĠMr": 2346,
      "acy": 2347,
      "ternal": 2348,
      "ring": 2349,
      "ouse": 2350,
      "ĠIN": 2351,
      "Ġadm": 2352,
      "Ġlooks": 2353,
      "ĠArticle": 2354,
      "Ġresponse": 2355,
      "ography": 2356,
      "Ġappreciate": 2357,
      "US": 2358,
      "back": 2359,
      "Ġstated": 2360,
      "âĢĶ": 2361,
      "Ġappro": 2362,
      "Ġtransl": 2363,
      "Ġep": 2364,
      "utes": 2365,
      "alle": 2366,
      "ĠSince": 2367,
      "irc": 2368,
      "Ġtook": 2369,
      "this": 2370,
      "ĠGree": 2371,
      "Ġmod": 2372,
      "Ġcharacter": 2373,
      "Ġexplanation": 2374,
      "Ġcomes": 2375,
      "onsense": 2376,
      "na": 2377,
      "edic": 2378,
      "Ġcited": 2379,
      "imate": 2380,
      "Ġworth": 2381,
      "ESS": 2382,
      "Ġlic": 2383,
      "ipp": 2384,
      "ourn": 2385,
      "Ġund": 2386,
      "Ġthemselves": 2387,
      "Ġvandalize": 2388,
      "Ġautomat": 2389,
      "ĠLet": 2390,
      "Ġrule": 2391,
      "Ġvalid": 2392,
      "Ġmembers": 2393,
      "por": 2394,
      "Ġunless": 2395,
      "Ġcompany": 2396,
      "Ġterms": 2397,
      "Ġexactly": 2398,
      "Ġnoticed": 2399,
      "nect": 2400,
      "Ġ?": 2401,
      "Ġanti": 2402,
      "ĠAb": 2403,
      "Ġarch": 2404,
      "Ġrecogn": 2405,
      "Ġprim": 2406,
      "Ġproblems": 2407,
      "bt": 2408,
      "col": 2409,
      "dd": 2410,
      "lu": 2411,
      "lying": 2412,
      "ĠShe": 2413,
      "urch": 2414,
      "ĠNe": 2415,
      "Ġalmost": 2416,
      "ĠJun": 2417,
      "Ġsaw": 2418,
      "Ġreported": 2419,
      "11111111111111111111111111111111": 2420,
      "EN": 2421,
      "Ġtheory": 2422,
      "Ġscient": 2423,
      "Ġcap": 2424,
      "ilit": 2425,
      "ĠDon": 2426,
      "Ġunblock": 2427,
      "Hey": 2428,
      "Ġuploaded": 2429,
      "Ġabsolute": 2430,
      "Ġunf": 2431,
      "Ġ12": 2432,
      "Ġapolog": 2433,
      "Ġgovernment": 2434,
      "LO": 2435,
      "joy": 2436,
      "side": 2437,
      "ĠGood": 2438,
      "Ġhours": 2439,
      "like": 2440,
      "mp": 2441,
      "Ġthank": 2442,
      "Ġoften": 2443,
      "iod": 2444,
      "Ġfine": 2445,
      "ĠMa": 2446,
      "quest": 2447,
      "ividual": 2448,
      "]]": 2449,
      "Ġ*": 2450,
      "ĠX": 2451,
      "ĠAm": 2452,
      "amed": 2453,
      "Ġcontribs": 2454,
      "Ġ14": 2455,
      "Ġsubst": 2456,
      "Ġbelow": 2457,
      "Ġfucking": 2458,
      "OMM": 2459,
      "Ġstatus": 2460,
      "ny": 2461,
      "Ġcra": 2462,
      "Ġexcept": 2463,
      "Ġparticular": 2464,
      "Ġaware": 2465,
      "ery": 2466,
      "Ġbro": 2467,
      "star": 2468,
      "lam": 2469,
      "unt": 2470,
      "Ġlikely": 2471,
      "iction": 2472,
      "Ġavoid": 2473,
      "cur": 2474,
      "Ġsol": 2475,
      "itions": 2476,
      "Ġbo": 2477,
      "Ġbanned": 2478,
      "Ġfive": 2479,
      "Ġdeath": 2480,
      "Ġexpect": 2481,
      "Ġhappy": 2482,
      "gy": 2483,
      "oint": 2484,
      "itive": 2485,
      "Ġhome": 2486,
      "Ġart": 2487,
      "adem": 2488,
      "ĠMe": 2489,
      "cont": 2490,
      "Ġfocus": 2491,
      "Ġhimself": 2492,
      "ban": 2493,
      "che": 2494,
      "val": 2495,
      "oogle": 2496,
      "ĠGO": 2497,
      "Ġ16": 2498,
      "Ġexperiment": 2499,
      "Ch": 2500,
      "reen": 2501,
      "orld": 2502,
      "Ġmusic": 2503,
      "ĠIT": 2504,
      "Ġhonest": 2505,
      "Ġstory": 2506,
      "Ġvis": 2507,
      "Ġmessages": 2508,
      "What": 2509,
      "Ġeffort": 2510,
      "Ġdescription": 2511,
      "vice": 2512,
      "Ġones": 2513,
      "ama": 2514,
      "Ġhelpful": 2515,
      "Ġcool": 2516,
      "Ġinteresting": 2517,
      "Ġstrong": 2518,
      "Ġdescribed": 2519,
      "Ġcriticism": 2520,
      "aving": 2521,
      "Ġwent": 2522,
      "Ġbre": 2523,
      "Ġlonger": 2524,
      "ences": 2525,
      "Ġden": 2526,
      "ĠAre": 2527,
      "Ġmeet": 2528,
      "Ġmeant": 2529,
      "urt": 2530,
      "Ġupd": 2531,
      "Ġmoder": 2532,
      "which": 2533,
      "ĠCheers": 2534,
      "ball": 2535,
      "ye": 2536,
      "Ġpract": 2537,
      "Ġconv": 2538,
      "ĠGod": 2539,
      "ĠEurope": 2540,
      "Ġgoes": 2541,
      "Ġindividual": 2542,
      "Ġsourced": 2543,
      "Ġcontributing": 2544,
      "Ġdecide": 2545,
      "iver": 2546,
      "rain": 2547,
      "ze": 2548,
      "Ã©": 2549,
      "Ġcategory": 2550,
      "enis": 2551,
      "Ġ13": 2552,
      "ired": 2553,
      "ĠStates": 2554,
      "If": 2555,
      "Project": 2556,
      "ris": 2557,
      "order": 2558,
      "ĠTur": 2559,
      "ĠSc": 2560,
      "Ġlevel": 2561,
      "gether": 2562,
      "itted": 2563,
      "Ġgenerally": 2564,
      "ITY": 2565,
      "Ġhuman": 2566,
      "OW": 2567,
      "ĠÂ": 2568,
      "ĠCl": 2569,
      "Ġrac": 2570,
      "Ġallowed": 2571,
      "Ġautomatically": 2572,
      "ĠSorry": 2573,
      "Ġperm": 2574,
      "Ġindeed": 2575,
      "ibly": 2576,
      "Ġparticip": 2577,
      "Ġclose": 2578,
      "Ġcomplain": 2579,
      "omen": 2580,
      "see": 2581,
      "Ġremember": 2582,
      "Ġvarious": 2583,
      "200": 2584,
      "wards": 2585,
      "Ġill": 2586,
      "Ġgl": 2587,
      "ĠAT": 2588,
      "ety": 2589,
      "Ġenjoy": 2590,
      "Ġworks": 2591,
      "apan": 2592,
      "Ġcred": 2593,
      "Ġsupposed": 2594,
      "Ġbias": 2595,
      "Ġban": 2596,
      "Ġhy": 2597,
      "ĠCont": 2598,
      "Ġavail": 2599,
      "puppet": 2600,
      "son": 2601,
      "Ġnonsense": 2602,
      "Ġunc": 2603,
      "uk": 2604,
      "Ġid": 2605,
      "Ġrece": 2606,
      "ĠWH": 2607,
      "ĠDr": 2608,
      "epend": 2609,
      "Ġtags": 2610,
      "Ġcitation": 2611,
      "Ġtype": 2612,
      "Ġfilm": 2613,
      "aged": 2614,
      "Ġreply": 2615,
      "Ġcar": 2616,
      "anda": 2617,
      "ĠUN": 2618,
      "Ġcomput": 2619,
      "Ġteam": 2620,
      "orial": 2621,
      "ĠCol": 2622,
      "Ġpoints": 2623,
      "Ġshows": 2624,
      "Ġadministrator": 2625,
      "aul": 2626,
      "ober": 2627,
      "eral": 2628,
      "Ġlim": 2629,
      "ĠSch": 2630,
      "Ġsepar": 2631,
      "ĠPe": 2632,
      "ĠOf": 2633,
      "Ġhappened": 2634,
      "Ġ#": 2635,
      "Ġpie": 2636,
      "Ġaccurate": 2637,
      "ION": 2638,
      "af": 2639,
      "reme": 2640,
      "ĠHOM": 2641,
      "ĠThen": 2642,
      "ĠJohn": 2643,
      "Ġrecently": 2644,
      "Ġmonths": 2645,
      "Ġed": 2646,
      "Ġaren": 2647,
      "ĠFirst": 2648,
      "Ġanyway": 2649,
      "Ġactions": 2650,
      "Why": 2651,
      "Ġpromot": 2652,
      "Ġestab": 2653,
      ",\"\"": 2654,
      "Ġtild": 2655,
      "Ġsus": 2656,
      "lex": 2657,
      "izing": 2658,
      "Ġperiod": 2659,
      "Ġ198": 2660,
      "hahahahahahahaha": 2661,
      "ĠGerman": 2662,
      "fect": 2663,
      "oll": 2664,
      "arily": 2665,
      "Ġlive": 2666,
      "ĠAM": 2667,
      "ularly": 2668,
      "ĠEven": 2669,
      "Ġevent": 2670,
      "Ġbackground": 2671,
      "au": 2672,
      "Ġyes": 2673,
      "ĠSEC": 2674,
      "Ġarea": 2675,
      "ĠGet": 2676,
      "aster": 2677,
      "Ġcontr": 2678,
      "Ġfav": 2679,
      "Ġcover": 2680,
      "Ġsimple": 2681,
      "Ġsites": 2682,
      "Ġsignificant": 2683,
      ");": 2684,
      "pro": 2685,
      "Ġcite": 2686,
      "Ġann": 2687,
      "arian": 2688,
      "Ġrew": 2689,
      "ĠThese": 2690,
      "ump": 2691,
      "Ġworked": 2692,
      "ted": 2693,
      "ĠBOT": 2694,
      "Ġparty": 2695,
      "Ġorigin": 2696,
      "Ġokay": 2697,
      "User": 2698,
      "Ġter": 2699,
      "ites": 2700,
      "Ġconnect": 2701,
      "Ġsuck": 2702,
      "Ġalthough": 2703,
      "Ġviews": 2704,
      "Ġtechn": 2705,
      "Ġdocument": 2706,
      "sc": 2707,
      "ined": 2708,
      "Ġreach": 2709,
      "ĠOh": 2710,
      "Ġmoved": 2711,
      "~~~~": 2712,
      "Ġminor": 2713,
      "Ġavailable": 2714,
      "Ġtildes": 2715,
      "Ġmass": 2716,
      "ĠWill": 2717,
      "tical": 2718,
      "Ġjud": 2719,
      "Ġattention": 2720,
      "URITY": 2721,
      "ĠIsrael": 2722,
      "Ġaccepted": 2723,
      "Ġabsolutely": 2724,
      "IA": 2725,
      "omm": 2726,
      "Ġneg": 2727,
      "Ġclean": 2728,
      "That": 2729,
      "Ġproduct": 2730,
      "Ġindicate": 2731,
      "OMMY": 2732,
      ".,": 2733,
      "Ġben": 2734,
      "Ġpers": 2735,
      "aring": 2736,
      "ĠTOMMY": 2737,
      "Ġ100": 2738,
      "RECT": 2739,
      "ELAND": 2740,
      "ĠHOMELAND": 2741,
      "ĠSECURITY": 2742,
      "Ġaction": 2743,
      "alf": 2744,
      "Ġbeh": 2745,
      "Ġfeature": 2746,
      "ĠSECURITYFUCK": 2747,
      "Image": 2748,
      "Ġaff": 2749,
      "Ġmill": 2750,
      "ster": 2751,
      "thod": 2752,
      "Ġ2009": 2753,
      "Ġcause": 2754,
      "Ġdoubt": 2755,
      "sy": 2756,
      "ĠTake": 2757,
      "thn": 2758,
      "ĠCal": 2759,
      "ĠGu": 2760,
      "Ġquick": 2761,
      "Ġepis": 2762,
      "iqu": 2763,
      "Ġfag": 2764,
      "iab": 2765,
      "go": 2766,
      "Ġbox": 2767,
      "Ġmere": 2768,
      "Ġdata": 2769,
      "Ġproof": 2770,
      "Ġdebate": 2771,
      "Ġwait": 2772,
      "Ġdam": 2773,
      "Ġsuff": 2774,
      "ĠFr": 2775,
      "ĠGr": 2776,
      "Ġcontest": 2777,
      "Ġtherefore": 2778,
      "Ġverif": 2779,
      "ĠChristian": 2780,
      "Ġbuild": 2781,
      "over": 2782,
      "Ġ!": 2783,
      "ĠPl": 2784,
      "itely": 2785,
      "ELESS": 2786,
      "Ġdirectly": 2787,
      "ĠPerhaps": 2788,
      "ĠBritish": 2789,
      "OH": 2790,
      "rew": 2791,
      "oring": 2792,
      "Ġcity": 2793,
      "icult": 2794,
      "Ġlab": 2795,
      "ential": 2796,
      "nder": 2797,
      "Ġimpress": 2798,
      "DD": 2799,
      "Ġfore": 2800,
      "ĠJan": 2801,
      "Ġgets": 2802,
      "ĠUniversity": 2803,
      "gram": 2804,
      "Ġexplaining": 2805,
      "ĠUSELESS": 2806,
      "Ġschol": 2807,
      "HAHAHAHA": 2808,
      "gress": 2809,
      "str": 2810,
      "ĠJapan": 2811,
      "Ġincorrect": 2812,
      "Ġstandard": 2813,
      "Ġpurpose": 2814,
      "ters": 2815,
      "ĠPH": 2816,
      "ĠHist": 2817,
      "ensive": 2818,
      "ructive": 2819,
      "Ġthird": 2820,
      "Ġfight": 2821,
      "Ġdest": 2822,
      "Ġearl": 2823,
      "ĠYes": 2824,
      "urd": 2825,
      "Ġspell": 2826,
      "ĠMaybe": 2827,
      "arently": 2828,
      "just": 2829,
      "Ġcoup": 2830,
      "Ġcivil": 2831,
      "Ġliving": 2832,
      "ĠAug": 2833,
      "Ġdisrupt": 2834,
      "Ġintrodu": 2835,
      "Ġremain": 2836,
      "Ġrights": 2837,
      "Ġbring": 2838,
      "Ġcitations": 2839,
      "ĠQu": 2840,
      "Not": 2841,
      "ĠMY": 2842,
      "Ġrid": 2843,
      "Ġactiv": 2844,
      "Ġdifficult": 2845,
      "Ġnecessary": 2846,
      "\"::": 2847,
      "ĠWar": 2848,
      "Ġbelong": 2849,
      "Ġfoot": 2850,
      "Ġpropos": 2851,
      "Ġopinions": 2852,
      "ĠFeb": 2853,
      "onym": 2854,
      "FA": 2855,
      "lim": 2856,
      "pret": 2857,
      "ĠST": 2858,
      "irl": 2859,
      "Ġinsult": 2860,
      "medi": 2861,
      "Ġassume": 2862,
      "Ġculture": 2863,
      "ĠGeor": 2864,
      "color": 2865,
      "Ġtogether": 2866,
      "ĠTe": 2867,
      "ĠWik": 2868,
      "ĠWest": 2869,
      "Ġsections": 2870,
      "ĠHis": 2871,
      "Ġration": 2872,
      "Ġvide": 2873,
      "Ġentirely": 2874,
      "MMMM": 2875,
      "Ġmultiple": 2876,
      "DIRECT": 2877,
      "erous": 2878,
      "Ġfield": 2879,
      "oney": 2880,
      "Ġtagged": 2881,
      "Ġstatements": 2882,
      "REDIRECT": 2883,
      "sk": 2884,
      "ison": 2885,
      "Ġment": 2886,
      "ĠWith": 2887,
      "ĠME": 2888,
      "Ġsuc": 2889,
      "ĠDO": 2890,
      "Ġdetails": 2891,
      "Ġcreating": 2892,
      "Ġrepeated": 2893,
      "iot": 2894,
      "Ġsw": 2895,
      "Ġsong": 2896,
      "ances": 2897,
      "rab": 2898,
      "ĠWhile": 2899,
      "Ġbiased": 2900,
      "!!!!!!!!!!!!!!!!!!!!!!!!!!!!!!!!": 2901,
      "mb": 2902,
      "port": 2903,
      "ley": 2904,
      "ĠInt": 2905,
      "ices": 2906,
      "unch": 2907,
      "ister": 2908,
      "Ġusually": 2909,
      "ONG": 2910,
      "Ġnorm": 2911,
      "alth": 2912,
      "Ġwhite": 2913,
      "iding": 2914,
      "ĠSpe": 2915,
      "Ġ23": 2916,
      "Ġthinking": 2917,
      "Ġotherwise": 2918,
      "ibility": 2919,
      "Ġkept": 2920,
      "Ġexpress": 2921,
      "Ġfamily": 2922,
      "Ġpriv": 2923,
      "Ġtreat": 2924,
      "Ġscience": 2925,
      "Ġoper": 2926,
      "Ġdeter": 2927,
      "ĠDis": 2928,
      "ĠOb": 2929,
      "OUS": 2930,
      "Ġcontribute": 2931,
      "Sorry": 2932,
      "bum": 2933,
      "oice": 2934,
      "Ġanal": 2935,
      "els": 2936,
      "ĠNPOV": 2937,
      "ĠEn": 2938,
      "Ġpoor": 2939,
      "Ġstudy": 2940,
      ":#": 2941,
      "bal": 2942,
      "Ġlight": 2943,
      "Ġlick": 2944,
      "\"\"?": 2945,
      "ĠHelp": 2946,
      "Ġuses": 2947,
      "Ġenc": 2948,
      "arnstar": 2949,
      "what": 2950,
      "cent": 2951,
      "reg": 2952,
      "Ġport": 2953,
      "Ġmom": 2954,
      "ĠWorld": 2955,
      "Ġupon": 2956,
      "Ġclick": 2957,
      "Ġdifference": 2958,
      "Ġfamil": 2959,
      "Ġphoto": 2960,
      "row": 2961,
      "Ġelect": 2962,
      "Ġstep": 2963,
      "ĠFan": 2964,
      "Ġexternal": 2965,
      "Ġpres": 2966,
      "Ġformat": 2967,
      "Ġviolation": 2968,
      "yn": 2969,
      "Ġbast": 2970,
      "aming": 2971,
      "ĠCould": 2972,
      "Ġheard": 2973,
      "Ġasking": 2974,
      "OOOO": 2975,
      "And": 2976,
      "how": 2977,
      "ĠApr": 2978,
      "ished": 2979,
      "ĠJuly": 2980,
      "Ġface": 2981,
      "Ġ2010": 2982,
      "Ġexisting": 2983,
      "ĠIndia": 2984,
      "Ġfan": 2985,
      "Ġbegin": 2986,
      "Ġlat": 2987,
      "ĠAct": 2988,
      "ĠRuss": 2989,
      "Ġchick": 2990,
      "Ġaccess": 2991,
      "Ġpress": 2992,
      "Ġemp": 2993,
      "ales": 2994,
      "Ġdra": 2995,
      "Ġlo": 2996,
      "ĠAS": 2997,
      "ĠYe": 2998,
      "Ġ25": 2999,
      "Ġhell": 3000,
      "ĠEdit": 3001,
      "Ġshouldn": 3002,
      "Ġclar": 3003,
      "Ġcountries": 3004,
      "ID": 3005,
      "aid": 3006,
      "iation": 3007,
      "lent": 3008,
      "Ġmot": 3009,
      "arth": 3010,
      "Ġconcept": 3011,
      "ung": 3012,
      "Ġsuper": 3013,
      "ĠRE": 3014,
      "ĠStyle": 3015,
      "Ġindepend": 3016,
      "Ġspace": 3017,
      "Ġproduce": 3018,
      "Ġmodern": 3019,
      "Oh": 3020,
      "but": 3021,
      "co": 3022,
      "Ġdick": 3023,
      "Ġblocking": 3024,
      "Ġinflu": 3025,
      "ĠAnyway": 3026,
      "attle": 3027,
      "Ġseriously": 3028,
      "ournal": 3029,
      "Ġearlier": 3030,
      "Ġrationale": 3031,
      "Al": 3032,
      "OP": 3033,
      "Ġtroll": 3034,
      "aries": 3035,
      "ĠAng": 3036,
      "ĠAfter": 3037,
      "Ġperfect": 3038,
      "Ġinvest": 3039,
      "ELF": 3040,
      "Ġnigger": 3041,
      "ĠDIE": 3042,
      "Ġquality": 3043,
      "Ġtable": 3044,
      "rest": 3045,
      "Ġsat": 3046,
      "lection": 3047,
      "idth": 3048,
      "cember": 3049,
      "Ġimmedi": 3050,
      "Ġmov": 3051,
      "Ġdeser": 3052,
      "Ġcontinu": 3053,
      "Ġbehavior": 3054,
      "Ġpiece": 3055,
      "Ġinclusion": 3056,
      "ading": 3057,
      "ĠBY": 3058,
      "Ġadvert": 3059,
      "ĠKe": 3060,
      "Ġinternet": 3061,
      "Ġchildren": 3062,
      "AD": 3063,
      "VER": 3064,
      "Ġfre": 3065,
      "ĠUK": 3066,
      "play": 3067,
      "ceding": 3068,
      "fuckfuckfuckfuck": 3069,
      "HR": 3070,
      "UU": 3071,
      "gen": 3072,
      "off": 3073,
      "sed": 3074,
      "Ġcases": 3075,
      "Ġpill": 3076,
      "Ġ(~~~~": 3077,
      "ĠCro": 3078,
      "ĠGen": 3079,
      "ferences": 3080,
      "Thank": 3081,
      "Se": 3082,
      "uary": 3083,
      "atic": 3084,
      "itch": 3085,
      "Ġblack": 3086,
      "lege": 3087,
      "ament": 3088,
      "Ġprogram": 3089,
      "ellig": 3090,
      "Ġhomo": 3091,
      "Ġharass": 3092,
      "Ġprimary": 3093,
      "IK": 3094,
      "men": 3095,
      "oot": 3096,
      "sing": 3097,
      "Ġcens": 3098,
      "Ġliter": 3099,
      "Ġearly": 3100,
      "ĠSAG": 3101,
      "ERE": 3102,
      "rench": 3103,
      "thnic": 3104,
      "ĠAugust": 3105,
      "Ġthus": 3106,
      "ĠBOB": 3107,
      "ford": 3108,
      "Ġoutside": 3109,
      "Ġunderstanding": 3110,
      "ategories": 3111,
      "ortunately": 3112,
      "Ġbastard": 3113,
      "AY": 3114,
      "Ġcamp": 3115,
      "Ġmember": 3116,
      "Ġcontain": 3117,
      "ĠWho": 3118,
      "Ġhistorical": 3119,
      "Ġprofess": 3120,
      "ĠRepublic": 3121,
      "ĠSAGET": 3122,
      "RR": 3123,
      "pite": 3124,
      "Ġmag": 3125,
      "icient": 3126,
      "Ġgave": 3127,
      "utorial": 3128,
      "iam": 3129,
      "Ġdead": 3130,
      "obox": 3131,
      "Ġmajority": 3132,
      "Ġconfirm": 3133,
      "ĠWikipedian": 3134,
      "Ġeduc": 3135,
      "Ġcouple": 3136,
      "Ġur": 3137,
      "ani": 3138,
      "ĠHave": 3139,
      "Ġconsist": 3140,
      "Ġcoll": 3141,
      "Ġrespons": 3142,
      "help": 3143,
      "ambig": 3144,
      "Ġcomputer": 3145,
      "Ġve": 3146,
      "enced": 3147,
      "cedon": 3148,
      "Ġlinked": 3149,
      "Ġ197": 3150,
      "Ġphr": 3151,
      "ĠCanada": 3152,
      "appropriate": 3153,
      "Ġlegal": 3154,
      "Ġlicker": 3155,
      "FD": 3156,
      "oe": 3157,
      "ĠKing": 3158,
      "1967": 3159,
      "Ġlegit": 3160,
      "ĠManual": 3161,
      "ĠAust": 3162,
      "ĠAss": 3163,
      "andalism": 3164,
      "Ġchanging": 3165,
      "Ġseries": 3166,
      "Ġspecifically": 3167,
      "Ġbusiness": 3168,
      "Ġseparate": 3169,
      "Ġfaggot": 3170,
      "Ġchicken": 3171,
      "han": 3172,
      "Ġthread": 3173,
      "Ġcirc": 3174,
      "Ġtool": 3175,
      "ĠEd": 3176,
      "ĠON": 3177,
      "ĠHey": 3178,
      "Ġpropag": 3179,
      "Ġexpand": 3180,
      "Ġtotally": 3181,
      "Ġsubstant": 3182,
      "oud": 3183,
      "omney": 3184,
      "ague": 3185,
      "ully": 3186,
      "Ġalbum": 3187,
      "Ġamong": 3188,
      "Ġprefer": 3189,
      "Ġmatch": 3190,
      "Ġposts": 3191,
      "EST": 3192,
      "ĠIslam": 3193,
      "HEIST": 3194,
      "33333333": 3195,
      "ĠJewish": 3196,
      "ĠATHEIST": 3197,
      "dom": 3198,
      "tom": 3199,
      "work": 3200,
      "Ġtre": 3201,
      "ones": 3202,
      "Ġblog": 3203,
      "Ġrele": 3204,
      "Ġlost": 3205,
      "Ġsocial": 3206,
      "Ġwants": 3207,
      "conom": 3208,
      "Ġspecial": 3209,
      "Ġnumbers": 3210,
      "ĠDoes": 3211,
      "Ġcontrol": 3212,
      "Ġreturn": 3213,
      "ĠSerb": 3214,
      "Ġbenef": 3215,
      "no": 3216,
      "new": 3217,
      "Ġess": 3218,
      "Ġtakes": 3219,
      "ĠBl": 3220,
      "Ġphys": 3221,
      "Ġdecision": 3222,
      "Ġfund": 3223,
      "Ġhighly": 3224,
      "Ġdemon": 3225,
      "uted": 3226,
      "irth": 3227,
      "ĠNational": 3228,
      "Ġacadem": 3229,
      "overed": 3230,
      "There": 3231,
      "ĠMUST": 3232,
      "Ġreplace": 3233,
      "top": 3234,
      "Ġmitt": 3235,
      "ĠSO": 3236,
      "ĠHE": 3237,
      "oose": 3238,
      "Ġputting": 3239,
      "Ġinterpret": 3240,
      "Ġmistake": 3241,
      "ĠJune": 3242,
      "isf": 3243,
      "Ġonline": 3244,
      "Ġrice": 3245,
      "Ġromney": 3246,
      "antly": 3247,
      "ĠYOURS": 3248,
      "Ġ'''''": 3249,
      "!!!!!!!!!!!!": 3250,
      "Ġreflect": 3251,
      "????": 3252,
      "erring": 3253,
      "ilitary": 3254,
      "yes": 3255,
      "Ġwin": 3256,
      "Ġwik": 3257,
      "ĠPage": 3258,
      "ĠPart": 3259,
      "Ġleaving": 3260,
      "Ġpersonally": 3261,
      "ĠFeel": 3262,
      "Ġscientific": 3263,
      "Ġpillars": 3264,
      "EE": 3265,
      "Your": 3266,
      "mail": 3267,
      "Ġerror": 3268,
      "ops": 3269,
      "ĠMarch": 3270,
      "arding": 3271,
      "ures": 3272,
      "Ġprevent": 3273,
      "Ġreaders": 3274,
      "Ġbehind": 3275,
      "iability": 3276,
      "Ġdisruptive": 3277,
      "YM": 3278,
      "ior": 3279,
      "ining": 3280,
      "lement": 3281,
      "Ġaltern": 3282,
      "Ġ21": 3283,
      "Ġevents": 3284,
      "Ġlooked": 3285,
      "Ġblank": 3286,
      "Ġunsigned": 3287,
      "Ġreligion": 3288,
      "ĠYOURSELF": 3289,
      "?)": 3290,
      "OL": 3291,
      "PIN": 3292,
      "ww": 3293,
      "Ġcor": 3294,
      "enn": 3295,
      "Ġpun": 3296,
      "Ġrelease": 3297,
      "ĠHA": 3298,
      "Ġcoming": 3299,
      "Ġacross": 3300,
      "ption": 3301,
      "ovember": 3302,
      "ĠFUCKING": 3303,
      "iddle": 3304,
      "Ġair": 3305,
      "orm": 3306,
      "olic": 3307,
      "ĠEl": 3308,
      "Ġwilling": 3309,
      "Ġposting": 3310,
      "Ġregards": 3311,
      "Ġadvice": 3312,
      "Ġoppos": 3313,
      "Ġreligious": 3314,
      "Ġexperience": 3315,
      "LOCK": 3316,
      "Ġinvestig": 3317,
      "=)": 3318,
      "px": 3319,
      "spe": 3320,
      "Ġaf": 3321,
      "Ġbal": 3322,
      "Ġtown": 3323,
      "Ġabuse": 3324,
      "Ġteach": 3325,
      "Ġstandards": 3326,
      "Ġpopulation": 3327,
      "Ass": 3328,
      "Ġfall": 3329,
      "Ġrelations": 3330,
      "Ġconstit": 3331,
      "Ġresults": 3332,
      "Ġfriends": 3333,
      "ĠRegards": 3334,
      "ried": 3335,
      "ĠOct": 3336,
      "soci": 3337,
      "Ġrequesting": 3338,
      "Ġarguments": 3339,
      "ĠAmerica": 3340,
      "Ġpictures": 3341,
      "Ġlocal": 3342,
      "Ġmillion": 3343,
      "\"==": 3344,
      "50": 3345,
      "De": 3346,
      "Ġahead": 3347,
      "ouble": 3348,
      "ert": 3349,
      "Ġarbit": 3350,
      "ĠHar": 3351,
      "ourced": 3352,
      "ands": 3353,
      "Ġchance": 3354,
      "Ġtrad": 3355,
      "Ġdiscussed": 3356,
      "Ġtests": 3357,
      "Ġextreme": 3358,
      "ĠLIVE": 3359,
      "Ġirre": 3360,
      "augh": 3361,
      "Ġverifiable": 3362,
      "Qu": 3363,
      "Some": 3364,
      "dis": 3365,
      "ias": 3366,
      "ware": 3367,
      "Ġdri": 3368,
      "ĠPR": 3369,
      "ĠNote": 3370,
      "Ġvot": 3371,
      "ĠRf": 3372,
      "thern": 3373,
      "Ġamount": 3374,
      "ĠIntern": 3375,
      "Ġsubm": 3376,
      "LONG": 3377,
      "Wiki": 3378,
      "free": 3379,
      "hole": 3380,
      "Ġ;": 3381,
      "Ġinsert": 3382,
      "Ġformer": 3383,
      "stit": 3384,
      "ĠLook": 3385,
      "loy": 3386,
      "ĠKILL": 3387,
      "Ġ30": 3388,
      "ONYM": 3389,
      "ĠDecember": 3390,
      "ĠSecond": 3391,
      "Ġeasy": 3392,
      "Ġproperly": 3393,
      "ĠMacedon": 3394,
      "ĠPHIL": 3395,
      "ĠBYE": 3396,
      "ONYMOUS": 3397,
      "Ġmar": 3398,
      "Ġmine": 3399,
      "ĠIM": 3400,
      "ask": 3401,
      "ĠWAL": 3402,
      "ĠSouth": 3403,
      "illy": 3404,
      "ulous": 3405,
      "Ġlists": 3406,
      "Ġgiving": 3407,
      "ĠANONYMOUS": 3408,
      "avid": 3409,
      "Ġeasily": 3410,
      "IPPIN": 3411,
      "ĠPHILIPPIN": 3412,
      "ĠPHILIPPINES": 3413,
      "27": 3414,
      "Ġer": 3415,
      "ators": 3416,
      "Ġfat": 3417,
      "Ġassert": 3418,
      "ĠBest": 3419,
      "Ġrad": 3420,
      "ĠOther": 3421,
      "Ġresol": 3422,
      "ological": 3423,
      "ruary": 3424,
      "Ġacceptable": 3425,
      "Ġparticularly": 3426,
      "Ġ2011": 3427,
      "Ġsuspect": 3428,
      "Ġnegative": 3429,
      "ĠPHILIPPINESLONG": 3430,
      "inent": 3431,
      "ene": 3432,
      "ĠTV": 3433,
      "ĠFrom": 3434,
      "duct": 3435,
      "ĠWikiProject": 3436,
      "ĠAdmin": 3437,
      "Ġconcerns": 3438,
      "CE": 3439,
      "TAB": 3440,
      "rite": 3441,
      "Ġcut": 3442,
      "ows": 3443,
      "roy": 3444,
      "Ġhear": 3445,
      "ĠJIM": 3446,
      "HS": 3447,
      "Ġborn": 3448,
      "Ġgone": 3449,
      "Ġforce": 3450,
      "sequ": 3451,
      "andom": 3452,
      "elt": 3453,
      "ĠDid": 3454,
      "Ġprove": 3455,
      "ĠRem": 3456,
      "itting": 3457,
      "Ġpossibly": 3458,
      "ĠIndian": 3459,
      "Ġmissing": 3460,
      "Ġmerely": 3461,
      "ĠWALES": 3462,
      "ges": 3463,
      "ium": 3464,
      "Ø§": 3465,
      "reet": 3466,
      "Ġpick": 3467,
      "Ġnone": 3468,
      "ĠCategory": 3469,
      "ĠNews": 3470,
      "Ġvideo": 3471,
      "Ġpropaganda": 3472,
      "rem": 3473,
      "Ġmen": 3474,
      "Ġinappropriate": 3475,
      "Ġgames": 3476,
      "Ġforward": 3477,
      "ays": 3478,
      "ĠCent": 3479,
      "ĠCour": 3480,
      "ngth": 3481,
      "Ġ|-": 3482,
      "inese": 3483,
      "ĠAfD": 3484,
      "Ġmoment": 3485,
      "do": 3486,
      "ham": 3487,
      "ming": 3488,
      "Ġwide": 3489,
      "Ġhes": 3490,
      "Ġinit": 3491,
      "asing": 3492,
      "Ġassoci": 3493,
      "Ġnear": 3494,
      "Ġvill": 3495,
      "ĠGA": 3496,
      "Ġweezer": 3497,
      "ĠGreek": 3498,
      "Ġ''''''": 3499,
      "ouch": 3500,
      "len": 3501,
      "Ġpaper": 3502,
      "Ġnature": 3503,
      "ĠWould": 3504,
      "ĠWhere": 3505,
      "chie": 3506,
      "ources": 3507,
      "ems": 3508,
      "Ġ22": 3509,
      "ĠJames": 3510,
      "Ġdecided": 3511,
      "Ġgroups": 3512,
      "Ġlanguages": 3513,
      "key": 3514,
      "Ġbasic": 3515,
      "Ġignor": 3516,
      "Ġorganization": 3517,
      "Ġbehaviour": 3518,
      "________": 3519,
      "FUCKFUCKFUCKFUCKFUCKFUCKFUCKFUCKFUCKFUCKFUCKFUCKFUCKFUCKFUCKFUCK": 3520,
      "**": 3521,
      "book": 3522,
      "light": 3523,
      "atory": 3524,
      "ĠWIK": 3525,
      "Ġmethod": 3526,
      "ource": 3527,
      "eter": 3528,
      "Ġvol": 3529,
      "Ġvote": 3530,
      "Ġsometimes": 3531,
      "Ġnewsp": 3532,
      "Ġrecomm": 3533,
      "Ġground": 3534,
      "Ġspeedily": 3535,
      "Ġbottom": 3536,
      "Ġsockpuppet": 3537,
      "nnnnnnnnnnnnnnnnnnnnnnnnnnnnnnnnnnnnnnnnnnnnnnnnnnnnnnnnnnnnnnnn": 3538,
      "Ġbreak": 3539,
      "sych": 3540,
      "ĠApril": 3541,
      "):": 3542,
      "LP": 3543,
      "OC": 3544,
      "ening": 3545,
      "Ġdog": 3546,
      "ĠMin": 3547,
      "ĠYork": 3548,
      "Ġexists": 3549,
      "Ġreader": 3550,
      "Ġplan": 3551,
      "???": 3552,
      "Ġexplained": 3553,
      "azi": 3554,
      "Ġexamples": 3555,
      "Ġadministrators": 3556,
      "ĠHistory": 3557,
      "Ġsuccess": 3558,
      "Ġfamiliar": 3559,
      "Ġsatisf": 3560,
      "Wikipedia": 3561,
      "gue": 3562,
      "ka": 3563,
      "know": 3564,
      "entially": 3565,
      "Ġstra": 3566,
      "Ġshown": 3567,
      "Ġremark": 3568,
      "appy": 3569,
      "Ġrequired": 3570,
      "Ġkilled": 3571,
      "Ġindependent": 3572,
      "zz": 3573,
      "ency": 3574,
      "ingu": 3575,
      "ĠWas": 3576,
      "ĠMc": 3577,
      "ĠOK": 3578,
      "ptember": 3579,
      "ĠState": 3580,
      "Ġapply": 3581,
      "Ġreferring": 3582,
      "comp": 3583,
      "Ġflag": 3584,
      "orth": 3585,
      "Ġbull": 3586,
      "Ġpot": 3587,
      "Ġpay": 3588,
      "Ġethnic": 3589,
      "imin": 3590,
      "iff": 3591,
      "Ġstub": 3592,
      "ĠFin": 3593,
      "anted": 3594,
      "letion": 3595,
      "Ġdiscussions": 3596,
      "Ġaccounts": 3597,
      "Ġsurpr": 3598,
      "ĠDICK": 3599,
      "Ġignore": 3600,
      "Ġprior": 3601,
      "Ġfixed": 3602,
      "CH": 3603,
      "ÙĦ": 3604,
      "Ġtend": 3605,
      "Ġage": 3606,
      "Ġwomen": 3607,
      "Ġhurt": 3608,
      "Ġnight": 3609,
      "set": 3610,
      "ĠRes": 3611,
      "Ġknows": 3612,
      "plates": 3613,
      "ĠChurch": 3614,
      "Ġcontribution": 3615,
      "ibal": 3616,
      "ĠBecause": 3617,
      "Ġwatching": 3618,
      "Ġoccur": 3619,
      "Ġidiot": 3620,
      "Ġepisode": 3621,
      "Ġimmediately": 3622,
      "ta": 3623,
      "uh": 3624,
      "vil": 3625,
      "Ġtowards": 3626,
      "Ġdrop": 3627,
      "Ġlib": 3628,
      "Ġgay": 3629,
      "ĠARE": 3630,
      "irt": 3631,
      "ĠFurther": 3632,
      "ĠList": 3633,
      "abor": 3634,
      "Ġclub": 3635,
      "Ġbrought": 3636,
      "Ġdiscussing": 3637,
      "Ġgives": 3638,
      "Ġvalue": 3639,
      "ĠMUD": 3640,
      "ma": 3641,
      "Ġnat": 3642,
      "uslim": 3643,
      "Ġlow": 3644,
      "Ġluck": 3645,
      "ĠSm": 3646,
      "rie": 3647,
      "ĠGoogle": 3648,
      "Ġjournal": 3649,
      "ĠJim": 3650,
      "Ġintention": 3651,
      "ERS": 3652,
      "Ġreferenced": 3653,
      "Ġ[[": 3654,
      "Ġimportance": 3655,
      "ĠJanuary": 3656,
      "Ġ(~~~~);": 3657,
      "aign": 3658,
      "br": 3659,
      "ky": 3660,
      "uge": 3661,
      "yond": 3662,
      "Ġhalf": 3663,
      "ĠHope": 3664,
      "clus": 3665,
      "iles": 3666,
      "Ġappl": 3667,
      "Ġcreation": 3668,
      "ANT": 3669,
      "Ġservice": 3670,
      "Ġincident": 3671,
      "Ġconcerned": 3672,
      "Ġfront": 3673,
      "Ġwondering": 3674,
      "Ġtypes": 3675,
      "ĠCroat": 3676,
      "Ġdemonstr": 3677,
      "'.": 3678,
      "PIC": 3679,
      "Un": 3680,
      "Ġborder": 3681,
      "Ġfinal": 3682,
      "Ġmeets": 3683,
      "Ġchat": 3684,
      "ciety": 3685,
      "cons": 3686,
      "Ġdefinitely": 3687,
      "Ġweeks": 3688,
      "Ġcommunic": 3689,
      "ĠAdd": 3690,
      "onymous": 3691,
      "100": 3692,
      "Ġ+": 3693,
      "Ġsad": 3694,
      "itude": 3695,
      "ĠCH": 3696,
      "ĠBill": 3697,
      "Ġimpl": 3698,
      "Ġperform": 3699,
      "Ġplaces": 3700,
      "Ġpopular": 3701,
      "Ġcentury": 3702,
      "Ġtotal": 3703,
      "FC": 3704,
      "My": 3705,
      "list": 3706,
      "receding": 3707,
      "Ġlik": 3708,
      "ĠTutorial": 3709,
      "Ġeconom": 3710,
      "Ġnoted": 3711,
      "ĠSim": 3712,
      "ĠCar": 3713,
      "ulations": 3714,
      "ustr": 3715,
      "Ġsuggestion": 3716,
      "Ġcourt": 3717,
      "Ġguideline": 3718,
      "Ġpresented": 3719,
      "ĠAfric": 3720,
      "Ġfailed": 3721,
      "40": 3722,
      "bor": 3723,
      "iet": 3724,
      "nce": 3725,
      "ped": 3726,
      "ĠÎ": 3727,
      "Ġbody": 3728,
      "anish": 3729,
      "Ġmap": 3730,
      "align": 3731,
      "ĠOR": 3732,
      "serv": 3733,
      "apers": 3734,
      "Ġpublish": 3735,
      "Ġ50": 3736,
      "Ġlicense": 3737,
      "Yes": 3738,
      "with": 3739,
      "ĠÐ": 3740,
      "Ġachie": 3741,
      "Ġcop": 3742,
      "esus": 3743,
      "alm": 3744,
      "hem": 3745,
      "hetic": 3746,
      "ĠSw": 3747,
      "Ġselect": 3748,
      "ĠFrench": 3749,
      "ĠNovember": 3750,
      "ondon": 3751,
      "Ġ2013": 3752,
      "istics": 3753,
      "Ġfavor": 3754,
      "Ġmovie": 3755,
      "ĠAustral": 3756,
      "30": 3757,
      "Cont": 3758,
      "Han": 3759,
      "aa": 3760,
      "hi": 3761,
      "Ġbirth": 3762,
      "Ġnamed": 3763,
      "Ġlay": 3764,
      "ĠAnt": 3765,
      "ĠArab": 3766,
      "ĠHappy": 3767,
      "istan": 3768,
      "ilos": 3769,
      "enda": 3770,
      "Ġapparently": 3771,
      "coming": 3772,
      "Ġstudents": 3773,
      "Ġcharacters": 3774,
      "ĠFAIL": 3775,
      "Ġfinan": 3776,
      "ĠJews": 3777,
      "Article": 3778,
      "Ġapproach": 3779,
      "Ġreleased": 3780,
      "Ġirrelevant": 3781,
      "?!": 3782,
      "eff": 3783,
      "Ġterror": 3784,
      "asure": 3785,
      "ĠSy": 3786,
      "ĠMore": 3787,
      "Ġneither": 3788,
      "ĠUnder": 3789,
      "Ġcouldn": 3790,
      "Ġreasonable": 3791,
      "Ġinfobox": 3792,
      "Ġrole": 3793,
      "Ġtemplates": 3794,
      "Ġwarring": 3795,
      "Ġsolid": 3796,
      "Ġestablished": 3797,
      "ĠFebruary": 3798,
      "Assad": 3799,
      "911": 3800,
      "iculous": 3801,
      "\"\"|": 3802,
      "ĠWelcome": 3803,
      "ĠCount": 3804,
      "rief": 3805,
      "lav": 3806,
      "iously": 3807,
      "===": 3808,
      "Ġreality": 3809,
      "board": 3810,
      "Ġnomination": 3811,
      "Ġquotes": 3812,
      "Ġreceived": 3813,
      "Ġhesit": 3814,
      "Hanibal": 3815,
      "Hello": 3816,
      "Well": 3817,
      "Ġerr": 3818,
      "Ġce": 3819,
      "Ġhost": 3820,
      "Ġliber": 3821,
      "Ġge": 3822,
      "ĠMo": 3823,
      "Ġusage": 3824,
      "Ġvict": 3825,
      "Ġtrouble": 3826,
      "Ġsupported": 3827,
      "Ġbiograph": 3828,
      "Ġideas": 3829,
      "Ġbasis": 3830,
      "Ġpreviously": 3831,
      "ĠGeorge": 3832,
      "ec": 3833,
      "rary": 3834,
      "edy": 3835,
      "Ġcoun": 3836,
      "Ġfill": 3837,
      "Ġmoney": 3838,
      "Ġcond": 3839,
      "udd": 3840,
      "Ġactive": 3841,
      "LLLL": 3842,
      "Ġremoval": 3843,
      "Ġprinc": 3844,
      "Ġwarnings": 3845,
      "ĠNorth": 3846,
      "Ġglad": 3847,
      "egr": 3848,
      "well": 3849,
      "orse": 3850,
      "ana": 3851,
      "ider": 3852,
      "ĠMost": 3853,
      "andid": 3854,
      "Ġalleg": 3855,
      "Ġchalle": 3856,
      "Ġtrust": 3857,
      "Ġspam": 3858,
      "1111111111111111111111111111111111111111111111111111111111111111": 3859,
      "Ġvisit": 3860,
      "ĠÂ·": 3861,
      "Ġlimited": 3862,
      "ambiguation": 3863,
      "Ex": 3864,
      "MA": 3865,
      "So": 3866,
      "wiki": 3867,
      "icit": 3868,
      "Ġlate": 3869,
      "ids": 3870,
      "imedia": 3871,
      "ĠSup": 3872,
      "Ġintended": 3873,
      "Ġmanner": 3874,
      "ocrat": 3875,
      "Ġrefers": 3876,
      "Ġassist": 3877,
      "Ġasshole": 3878,
      "Ġchecked": 3879,
      "Ġchecking": 3880,
      "alent": 3881,
      "Ġexpert": 3882,
      "related": 3883,
      "Ġhyp": 3884,
      "ique": 3885,
      "Ġsufficient": 3886,
      "Ġacademic": 3887,
      "28": 3888,
      "NHR": 3889,
      "Wow": 3890,
      "action": 3891,
      "ius": 3892,
      "Ġbase": 3893,
      "Ġinput": 3894,
      "Ġconduct": 3895,
      "ester": 3896,
      "Ġintellig": 3897,
      "ĠStop": 3898,
      "Ġwording": 3899,
      "Ġbelief": 3900,
      "Ġsuggested": 3901,
      "Ġcrap": 3902,
      "Ġpermission": 3903,
      "Ġlegitimate": 3904,
      "ĠOctober": 3905,
      "NHRHS": 3906,
      "?\"\"": 3907,
      "LD": 3908,
      "TH": 3909,
      "Ġargue": 3910,
      "ips": 3911,
      "ĠLike": 3912,
      "ĠIts": 3913,
      "Ġrefrain": 3914,
      "Ġregist": 3915,
      "Ġclaiming": 3916,
      "ĠTHAT": 3917,
      "Ġinsist": 3918,
      "Ġ2012": 3919,
      "Ġcontroversial": 3920,
      "Ġencour": 3921,
      "Ad": 3922,
      "Ġfully": 3923,
      "ĠIm": 3924,
      "Ġhop": 3925,
      "Ġbec": 3926,
      "ceed": 3927,
      "ĠDavid": 3928,
      "ĠOk": 3929,
      "Ġdesign": 3930,
      "Ġparts": 3931,
      "ĠTHIS": 3932,
      "Ġtelling": 3933,
      "Request": 3934,
      "Ġphotos": 3935,
      "Pe": 3936,
      "rict": 3937,
      "Ġcategories": 3938,
      "esis": 3939,
      "asc": 3940,
      "ĠAcc": 3941,
      "ifies": 3942,
      "Ġdeg": 3943,
      "Ġimag": 3944,
      "!!!!'": 3945,
      "ĠYOUR": 3946,
      "Ġpersons": 3947,
      "Ġcompan": 3948,
      "Ġraised": 3949,
      "Ġracist": 3950,
      "AK": 3951,
      "Com": 3952,
      "GG": 3953,
      "Great": 3954,
      "fe": 3955,
      "king": 3956,
      "ergy": 3957,
      "Ġbother": 3958,
      "ĠIr": 3959,
      "Ġanim": 3960,
      "Ġlies": 3961,
      "ĠBE": 3962,
      "ĠBel": 3963,
      "Ġanymore": 3964,
      "Ġagenda": 3965,
      "Ġcompet": 3966,
      "Ġclaimed": 3967,
      "Ġrealize": 3968,
      "Ġshowing": 3969,
      "ructure": 3970,
      "Ġdescribe": 3971,
      "Ġjoke": 3972,
      "Ġadmit": 3973,
      "Ġhonestly": 3974,
      "!)": 3975,
      "ael": 3976,
      "penis": 3977,
      "isions": 3978,
      "Ġland": 3979,
      "cel": 3980,
      "ades": 3981,
      "Ġheld": 3982,
      "ellow": 3983,
      "Ġprot": 3984,
      "They": 3985,
      "Ġvers": 3986,
      "Ġnumerous": 3987,
      "Ġplayed": 3988,
      "Ġappreciated": 3989,
      "Ġequal": 3990,
      "Ġpractice": 3991,
      "How": 3992,
      "cise": 3993,
      "Ġx": 3994,
      "ĠÅ": 3995,
      "onna": 3996,
      "itation": 3997,
      "Ġcant": 3998,
      "anced": 3999,
      "Ġmilitary": 4000,
      "ica": 4001,
      "ĠSun": 4002,
      "ĠMany": 4003,
      "Ġyours": 4004,
      "Ġweight": 4005,
      "ĠRight": 4006,
      "Ġdespite": 4007,
      "Ġincludes": 4008,
      "Ġstarting": 4009,
      "Ġblat": 4010,
      "Ġmovement": 4011,
      "Ġcapital": 4012,
      ")\"": 4013,
      "60": 4014,
      "77": 4015,
      "99": 4016,
      "II": 4017,
      "RO": 4018,
      "gar": 4019,
      "time": 4020,
      "Ġtouch": 4021,
      "ino": 4022,
      "eng": 4023,
      "ened": 4024,
      "Ġmother": 4025,
      "Ġbeyond": 4026,
      "Ġrandom": 4027,
      "Ġsomewhat": 4028,
      "Ġchoose": 4029,
      "Ġtrain": 4030,
      "viet": 4031,
      "ĠJapanese": 4032,
      "Ġridiculous": 4033,
      "Quest": 4034,
      "Ġhesitate": 4035,
      "ken": 4036,
      "mi": 4037,
      "Ġcast": 4038,
      "Ġdumb": 4039,
      "Ġseason": 4040,
      "ĠDes": 4041,
      "ĠRoman": 4042,
      "iance": 4043,
      "Ġfinding": 4044,
      "Ġmaintain": 4045,
      "ifying": 4046,
      "Ġsounds": 4047,
      "Ġadvertising": 4048,
      "Ġfinancial": 4049,
      "An": 4050,
      "aff": 4051,
      "Ġz": 4052,
      "Ġstic": 4053,
      "Ġcandid": 4054,
      "ĠIran": 4055,
      "Ġdiv": 4056,
      "ott": 4057,
      "ushing": 4058,
      "ste": 4059,
      "ittee": 4060,
      "Ġreverts": 4061,
      "Ġincre": 4062,
      "ARD": 4063,
      "onestly": 4064,
      "Ġbands": 4065,
      "adding": 4066,
      "Ġjudge": 4067,
      "LY": 4068,
      "ho": 4069,
      "xual": 4070,
      "Ġbar": 4071,
      "igher": 4072,
      "ĠMich": 4073,
      "urb": 4074,
      "Ġsold": 4075,
      "ĠEvery": 4076,
      "class": 4077,
      "ANN": 4078,
      "ĠSeptember": 4079,
      "Ġstudies": 4080,
      "reedom": 4081,
      "Ġreferred": 4082,
      "Ġrepeatedly": 4083,
      "Ġbecame": 4084,
      "80": 4085,
      "ech": 4086,
      "pir": 4087,
      "Ġtax": 4088,
      "rees": 4089,
      "Ġdie": 4090,
      "Ġled": 4091,
      "Ġgirl": 4092,
      "ĠPar": 4093,
      "ĠMon": 4094,
      "emplate": 4095,
      "lobal": 4096,
      "odes": 4097,
      "accur": 4098,
      "atholic": 4099,
      "Ġcontroversy": 4100,
      "Ġcompanies": 4101,
      "45": 4102,
      "BC": 4103,
      "CC": 4104,
      "She": 4105,
      "ĠÃ": 4106,
      "Ġsend": 4107,
      "Ġla": 4108,
      "stream": 4109,
      "that": 4110,
      "ĠBlack": 4111,
      "ĠJesus": 4112,
      "Ġnobody": 4113,
      "Ġcontributors": 4114,
      "ITH": 4115,
      "Ġconsidering": 4116,
      "Ġwebsites": 4117,
      "Ġexistence": 4118,
      "Ġinvolve": 4119,
      "ĠEuropean": 4120,
      "Ġlabel": 4121,
      "Ġphrase": 4122,
      "IR": 4123,
      "Would": 4124,
      "fortunately": 4125,
      "Ġpain": 4126,
      "Ġder": 4127,
      "Ġreve": 4128,
      "Ġforum": 4129,
      "Ġdev": 4130,
      "ĠBar": 4131,
      "ĠJack": 4132,
      "ume": 4133,
      "force": 4134,
      "osp": 4135,
      "Ġoffer": 4136,
      "'''": 4137,
      "Ġconfused": 4138,
      "Ġreached": 4139,
      "Ġnormal": 4140,
      "ĠParty": 4141,
      "21": 4142,
      "Ġbrief": 4143,
      "Ġparent": 4144,
      "Ġpenis": 4145,
      "uses": 4146,
      "ĠDem": 4147,
      "rian": 4148,
      "ivity": 4149,
      "const": 4150,
      "Ġspecul": 4151,
      "Ġnominated": 4152,
      "ossible": 4153,
      "Ġconnection": 4154,
      "cer": 4155,
      "ience": 4156,
      "ping": 4157,
      "rep": 4158,
      "Ġdom": 4159,
      "Ġnipp": 4160,
      "ĠSP": 4161,
      "under": 4162,
      "ĠPort": 4163,
      "ilt": 4164,
      "Ġadop": 4165,
      "Ġ28": 4166,
      "Ġdisplay": 4167,
      "raft": 4168,
      "ĠUP": 4169,
      "Ġ-)": 4170,
      "ĠChinese": 4171,
      "Ġfunny": 4172,
      "Ġpositive": 4173,
      "Ġ{|": 4174,
      "Ġmerge": 4175,
      "Ġproposal": 4176,
      "helpme": 4177,
      "Ġtradition": 4178,
      "SD": 4179,
      "sure": 4180,
      "Ġ~": 4181,
      "Ġthous": 4182,
      "Ġspl": 4183,
      "Ġgain": 4184,
      "ĠApp": 4185,
      "stood": 4186,
      "Ġsec": 4187,
      "ĠNO": 4188,
      "ĠLondon": 4189,
      "lace": 4190,
      "oses": 4191,
      "Ġimproving": 4192,
      "ĠGetting": 4193,
      "As": 4194,
      "cle": 4195,
      "ev": 4196,
      "lin": 4197,
      "rant": 4198,
      "ying": 4199,
      "Ġ>": 4200,
      "Ġsens": 4201,
      "ĠTimes": 4202,
      "aging": 4203,
      "ĠCr": 4204,
      "ĠBush": 4205,
      "Ġshared": 4206,
      "uman": 4207,
      "pective": 4208,
      "ftware": 4209,
      "ĠTurk": 4210,
      "Ġdestroy": 4211,
      "Ġnipple": 4212,
      "GA": 4213,
      "RT": 4214,
      "Ġack": 4215,
      "org": 4216,
      "orrow": 4217,
      "Ġpure": 4218,
      "Ġpush": 4219,
      "Ġfit": 4220,
      "utter": 4221,
      "ĠCong": 4222,
      "ĠPres": 4223,
      "ĠFile": 4224,
      "ĠDa": 4225,
      "Ġsomebody": 4226,
      "Ġimm": 4227,
      "Ġmoving": 4228,
      "formation": 4229,
      "Ġmostly": 4230,
      "ESE": 4231,
      "Ġsuggestions": 4232,
      "Ġreviewer": 4233,
      "Ġencyclopedic": 4234,
      "ĠUSA": 4235,
      "Ġprominent": 4236,
      "ript": 4237,
      "ĠGermany": 4238,
      "ĠPeople": 4239,
      "Ġfeatured": 4240,
      "Ġfundament": 4241,
      "known": 4242,
      "Welcome": 4243,
      "hood": 4244,
      "vo": 4245,
      "itable": 4246,
      "Ġfelt": 4247,
      "Ġhuge": 4248,
      "Ġreject": 4249,
      "Ġredu": 4250,
      "Ġgra": 4251,
      "ĠWITH": 4252,
      "ĠALL": 4253,
      "ĠBarnstar": 4254,
      "Ġvia": 4255,
      "Ġenergy": 4256,
      "ĠItal": 4257,
      "Ġtopics": 4258,
      "Ġkeeping": 4259,
      "Ġblood": 4260,
      "Ġthoughts": 4261,
      "protect": 4262,
      "upport": 4263,
      "Ġlogic": 4264,
      "ĠShould": 4265,
      "Ġclosed": 4266,
      "Ġrunning": 4267,
      "Ġaccusations": 4268,
      "ĠWestern": 4269,
      "ilosoph": 4270,
      "GE": 4271,
      "HT": 4272,
      "NN": 4273,
      "Ġtone": 4274,
      "Ġsn": 4275,
      "atin": 4276,
      "Ġwidth": 4277,
      "Ġlines": 4278,
      "ĠCity": 4279,
      "ĠMet": 4280,
      "ills": 4281,
      "ĠFl": 4282,
      "Ġunre": 4283,
      "Ġsomewhere": 4284,
      "Ġseeing": 4285,
      "ĠAlthough": 4286,
      "ĠTherefore": 4287,
      "Ġinstance": 4288,
      "Ġelsewhere": 4289,
      "Ġauthors": 4290,
      "Ġtrack": 4291,
      "Ġapologize": 4292,
      "Ġbroad": 4293,
      "Ġspelling": 4294,
      "Ġcampaign": 4295,
      "Ġalternative": 4296,
      "Ġrecommend": 4297,
      "iated": 4298,
      "ination": 4299,
      "astic": 4300,
      "ĠCons": 4301,
      "Ġcomb": 4302,
      "Ġgod": 4303,
      "Ġoffic": 4304,
      "ĠChar": 4305,
      "Ġprint": 4306,
      "Ġfollowed": 4307,
      "ĠEngland": 4308,
      "Ġdisagreed": 4309,
      "Ġauthority": 4310,
      "Ġsett": 4311,
      "Ġimpressive": 4312,
      "26": 4313,
      "Ed": 4314,
      "LA": 4315,
      "oke": 4316,
      "Ġtar": 4317,
      "Ġcell": 4318,
      "eness": 4319,
      "Ġpsych": 4320,
      "Ġhigher": 4321,
      "Ġlie": 4322,
      "ĠTom": 4323,
      "owing": 4324,
      "rog": 4325,
      "Ġstating": 4326,
      "urg": 4327,
      "ĠFound": 4328,
      "alest": 4329,
      "Ġbuilding": 4330,
      "Ġstraight": 4331,
      "Ġacknow": 4332,
      "Be": 4333,
      "One": 4334,
      "Sh": 4335,
      "ray": 4336,
      "Ġbattle": 4337,
      "Ġinaccur": 4338,
      "Ġgonna": 4339,
      "Ġaspect": 4340,
      "ĠCor": 4341,
      "ĠCur": 4342,
      "ĠMal": 4343,
      "Ġshare": 4344,
      "inks": 4345,
      "ĠGreat": 4346,
      "Ġchurch": 4347,
      "ersonal": 4348,
      "Ġreput": 4349,
      "Ġseemed": 4350,
      "ĠAlban": 4351,
      "Ġbasically": 4352,
      "Ġupdated": 4353,
      "ĠAngel": 4354,
      "Ġperfectly": 4355,
      "Ġrelationship": 4356,
      "We": 4357,
      "].": 4358,
      "ae": 4359,
      "bs": 4360,
      "ya": 4361,
      "erry": 4362,
      "ĠTAB": 4363,
      "Ġnotes": 4364,
      "ĠMark": 4365,
      "Ġ27": 4366,
      "Ġwhose": 4367,
      "Ġspeaking": 4368,
      "Ġfactual": 4369,
      "ĠChina": 4370,
      "Ġregion": 4371,
      "Ġsyn": 4372,
      "Ġlots": 4373,
      "Ġfamous": 4374,
      "Ġundo": 4375,
      "Ġefforts": 4376,
      "',": 4377,
      "Do": 4378,
      "IV": 4379,
      "aut": 4380,
      "etic": 4381,
      "Ġsla": 4382,
      "Ġcat": 4383,
      "Ġinn": 4384,
      "Ġren": 4385,
      "ĠAc": 4386,
      "ĠCo": 4387,
      "ĠBook": 4388,
      "irit": 4389,
      "Ġunlike": 4390,
      "rap": 4391,
      "osexual": 4392,
      "Ġresolution": 4393,
      "Ġsexual": 4394,
      "Ġletter": 4395,
      "Ġhappens": 4396,
      "ĠAmericans": 4397,
      "Ġfunction": 4398,
      "Ġconstructive": 4399,
      "Ġlicens": 4400,
      "Ġexperimenting": 4401,
      "Ġdetermin": 4402,
      "Ġcircum": 4403,
      "64": 4404,
      "eal": 4405,
      "mon": 4406,
      "wing": 4407,
      "yan": 4408,
      "inn": 4409,
      "Ġpuppet": 4410,
      "esides": 4411,
      "Ġdates": 4412,
      "ĠPaul": 4413,
      "ĠHer": 4414,
      "ĠHol": 4415,
      "ĠHind": 4416,
      "Ġprogress": 4417,
      "Ġalt": 4418,
      "ief": 4419,
      "ĠLOS": 4420,
      "ĠOff": 4421,
      "ivility": 4422,
      "Ġguide": 4423,
      "Ġways": 4424,
      "Ġindust": 4425,
      "ception": 4426,
      "Ġsuppose": 4427,
      "Ġfairly": 4428,
      "199": 4429,
      "azine": 4430,
      "Ġlogged": 4431,
      "Ġminutes": 4432,
      "Ġconcerning": 4433,
      "Ġdistin": 4434,
      "Ġclassy": 4435,
      "Ġaccused": 4436,
      "Ġtranslation": 4437,
      "iverse": 4438,
      "isation": 4439,
      "Ġcode": 4440,
      "leading": 4441,
      "Ġmix": 4442,
      "Ġancient": 4443,
      "Ġdied": 4444,
      "Ġnet": 4445,
      "ĠSam": 4446,
      "ander": 4447,
      ".....": 4448,
      "Ġexc": 4449,
      "ritten": 4450,
      "ĠâĢĺ": 4451,
      "Ġwriter": 4452,
      "anning": 4453,
      "Ġsuggesting": 4454,
      "Ġreviewed": 4455,
      "Ġuploading": 4456,
      "Ġconfirmed": 4457,
      "Ġnewspaper": 4458,
      "34": 4459,
      "Ġ:": 4460,
      "ises": 4461,
      "Ġdi": 4462,
      "Ġthats": 4463,
      "ady": 4464,
      "ĠCHE": 4465,
      "Ġdecl": 4466,
      "ĠDay": 4467,
      "ĠEr": 4468,
      "Ġthinks": 4469,
      "ends": 4470,
      "Ġmature": 4471,
      "Ġfool": 4472,
      "Ġverify": 4473,
      "Ġsubjects": 4474,
      "Ġappeared": 4475,
      "Ġstands": 4476,
      "ĠComp": 4477,
      "Ġsecondary": 4478,
      "MMMMMMMM": 4479,
      "UM": 4480,
      "WP": 4481,
      "ape": 4482,
      "Ġ$": 4483,
      "Ġil": 4484,
      "Ġsan": 4485,
      "lear": 4486,
      "Ġfem": 4487,
      "ĠMedia": 4488,
      "Ġability": 4489,
      "ĠFOR": 4490,
      "aby": 4491,
      "Ġthroughout": 4492,
      "Ġwarned": 4493,
      "Ġignored": 4494,
      "AGE": 4495,
      "ĠPolish": 4496,
      "ĠLOSER": 4497,
      "can": 4498,
      "db": 4499,
      "hib": 4500,
      "she": 4501,
      "tr": 4502,
      "zy": 4503,
      "Ġbold": 4504,
      "Ġcross": 4505,
      "Ġfather": 4506,
      "Ġhund": 4507,
      "lling": 4508,
      "Ġgoogle": 4509,
      "idge": 4510,
      "ĠSan": 4511,
      "tice": 4512,
      "Ġrank": 4513,
      "Ġintegr": 4514,
      "OULD": 4515,
      "Ġevil": 4516,
      "Ġvertical": 4517,
      "ysis": 4518,
      "Ġinternational": 4519,
      "Ġstrongly": 4520,
      "Ġemploy": 4521,
      "Ġextremely": 4522,
      "Sometimes": 4523,
      "stein": 4524,
      "Cl": 4525,
      "Honestly": 4526,
      "uous": 4527,
      "Ġ@": 4528,
      "Ġsal": 4529,
      "erv": 4530,
      "Ġple": 4531,
      "Ġanybody": 4532,
      "izations": 4533,
      "Ġpointed": 4534,
      "Ġkey": 4535,
      "ruction": 4536,
      "Ġ2014": 4537,
      "Ġmissed": 4538,
      "Ġadditional": 4539,
      "ĠArticles": 4540,
      "ĠSchool": 4541,
      "Ġbeginning": 4542,
      "Ġcollabor": 4543,
      "Ġhundred": 4544,
      "56": 4545,
      "bl": 4546,
      "cil": 4547,
      "cies": 4548,
      "eg": 4549,
      "mine": 4550,
      "oly": 4551,
      "atives": 4552,
      "Ġwest": 4553,
      "Ġpushing": 4554,
      "Ġfol": 4555,
      "ĠSC": 4556,
      "ĠCOM": 4557,
      "unk": 4558,
      "Ġareas": 4559,
      "oper": 4560,
      "olf": 4561,
      "ĠMor": 4562,
      "Ġrul": 4563,
      "pped": 4564,
      "raid": 4565,
      "ured": 4566,
      "Ġintent": 4567,
      "Ġcomprom": 4568,
      "ATION": 4569,
      "Ġpolice": 4570,
      "Ġproviding": 4571,
      "ALK": 4572,
      "::::": 4573,
      "Ġcriterion": 4574,
      "Ġpromote": 4575,
      "Ġunsourced": 4576,
      "ĠCommons": 4577,
      "Ġdouble": 4578,
      "Ġprotected": 4579,
      "29": 4580,
      "RA": 4581,
      "Ġult": 4582,
      "Ġten": 4583,
      "Ġson": 4584,
      "Ġsix": 4585,
      "ederal": 4586,
      "Ġbunch": 4587,
      "Ġcorre": 4588,
      "ald": 4589,
      "Ġyoung": 4590,
      "vey": 4591,
      "ctor": 4592,
      "ift": 4593,
      "ĠBo": 4594,
      "Ġshut": 4595,
      "Ġlength": 4596,
      "âĢĵ": 4597,
      "erman": 4598,
      "Ġexplicit": 4599,
      "Ġadminist": 4600,
      "ĠSoviet": 4601,
      "Ġprovides": 4602,
      "Ġsupporting": 4603,
      "Ġdefined": 4604,
      "Ġcaused": 4605,
      "Ġdisagreeing": 4606,
      "Ġdeliber": 4607,
      "ĠTrans": 4608,
      "Ġbusy": 4609,
      "Ġestablish": 4610,
      "Ġscholars": 4611,
      "Ġmentions": 4612,
      "ĠActually": 4613,
      "Ġwidely": 4614,
      "Questions": 4615,
      "bel": 4616,
      "fact": 4617,
      "ien": 4618,
      "vir": 4619,
      "inter": 4620,
      "Ġsize": 4621,
      "Ġpiss": 4622,
      "Ġmiddle": 4623,
      "Ġodd": 4624,
      "Ġwhom": 4625,
      "ĠWales": 4626,
      "sec": 4627,
      "ĠPers": 4628,
      "Ġstalk": 4629,
      "ula": 4630,
      "ĠRel": 4631,
      "Ġcontains": 4632,
      "Ġ26": 4633,
      "law": 4634,
      "fered": 4635,
      "Ġspeech": 4636,
      "ĠKore": 4637,
      "accept": 4638,
      "Ġcommer": 4639,
      "othing": 4640,
      "ĠUnfortunately": 4641,
      "Ġkeeps": 4642,
      "Ġmainstream": 4643,
      "Ġcorrectly": 4644,
      "Ġslight": 4645,
      "ĠCommun": 4646,
      "Ġsignificance": 4647,
      "Ġmodel": 4648,
      "ĠRussian": 4649,
      "\":": 4650,
      "48": 4651,
      "58": 4652,
      "IAN": 4653,
      "PG": 4654,
      "iant": 4655,
      "ram": 4656,
      "iny": 4657,
      "iting": 4658,
      "itler": 4659,
      "Ġlol": 4660,
      "ĠTw": 4661,
      "Ġeyes": 4662,
      "Ġforget": 4663,
      "ĠAL": 4664,
      "ĠAp": 4665,
      "ĠSat": 4666,
      "Ġstructure": 4667,
      "ership": 4668,
      "ĠFre": 4669,
      "ĠGET": 4670,
      "Ġsomehow": 4671,
      "artment": 4672,
      "Ġtruly": 4673,
      "Ġapplic": 4674,
      "Ġlisten": 4675,
      "cluding": 4676,
      "annel": 4677,
      "Ġpropose": 4678,
      "Ġcopyrighted": 4679,
      "Ġrock": 4680,
      "Ġinterview": 4681,
      "reliable": 4682,
      "Ġprivate": 4683,
      "Ġvictim": 4684,
      "ĠAccording": 4685,
      "oca": 4686,
      "tt": 4687,
      "tw": 4688,
      "Ġwater": 4689,
      "asion": 4690,
      "omb": 4691,
      "Ġlos": 4692,
      "ĠAlex": 4693,
      "ĠSing": 4694,
      "style": 4695,
      "ĠCatholic": 4696,
      "ĠMuslim": 4697,
      "Ġrude": 4698,
      "Ġunne": 4699,
      "Ġvs": 4700,
      "Ġfeed": 4701,
      "ĠStar": 4702,
      "Ġhelping": 4703,
      "ĠArch": 4704,
      "Ġbiography": 4705,
      "Ġextra": 4706,
      "Ġmerged": 4707,
      "Ġengine": 4708,
      "Ġlaws": 4709,
      "Ġdelay": 4710,
      "Ġjoin": 4711,
      "Ġindividuals": 4712,
      "Ġfootball": 4713,
      "ĠKeep": 4714,
      "Ġbiographies": 4715,
      "08": 4716,
      "44": 4717,
      "BLOCK": 4718,
      "apt": 4719,
      "Ġcunt": 4720,
      "Ġpaid": 4721,
      "Ġang": 4722,
      "Ġanonymous": 4723,
      "ĠWANT": 4724,
      "amil": 4725,
      "Ġsoftware": 4726,
      "Ġheav": 4727,
      "Ġchoice": 4728,
      "Ġworse": 4729,
      "arded": 4730,
      "ĠInc": 4731,
      "Ġattitude": 4732,
      "Ġmatters": 4733,
      "ords": 4734,
      "Ġtwice": 4735,
      "Ġassess": 4736,
      "ĠAnother": 4737,
      "Ġbrain": 4738,
      "Ġrequested": 4739,
      "Ġsentences": 4740,
      "Ġdisputed": 4741,
      "shit": 4742,
      "Ġprotection": 4743,
      "Ġboard": 4744,
      "Ġparticipate": 4745,
      "Ġcoverage": 4746,
      "Ġperspective": 4747,
      "ĠWikimedia": 4748,
      "Ġafraid": 4749,
      "35": 4750,
      "36": 4751,
      "Edit": 4752,
      "TW": 4753,
      "fess": 4754,
      "ux": 4755,
      "vin": 4756,
      "anic": 4757,
      "ustice": 4758,
      "Ġbegan": 4759,
      "iminal": 4760,
      "Ġconform": 4761,
      "ĠBig": 4762,
      "Ġanywhere": 4763,
      "Ġchart": 4764,
      "Ġagreed": 4765,
      "ubb": 4766,
      "ube": 4767,
      "Ġaccom": 4768,
      "ĠReview": 4769,
      "opyright": 4770,
      "ĠDear": 4771,
      "ĠDeletion": 4772,
      "who": 4773,
      "Ġcitiz": 4774,
      "ĠOnce": 4775,
      "efin": 4776,
      "Ġeasier": 4777,
      "Ġattempts": 4778,
      "Ġrequires": 4779,
      "Ġshortly": 4780,
      "Ġreplaced": 4781,
      "Ġterrit": 4782,
      "!!!!!!!!!!!!!!!!!!!!!!!!!!!!!!!!!!!!!!!!!!!!!!!!!!!!!!!!!!!!!!!!": 4783,
      "ĠYeah": 4784,
      "Ġfrequ": 4785,
      "Ġarbitration": 4786,
      "Ġdegree": 4787,
      "ĠCHEESE": 4788,
      "Ok": 4789,
      "down": 4790,
      "some": 4791,
      "yp": 4792,
      "oul": 4793,
      "Ġsilly": 4794,
      "Ġbul": 4795,
      "lled": 4796,
      "ĠTR": 4797,
      "ĠRed": 4798,
      "Ġjustify": 4799,
      "Ġimpossible": 4800,
      "ĠInst": 4801,
      "Ġattribut": 4802,
      "Ġgramm": 4803,
      "hahaha": 4804,
      "Ġdefend": 4805,
      "Ġsignature": 4806,
      "Ġquoted": 4807,
      "Ġthreats": 4808,
      "Ġexperienced": 4809,
      "ictionary": 4810,
      "ĠUNBLOCK": 4811,
      "Ġcontrad": 4812,
      "42": 4813,
      "Don": 4814,
      "bi": 4815,
      "point": 4816,
      "ued": 4817,
      "ĨĴ": 4818,
      "reh": 4819,
      "Ġtheories": 4820,
      "Ġsqu": 4821,
      "Ġwoman": 4822,
      "Ġcy": 4823,
      "Ġcovered": 4824,
      "Ġfra": 4825,
      "user": 4826,
      "\"\")": 4827,
      "Ġforgot": 4828,
      "ĠAzer": 4829,
      "ĠBi": 4830,
      "ĠHigh": 4831,
      "Ġwaste": 4832,
      "irm": 4833,
      "iler": 4834,
      "Ġknew": 4835,
      "Ġdisambiguation": 4836,
      "ĠEmp": 4837,
      "umn": 4838,
      "berg": 4839,
      "ĠRequest": 4840,
      "Ġtagging": 4841,
      "Ġplaying": 4842,
      "Ġlocated": 4843,
      "Ġharm": 4844,
      "Ġupdate": 4845,
      "Ġinfluence": 4846,
      "Ġeducation": 4847,
      "ĠFinally": 4848,
      "Ġstick": 4849,
      "\",": 4850,
      "YY": 4851,
      "uel": 4852,
      "Ġsick": 4853,
      "Ġhouse": 4854,
      "ara": 4855,
      "Ġlower": 4856,
      "Ġasser": 4857,
      "ĠFair": 4858,
      "ĠFran": 4859,
      "Ġunw": 4860,
      "ĠRich": 4861,
      "Ġsociety": 4862,
      "Ġgoal": 4863,
      "Ġimpact": 4864,
      "Ġoffensive": 4865,
      "ĠVer": 4866,
      "Ġcock": 4867,
      "Ġconfusing": 4868,
      "atively": 4869,
      "uppets": 4870,
      "Ġpathetic": 4871,
      "Ġrepeat": 4872,
      "Ġdevelopment": 4873,
      "Ġquickly": 4874,
      "Ġclicking": 4875,
      "UUUU": 4876,
      "Ġliterature": 4877,
      "Ġinterpretation": 4878,
      "ĠIrish": 4879,
      "31": 4880,
      "59": 4881,
      "FE": 4882,
      "New": 4883,
      "OI": 4884,
      "win": 4885,
      "Â´": 4886,
      "Ġaver": 4887,
      "Ġeye": 4888,
      "het": 4889,
      "Ġshot": 4890,
      "Ġhealth": 4891,
      "Ġadditions": 4892,
      "Ġcredit": 4893,
      "Ġparties": 4894,
      "Ġlogo": 4895,
      "Ġfiles": 4896,
      "Ġmarket": 4897,
      "Ġaffect": 4898,
      "Ġdamn": 4899,
      "Ġanalysis": 4900,
      "Ġlatest": 4901,
      "Ġresponsible": 4902,
      "BS": 4903,
      "pace": 4904,
      "war": 4905,
      "itz": 4906,
      "Ġboy": 4907,
      "Ġhat": 4908,
      "Ġnation": 4909,
      "agon": 4910,
      "Ġconvers": 4911,
      "irgin": 4912,
      "Ġdisg": 4913,
      "ĠEast": 4914,
      "Ġpred": 4915,
      "orship": 4916,
      "phas": 4917,
      "Ġplain": 4918,
      "Ġreasoning": 4919,
      "hington": 4920,
      "Ġreports": 4921,
      "Ġcareful": 4922,
      "Ġtitles": 4923,
      "Ġsummaries": 4924,
      "ĠWikipedians": 4925,
      "OOOOOOOO": 4926,
      "ĠInternet": 4927,
      "Ġachieve": 4928,
      "Articles": 4929,
      "Ġerrors": 4930,
      "Ġreveal": 4931,
      "Ġcommercial": 4932,
      "cest": 4933,
      "even": 4934,
      "ple": 4935,
      "ua": 4936,
      "ĠØ": 4937,
      "Ġ00": 4938,
      "reland": 4939,
      "Ġsca": 4940,
      "anch": 4941,
      "Ġdig": 4942,
      "ĠAh": 4943,
      "ĠMil": 4944,
      "urder": 4945,
      "ĠFuck": 4946,
      "ously": 4947,
      "alled": 4948,
      "aste": 4949,
      "Ġspirit": 4950,
      "Ġverified": 4951,
      "standing": 4952,
      "ĠArb": 4953,
      "Ġcollege": 4954,
      "Ġwishes": 4955,
      "Ġhands": 4956,
      "ĠRegarding": 4957,
      "ĠPhil": 4958,
      "Ġbelongs": 4959,
      "Ġcontinued": 4960,
      "Ġconsistent": 4961,
      "ĠKingdom": 4962,
      "WikiProject": 4963,
      "stitution": 4964,
      "Ġcounter": 4965,
      "acceptable": 4966,
      "!\"\"": 4967,
      "Eng": 4968,
      "List": 4969,
      "rd": 4970,
      "Ġtour": 4971,
      "Ġbarnstar": 4972,
      "Ġcry": 4973,
      "chan": 4974,
      "ĠPat": 4975,
      "ĠHouse": 4976,
      "ĠMart": 4977,
      "Ġrace": 4978,
      "Ġ29": 4979,
      "ĠLatin": 4980,
      "orts": 4981,
      "lah": 4982,
      "iano": 4983,
      "Ġhelps": 4984,
      "Ġplayer": 4985,
      "Ġplayers": 4986,
      "ĠOnly": 4987,
      "ruption": 4988,
      "ĠCommittee": 4989,
      "ĠSHANN": 4990,
      "Ġrevision": 4991,
      "ĠAbout": 4992,
      "ĠGOD": 4993,
      "Ġannoy": 4994,
      "Ġoriginally": 4995,
      "Ġtreatment": 4996,
      "Ġdeserve": 4997,
      "ĠPresident": 4998,
      "ĠSHANNON": 4999,
      "66": 5000,
      "PS": 5001,
      "UN": 5002,
      "ii": 5003,
      "Ùħ": 5004,
      "Ġaim": 5005,
      "Ġwind": 5006,
      "ĠIreland": 5007,
      "Ġho": 5008,
      "Ġrepl": 5009,
      "imal": 5010,
      "Ġconclusion": 5011,
      "ĠBer": 5012,
      "ĠMag": 5013,
      "Ġmeasure": 5014,
      "letter": 5015,
      "ĠEv": 5016,
      "ĠJud": 5017,
      "Ġworry": 5018,
      "Ġpeer": 5019,
      "ĠKN": 5020,
      "bert": 5021,
      "ugs": 5022,
      "Ġentries": 5023,
      "Ġmentioning": 5024,
      "Ġmisleading": 5025,
      "lands": 5026,
      "Ġaddressed": 5027,
      "Ġpolitics": 5028,
      "FFFA": 5029,
      "181": 5030,
      "ĠGreece": 5031,
      "Ġarchive": 5032,
      "ĠCollege": 5033,
      "Ġcontrary": 5034,
      "HAHAHAHAHAHAHAHA": 5035,
      "Also": 5036,
      "Ġprofessional": 5037,
      "Ġinaccurate": 5038,
      "viron": 5039,
      "%\"\"": 5040,
      "86": 5041,
      "Americ": 5042,
      "tes": 5043,
      "Ġswe": 5044,
      "Ġcal": 5045,
      "ĠID": 5046,
      "imately": 5047,
      "rovers": 5048,
      "ĠMed": 5049,
      "aker": 5050,
      "ĠThose": 5051,
      "abe": 5052,
      "Ġready": 5053,
      "Ġoffice": 5054,
      "Ġplot": 5055,
      "Ġspend": 5056,
      "Ġcost": 5057,
      "Ġcontents": 5058,
      "ĠArmen": 5059,
      "Ġroom": 5060,
      "Ġrestore": 5061,
      "Ġobjective": 5062,
      "Ġfinally": 5063,
      "Ġfigures": 5064,
      "Ġturned": 5065,
      "Ġcomplaint": 5066,
      "Ġeventually": 5067,
      "ĠWilliam": 5068,
      "going": 5069,
      "Ġforeign": 5070,
      "ĠObama": 5071,
      "Ġbenefit": 5072,
      "Ġphysical": 5073,
      "Ġignorant": 5074,
      "ĠJimbo": 5075,
      "MAO": 5076,
      "cellent": 5077,
      "Ġblatant": 5078,
      "32": 5079,
      "54": 5080,
      "Can": 5081,
      "For": 5082,
      "Just": 5083,
      "ĠÄ": 5084,
      "Ġmach": 5085,
      "Ġhit": 5086,
      "ĠAir": 5087,
      "amer": 5088,
      "ĠCAN": 5089,
      "iforn": 5090,
      "ĠHa": 5091,
      "ĠHERE": 5092,
      "Ġproced": 5093,
      "Ġhasn": 5094,
      "ival": 5095,
      "Ġensure": 5096,
      "Ġevolution": 5097,
      "Ġunderstood": 5098,
      "Ġacting": 5099,
      "viously": 5100,
      "Ġreviews": 5101,
      "Ġsymb": 5102,
      "ĠANI": 5103,
      "EDIA": 5104,
      "Ġopportun": 5105,
      "Ġenglish": 5106,
      "ĠSHOULD": 5107,
      "Ġconvin": 5108,
      "Ġlatter": 5109,
      "Ġtowns": 5110,
      "ĠFurthermore": 5111,
      "Ġilleg": 5112,
      "Ġunnecess": 5113,
      "39": 5114,
      "On": 5115,
      "To": 5116,
      "za": 5117,
      "ÙĬ": 5118,
      "Ġ01": 5119,
      "revert": 5120,
      "ality": 5121,
      "ĠBen": 5122,
      "ĠBul": 5123,
      "ett": 5124,
      "ĠThus": 5125,
      "ĠRob": 5126,
      "racy": 5127,
      "ĠLaw": 5128,
      "ĠED": 5129,
      "soever": 5130,
      "Ġremind": 5131,
      "osh": 5132,
      "Ġspent": 5133,
      "Ġcontributed": 5134,
      "Ġphilosoph": 5135,
      "anna": 5136,
      "Ġsigned": 5137,
      "Ġscreen": 5138,
      "Ġ40": 5139,
      "Ġciting": 5140,
      "Ġrestored": 5141,
      "ĠSomeone": 5142,
      "Ġsystems": 5143,
      "Ġneutrality": 5144,
      "Ġidentity": 5145,
      "Ġhomosexual": 5146,
      "Ġcredible": 5147,
      "ĠWashington": 5148,
      "Ġnatural": 5149,
      "ĠMichael": 5150,
      "57": 5151,
      "ALL": 5152,
      "FOR": 5153,
      "GW": 5154,
      "Preceding": 5155,
      "aur": 5156,
      "width": 5157,
      "Ġball": 5158,
      "Ġfreedom": 5159,
      "Ġmale": 5160,
      "icious": 5161,
      "ida": 5162,
      "ĠBLP": 5163,
      "Ġproven": 5164,
      "ĠNE": 5165,
      "que": 5166,
      "Ġuniversity": 5167,
      "leted": 5168,
      "rack": 5169,
      "ection": 5170,
      "Ġpeace": 5171,
      "ciation": 5172,
      "Ġhopefully": 5173,
      "Ġruining": 5174,
      "while": 5175,
      "Ġcriminal": 5176,
      "Ġopposed": 5177,
      "Ġcultural": 5178,
      "Ġidentify": 5179,
      "porary": 5180,
      "DDDD": 5181,
      "ĠHELL": 5182,
      "Ġinvestigation": 5183,
      "Ġremarks": 5184,
      "Ġinvolvement": 5185,
      "Ġparents": 5186,
      "Ġaltered": 5187,
      "38": 5188,
      "ROM": 5189,
      "aph": 5190,
      "miss": 5191,
      "post": 5192,
      "oupl": 5193,
      "Ġfire": 5194,
      "vere": 5195,
      "ĠCD": 5196,
      "ĠHitler": 5197,
      "istent": 5198,
      "ĠMain": 5199,
      "Ġord": 5200,
      "ilities": 5201,
      "ĠNJ": 5202,
      "ĠRaul": 5203,
      "uplic": 5204,
      "ĠLMAO": 5205,
      "ĠEVER": 5206,
      "ĠOFF": 5207,
      "ĠWhich": 5208,
      "Ġcomplex": 5209,
      "Ġcompreh": 5210,
      "Ġattract": 5211,
      "Ġuserpage": 5212,
      "Ġpron": 5213,
      "Ġcontributor": 5214,
      "ĠDec": 5215,
      "Ġcarefully": 5216,
      "ĠBeC": 5217,
      "Ġviole": 5218,
      "Ġ99": 5219,
      "Ġimpression": 5220,
      "Ġdetermine": 5221,
      "%;": 5222,
      "gary": 5223,
      "lig": 5224,
      "rs": 5225,
      "zen": 5226,
      "itle": 5227,
      "Ġhon": 5228,
      "Ġancest": 5229,
      "Ġloss": 5230,
      "Ġforth": 5231,
      "ĠPalest": 5232,
      "Ġrate": 5233,
      "Ġunable": 5234,
      "ĠOld": 5235,
      "osn": 5236,
      "Ġcompar": 5237,
      "Ġpointing": 5238,
      "ocial": 5239,
      "Ġcritical": 5240,
      "eek": 5241,
      "Ġcollect": 5242,
      "Ġsurv": 5243,
      "ĠCheck": 5244,
      "ĠAtt": 5245,
      "Ġopening": 5246,
      "Ġnecessarily": 5247,
      "curity": 5248,
      "hahahahahahahahahahahahahahahaha": 5249,
      "auSe": 5250,
      "Ġrewrite": 5251,
      "Ġminority": 5252,
      "ĠCaliforn": 5253,
      "Ġdamage": 5254,
      "ĠSpeedy": 5255,
      "Ġharassment": 5256,
      "Ġthreads": 5257,
      "3333333333333333": 5258,
      "ĠAfrican": 5259,
      "GGT": 5260,
      "Ġversions": 5261,
      "vironment": 5262,
      "ĠBeCauSe": 5263,
      "EM": 5264,
      "PA": 5265,
      "hh": 5266,
      "mas": 5267,
      "note": 5268,
      "uke": 5269,
      "âĻ": 5270,
      "Ġaud": 5271,
      "ĠaRe": 5272,
      "Ġahahahahahahahahahahahahahahahaha": 5273,
      "Ġsolution": 5274,
      "orough": 5275,
      "Ġped": 5276,
      "ĠII": 5277,
      "icro": 5278,
      "arc": 5279,
      "imum": 5280,
      "ĠBlock": 5281,
      "ĠMat": 5282,
      "ĠFGGT": 5283,
      "Ġsole": 5284,
      "Ġwhatsoever": 5285,
      "Ġtalkpage": 5286,
      "Ġinvent": 5287,
      "Ġcareer": 5288,
      "ĠGovern": 5289,
      "Ġtriv": 5290,
      "Ġobjection": 5291,
      "Ġobjections": 5292,
      "Ġfilms": 5293,
      "ĠSpanish": 5294,
      "Ġdealing": 5295,
      "Ġintroduction": 5296,
      "Ġclarify": 5297,
      "lenty": 5298,
      "FDL": 5299,
      "orthy": 5300,
      "Ġsurprised": 5301,
      "Ġcopied": 5302,
      "Ġcele": 5303,
      "ocratic": 5304,
      "Ġaverage": 5305,
      "Ġahahahahahahahahahahahahahahahahahahaha": 5306,
      "06": 5307,
      "43": 5308,
      "mark": 5309,
      "py": 5310,
      "yer": 5311,
      "Ġpen": 5312,
      "Ġfans": 5313,
      "Ġant": 5314,
      "Ġda": 5315,
      "icy": 5316,
      "arm": 5317,
      "article": 5318,
      "Ġforces": 5319,
      "ĠSA": 5320,
      "ĠSu": 5321,
      "Ġ(\"\"": 5322,
      "Ġsemi": 5323,
      "Ġstre": 5324,
      "iples": 5325,
      "ĠBEST": 5326,
      "ĠFo": 5327,
      "Ġrange": 5328,
      "Ġalle": 5329,
      "ĠUp": 5330,
      "asty": 5331,
      "ptions": 5332,
      "Ġresources": 5333,
      "Ġ2003": 5334,
      "Ġreads": 5335,
      "Ġyeah": 5336,
      "Ġspecified": 5337,
      "ĠUnion": 5338,
      "ĠBAST": 5339,
      "Ġemb": 5340,
      "Ġlearned": 5341,
      "Ġholder": 5342,
      "ĠCalgary": 5343,
      "ĠFrank": 5344,
      "Ġresolve": 5345,
      "Ġapplied": 5346,
      "Ġsplit": 5347,
      "ĠFoundation": 5348,
      "41": 5349,
      "But": 5350,
      "OD": 5351,
      "iate": 5352,
      "lan": 5353,
      "inst": 5354,
      "Ġcoupl": 5355,
      "Ġpull": 5356,
      "ingly": 5357,
      "Ġtom": 5358,
      "Ġrevers": 5359,
      "cture": 5360,
      "une": 5361,
      "ĠHung": 5362,
      "Ġrare": 5363,
      "Ġunacceptable": 5364,
      "ĠGreen": 5365,
      "ĠLiber": 5366,
      "...\"\"": 5367,
      "IGHT": 5368,
      "Ġsave": 5369,
      "Ġaccident": 5370,
      "cluded": 5371,
      "ample": 5372,
      "ampions": 5373,
      "ĠSUCKS": 5374,
      "oyal": 5375,
      "Ġ2015": 5376,
      "Ġregardless": 5377,
      "Ġcreator": 5378,
      "Ġrecognize": 5379,
      "Ġannoun": 5380,
      "Ġpresident": 5381,
      "fuckfuckfuckfuckfuckfuckfuckfuck": 5382,
      "Ġessentially": 5383,
      "ĠCourt": 5384,
      "FUCKFUCKFUCKFUCKFUCKFUCKFUCKFUCKFUCKFUCKFUCKFUCKFUCKFUCKFUCKFUCKFUCKFUCKFUCKFUCKFUCKFUCKFUCKFUCKFUCKFUCKFUCKFUCKFUCKFUCKFUCKFUCK": 5385,
      "ĠWIKI": 5386,
      "Ġpotential": 5387,
      "Ġfundamental": 5388,
      "ĠAngela": 5389,
      "Ġcompromise": 5390,
      "Ġfraud": 5391,
      "ĠBASTARD": 5392,
      "90": 5393,
      "HER": 5394,
      "OK": 5395,
      "See": 5396,
      "face": 5397,
      "mit": 5398,
      "Ġbound": 5399,
      "Ġpet": 5400,
      "Ġbecoming": 5401,
      "Ġearth": 5402,
      "ĠCha": 5403,
      "ĠBra": 5404,
      "ola": 5405,
      "ĠMove": 5406,
      "ĠDumb": 5407,
      "Ġkick": 5408,
      "ĠRo": 5409,
      "Ġheart": 5410,
      "ĠJeff": 5411,
      "ĠUse": 5412,
      "Ġfac": 5413,
      "iven": 5414,
      "âĢ¢": 5415,
      "irection": 5416,
      "ounding": 5417,
      "Ġblocks": 5418,
      "Ġexisted": 5419,
      "Ġstudent": 5420,
      "Ġmediation": 5421,
      "IPEDIA": 5422,
      "Ġbroken": 5423,
      "ĠIsraeli": 5424,
      "Ġmagazine": 5425,
      "ĠHAVE": 5426,
      "nnnnnnnnnnnnnnnnnnnnnnnnnnnnnnnnnnnnnnnnnnnnnnnnnnnnnnnnnnnnnnnnnnnnnnnnnnnnnnnnnnnnnnnnnnnnnnnnnnnnnnnnnnnnnnnnnnnnnnnnnnnnnnnn": 5427,
      "Ġchalleng": 5428,
      "esterday": 5429,
      "Ġregistered": 5430,
      "constructive": 5431,
      "Ġtarget": 5432,
      "Ġfeedback": 5433,
      "Ġcontradict": 5434,
      "ĠCalifornia": 5435,
      "53": 5436,
      "55": 5437,
      "ENT": 5438,
      "boy": 5439,
      "fD": 5440,
      "hold": 5441,
      "Ġug": 5442,
      "outhern": 5443,
      "Ġpapers": 5444,
      "Ġplenty": 5445,
      "Ġfasc": 5446,
      "Ġmal": 5447,
      "Ġhot": 5448,
      "Ġduplic": 5449,
      "Ġnaming": 5450,
      "ĠTry": 5451,
      "utch": 5452,
      "road": 5453,
      "ĠSub": 5454,
      "version": 5455,
      "agement": 5456,
      "ĠPress": 5457,
      "ĠPost": 5458,
      "ĠBoth": 5459,
      "olid": 5460,
      "riv": 5461,
      "ĠEither": 5462,
      "ritic": 5463,
      "ribe": 5464,
      "Ġobser": 5465,
      "ocide": 5466,
      "ĠDef": 5467,
      "Ġfreely": 5468,
      "Ġattacked": 5469,
      "Ġroll": 5470,
      "Ġdisputes": 5471,
      "Ġviolate": 5472,
      "Ġaward": 5473,
      "Ġcrime": 5474,
      "Ġlearning": 5475,
      "Ġattempting": 5476,
      "Ġparagraphs": 5477,
      "ĠLIFE": 5478,
      "Ġcentral": 5479,
      "Ġmetal": 5480,
      "ĠTurkey": 5481,
      "Ġfavour": 5482,
      "Ġepisodes": 5483,
      "Ġactivities": 5484,
      "Ġmotiv": 5485,
      "Ġexpanded": 5486,
      "Ġsubstantial": 5487,
      "Ġtreated": 5488,
      "ĠInternational": 5489,
      "ĠMacedonia": 5490,
      "Ġthousands": 5491,
      "ĠEmpire": 5492,
      "68": 5493,
      "Fe": 5494,
      "NPOV": 5495,
      "YK": 5496,
      "ey": 5497,
      "Ã¼": 5498,
      "Ð°": 5499,
      "ÙĪ": 5500,
      "Ġip": 5501,
      "Ġcatch": 5502,
      "Ġfellow": 5503,
      "Ġoil": 5504,
      "Ġdang": 5505,
      "Ġnarr": 5506,
      "Ġonto": 5507,
      "ĠWW": 5508,
      "ĠCle": 5509,
      "ĠDoc": 5510,
      "Ġrap": 5511,
      "rible": 5512,
      "Ġvirt": 5513,
      "ĠLE": 5514,
      "ĠLou": 5515,
      "Ġfault": 5516,
      "ĠKING": 5517,
      "Ġvandalizing": 5518,
      "Ġspread": 5519,
      "Ġconfusion": 5520,
      "Ġ70": 5521,
      "Ġcolor": 5522,
      "Ġvari": 5523,
      "Ġdetailed": 5524,
      "Ġlocation": 5525,
      "Ġraid": 5526,
      "Ġmistakes": 5527,
      "gypt": 5528,
      "Ġsusp": 5529,
      "Ġactivity": 5530,
      "ĠRfC": 5531,
      "Ø§ÙĦ": 5532,
      "Ġassociated": 5533,
      "Ġlikes": 5534,
      "Ġallegations": 5535,
      "Ġintelligence": 5536,
      "Requests": 5537,
      "76": 5538,
      "FRO": 5539,
      "Good": 5540,
      "ZEN": 5541,
      "field": 5542,
      "ror": 5543,
      "vis": 5544,
      "inian": 5545,
      "Ġwars": 5546,
      "Ġwife": 5547,
      "itled": 5548,
      "ican": 5549,
      "Ġelection": 5550,
      "owers": 5551,
      "image": 5552,
      "ros": 5553,
      "section": 5554,
      "adu": 5555,
      "aman": 5556,
      "ĠBLOCK": 5557,
      "ĠDep": 5558,
      "Ġvoice": 5559,
      "Ġcontract": 5560,
      "Ġpoll": 5561,
      "cussion": 5562,
      "ĠKo": 5563,
      "Ġcompared": 5564,
      "Ġ'''": 5565,
      "Ġperman": 5566,
      "others": 5567,
      "ONE": 5568,
      "ONT": 5569,
      "Ġchem": 5570,
      "Ġsuggests": 5571,
      "Ġinside": 5572,
      "Ġolder": 5573,
      "arring": 5574,
      "arrass": 5575,
      "Ġresponded": 5576,
      "Ġunblocked": 5577,
      "ĠChristianity": 5578,
      "ĠGeorg": 5579,
      "ĠCroatian": 5580,
      "ĠAustralia": 5581,
      "Ġdomain": 5582,
      "Ġsymbol": 5583,
      ".[": 5584,
      "46": 5585,
      "89": 5586,
      ";\"\"": 5587,
      "Bot": 5588,
      "cision": 5589,
      "ij": 5590,
      "net": 5591,
      "names": 5592,
      "pages": 5593,
      "png": 5594,
      "van": 5595,
      "vices": 5596,
      "wood": 5597,
      "review": 5598,
      "atter": 5599,
      "Ġmid": 5600,
      "Ġya": 5601,
      "Ġincomp": 5602,
      "Ġlived": 5603,
      "agiar": 5604,
      "ĠAnn": 5605,
      "herent": 5606,
      "ĠSure": 5607,
      "verse": 5608,
      "iginal": 5609,
      "ams": 5610,
      "ĠCoun": 5611,
      "ĠPAGE": 5612,
      "Ġste": 5613,
      "istry": 5614,
      "iling": 5615,
      "ĠDar": 5616,
      "Ġunique": 5617,
      "ĠGFDL": 5618,
      "raq": 5619,
      "Ġamaz": 5620,
      "ĠSte": 5621,
      "ordin": 5622,
      "Ġfeeling": 5623,
      "Ġfollows": 5624,
      "Ġagreement": 5625,
      "ĠANY": 5626,
      "Ġstrict": 5627,
      "Ġadvoc": 5628,
      "istrators": 5629,
      "Ġimprovement": 5630,
      "Ġredirects": 5631,
      "wwww": 5632,
      "Ġsatisfy": 5633,
      "Ġassistance": 5634,
      "Ġprotest": 5635,
      "Ġspeculator": 5636,
      "ĠInstead": 5637,
      "Ġconversation": 5638,
      "ĠNJGW": 5639,
      "FROZEN": 5640,
      "70": 5641,
      "75": 5642,
      "85": 5643,
      "iy": 5644,
      "part": 5645,
      "ument": 5646,
      "Î±": 5647,
      "Ġdro": 5648,
      "Ġdia": 5649,
      "Ġyesterday": 5650,
      "oted": 5651,
      "Ġlives": 5652,
      "ĠWil": 5653,
      "Ġconsequ": 5654,
      "uns": 5655,
      "Ġdeep": 5656,
      "Ġbutt": 5657,
      "ĠLa": 5658,
      "ĠEarth": 5659,
      "ĠStill": 5660,
      "Ġcalls": 5661,
      "ĠVandalism": 5662,
      "Ġgrand": 5663,
      "Ġgenetic": 5664,
      "Ġshowed": 5665,
      "Ġmisunder": 5666,
      "Ġcurious": 5667,
      "Ġblue": 5668,
      "Ġ02": 5669,
      "zero": 5670,
      "ĠLION": 5671,
      "Ġaccusing": 5672,
      "ventions": 5673,
      "Ġoccup": 5674,
      "idden": 5675,
      "Ġdeveloped": 5676,
      "Ġdraft": 5677,
      "ĠIslamic": 5678,
      "ĠEDIT": 5679,
      "49": 5680,
      "NA": 5681,
      "cious": 5682,
      "fo": 5683,
      "iers": 5684,
      "ios": 5685,
      "pen": 5686,
      "Â·": 5687,
      "Ġwalk": 5688,
      "Ġhor": 5689,
      "asy": 5690,
      "Ġongoing": 5691,
      "ĠBTW": 5692,
      "Ġmechan": 5693,
      "Ġjew": 5694,
      "Ġjump": 5695,
      "ortion": 5696,
      "ĠUs": 5697,
      "Ġremains": 5698,
      "Ġprecise": 5699,
      "ĠKar": 5700,
      "ounded": 5701,
      "ĠWhite": 5702,
      "Ġconserv": 5703,
      "Ġsafe": 5704,
      "Ġapparent": 5705,
      "Ġdesire": 5706,
      "Ġplus": 5707,
      "Ġgrow": 5708,
      "Ġspok": 5709,
      "!!!!!!!!!": 5710,
      "Ġappeal": 5711,
      "Ġstrange": 5712,
      "ASE": 5713,
      "Ġpassed": 5714,
      "ĠBrown": 5715,
      "Ġpurposes": 5716,
      "Ġrecognized": 5717,
      "Ġunfair": 5718,
      "Ġunclear": 5719,
      "obert": 5720,
      "ĠQuest": 5721,
      "Ġswitch": 5722,
      "ĠEncyclop": 5723,
      "Ġopposite": 5724,
      "Ġ;)": 5725,
      "Ġinnoc": 5726,
      "Ġexplicitly": 5727,
      "Ġgrammar": 5728,
      "ĠBESTFROZEN": 5729,
      "Dis": 5730,
      "RC": 5731,
      "born": 5732,
      "gn": 5733,
      "puppets": 5734,
      "wide": 5735,
      "xy": 5736,
      "Ġlying": 5737,
      "orter": 5738,
      "orpor": 5739,
      "icle": 5740,
      "Ġbeg": 5741,
      "ĠWE": 5742,
      "ĠWikip": 5743,
      "ifiability": 5744,
      "ĠPI": 5745,
      "ĠHall": 5746,
      "akistan": 5747,
      "Ġrout": 5748,
      "ĠRaj": 5749,
      "ĠLib": 5750,
      "ĠEX": 5751,
      "artial": 5752,
      "Ġ2000": 5753,
      "Ġlisting": 5754,
      "clude": 5755,
      "Ġspot": 5756,
      "Ġdifferences": 5757,
      "Ġ31": 5758,
      "ught": 5759,
      "Ġspecies": 5760,
      "Ġsurely": 5761,
      "Ġstopped": 5762,
      "Ġinstit": 5763,
      "Ġinstruct": 5764,
      "Ġexplains": 5765,
      "Ġ80": 5766,
      "Ġslow": 5767,
      "Ġmistaken": 5768,
      "ĠFAC": 5769,
      "Ġaccuracy": 5770,
      "ĠPoland": 5771,
      "Ġworthy": 5772,
      "Ġexpected": 5773,
      "Ġillustr": 5774,
      "Ġfighting": 5775,
      "ĠSTOP": 5776,
      "Ġnormally": 5777,
      "Ġdeserves": 5778,
      "aughter": 5779,
      "ĠOtherwise": 5780,
      "Ġinitial": 5781,
      "Ġvillages": 5782,
      "ĠAddition": 5783,
      "English": 5784,
      "Ġtomorrow": 5785,
      "))": 5786,
      "65": 5787,
      "May": 5788,
      "Page": 5789,
      "SS": 5790,
      "equ": 5791,
      "fa": 5792,
      "fort": 5793,
      "ients": 5794,
      "krain": 5795,
      "link": 5796,
      "Ġsle": 5797,
      "Ġsides": 5798,
      "orks": 5799,
      "usive": 5800,
      "Ġglobal": 5801,
      "ĠWILL": 5802,
      "ĠSk": 5803,
      "ĠScient": 5804,
      "Ġarse": 5805,
      "ĠPark": 5806,
      "ĠBUS": 5807,
      "olit": 5808,
      "ĠMer": 5809,
      "iled": 5810,
      "ĠYet": 5811,
      "ĠDan": 5812,
      "ĠThom": 5813,
      "Ġking": 5814,
      "Ġexec": 5815,
      "ĠGE": 5816,
      "Ġalter": 5817,
      "race": 5818,
      "Ġnovel": 5819,
      "ictor": 5820,
      "ĠRead": 5821,
      "comes": 5822,
      "Ġsupports": 5823,
      "Ġemphas": 5824,
      "Ġmainly": 5825,
      "Ġcorrected": 5826,
      "Ġmaterials": 5827,
      "Ġlogical": 5828,
      "Ġ06": 5829,
      "FFFF": 5830,
      "ĠQue": 5831,
      "Ġlarger": 5832,
      "Ġengaged": 5833,
      "aij": 5834,
      "Ġdocuments": 5835,
      "Ġlargely": 5836,
      "Ġcredibility": 5837,
      "ĠWHAT": 5838,
      "Ġload": 5839,
      "ĠAsso": 5840,
      "________________": 5841,
      "ĠCounty": 5842,
      "Ġimagine": 5843,
      "Edgar": 5844,
      "ĠDumbass": 5845,
      ".-": 5846,
      "61": 5847,
      "69": 5848,
      "AP": 5849,
      "En": 5850,
      "hist": 5851,
      "rad": 5852,
      "your": 5853,
      "Ðµ": 5854,
      "ĠÑ": 5855,
      "Ġtact": 5856,
      "rey": 5857,
      "Ġsake": 5858,
      "Ġbreed": 5859,
      "Ġtoler": 5860,
      "Ġrelev": 5861,
      "utions": 5862,
      "ĠSum": 5863,
      "ston": 5864,
      "Ġarmy": 5865,
      "ĠCy": 5866,
      "ĠProp": 5867,
      "urk": 5868,
      "Ġrat": 5869,
      "ĠNazi": 5870,
      "Ġneigh": 5871,
      "ĠEPIC": 5872,
      "Ġworst": 5873,
      "Ġknowing": 5874,
      "ogue": 5875,
      "Ġprep": 5876,
      "acc": 5877,
      "Ġuserbox": 5878,
      "ĠChris": 5879,
      "Ġoverw": 5880,
      "Ġproud": 5881,
      "ocracy": 5882,
      "Ġbelieved": 5883,
      "Ġspecify": 5884,
      "annse": 5885,
      "Ġ76": 5886,
      "igger": 5887,
      "Ġleader": 5888,
      "Ġviolates": 5889,
      "Ġviolating": 5890,
      "Ġconstantly": 5891,
      "ĠAnyone": 5892,
      "ĠWHO": 5893,
      "ĠWIKIPEDIA": 5894,
      "Ġbullshit": 5895,
      "Ġapplies": 5896,
      "ĠBillj": 5897,
      "LLLLLLLL": 5898,
      "Ġprinciple": 5899,
      "Ġbeliefs": 5900,
      "Ġaspects": 5901,
      "Ġindustry": 5902,
      "ocaust": 5903,
      "American": 5904,
      "Ġugly": 5905,
      "82": 5906,
      "Im": 5907,
      "Ye": 5908,
      "baij": 5909,
      "date": 5910,
      "mar": 5911,
      "night": 5912,
      "nge": 5913,
      "ws": 5914,
      "Ġutter": 5915,
      "Ġzero": 5916,
      "Ġsouth": 5917,
      "ali": 5918,
      "Ġnative": 5919,
      "Ġlingu": 5920,
      "ĠAD": 5921,
      "ikh": 5922,
      "ĠSur": 5923,
      "tics": 5924,
      "adian": 5925,
      "Ġstage": 5926,
      "ĠHuman": 5927,
      "Ġusual": 5928,
      "ĠNY": 5929,
      "Ġnearly": 5930,
      "ulated": 5931,
      "Ġbytes": 5932,
      "ĠRyan": 5933,
      "raw": 5934,
      "ĠOur": 5935,
      "Ġchron": 5936,
      "0000": 5937,
      "Ġsourcing": 5938,
      "Ġweren": 5939,
      "Ġmanip": 5940,
      "Ġindefin": 5941,
      "Ġpark": 5942,
      "ibl": 5943,
      "atured": 5944,
      "Ġ86": 5945,
      "Ġimproved": 5946,
      "ECE": 5947,
      "Ġorganizations": 5948,
      "Ġfriendly": 5949,
      "Ġlacking": 5950,
      "Ġskills": 5951,
      "ointed": 5952,
      "Ġinsulting": 5953,
      "Ġsongs": 5954,
      "Ġbalance": 5955,
      "ĠSwed": 5956,
      "Ġdetermined": 5957,
      "Ġaccompl": 5958,
      "Ġunnecessary": 5959,
      "Ġcoupled": 5960,
      ")?": 5961,
      "EPIC": 5962,
      "Fair": 5963,
      "Pro": 5964,
      "bre": 5965,
      "band": 5966,
      "cr": 5967,
      "mo": 5968,
      "ule": 5969,
      "va": 5970,
      "vention": 5971,
      "Ġought": 5972,
      "isk": 5973,
      "lements": 5974,
      "Ġfake": 5975,
      "Ġdict": 5976,
      "Ġlose": 5977,
      "Ġlock": 5978,
      "Ġlaugh": 5979,
      "ĠTALK": 5980,
      "ĠMS": 5981,
      "ĠNl": 5982,
      "Ġweak": 5983,
      "ĠKh": 5984,
      "ounds": 5985,
      "isms": 5986,
      "Ġconspir": 5987,
      "icted": 5988,
      "Ġaccuse": 5989,
      "Ġclue": 5990,
      "Ġserve": 5991,
      "Ġelimin": 5992,
      "Ġproduced": 5993,
      "Ġdiscour": 5994,
      "ĠConf": 5995,
      "Ġidentified": 5996,
      "amming": 5997,
      "Ġartist": 5998,
      "OWN": 5999,
      "Ġdocumented": 6000,
      "ĠFrance": 6001,
      "Ġtrolling": 6002,
      "ĠGeneral": 6003,
      "Ġmatches": 6004,
      "Ġvillage": 6005,
      "Ġgrounds": 6006,
      "11111111111111111111111111111111111111111111111111111111111111111111111111111111111111111111111111111111111111111111111111111111": 6007,
      "Ġhoping": 6008,
      "ĠHindu": 6009,
      "Ġassertion": 6010,
      "?\"": 6011,
      "Con": 6012,
      "OST": 6013,
      "ault": 6014,
      "aves": 6015,
      "des": 6016,
      "non": 6017,
      "Ġ).": 6018,
      "Ġton": 6019,
      "Ġwikiped": 6020,
      "Ġbill": 6021,
      "Ġcore": 6022,
      "Ġpack": 6023,
      "inge": 6024,
      "Ġmad": 6025,
      "Ġdedic": 6026,
      "ari": 6027,
      "oms": 6028,
      "Ġbeaut": 6029,
      "ĠTemplate": 6030,
      "ĠSannse": 6031,
      "ĠCSD": 6032,
      "ĠPo": 6033,
      "ĠBosn": 6034,
      "ĠHam": 6035,
      "ĠMel": 6036,
      "elf": 6037,
      "Ġkids": 6038,
      "ĠGl": 6039,
      "ĠEs": 6040,
      "alling": 6041,
      "reek": 6042,
      "izes": 6043,
      "izard": 6044,
      "oday": 6045,
      "Ġfear": 6046,
      "ictional": 6047,
      "Ġnewcom": 6048,
      "ribution": 6049,
      "Ġowner": 6050,
      "Ġbelieves": 6051,
      "Ġdecla": 6052,
      "Ġrequests": 6053,
      "Ġeditorial": 6054,
      "Ġforms": 6055,
      "ICAN": 6056,
      "Ġstatistics": 6057,
      "Ġattempted": 6058,
      "Ġequiv": 6059,
      "ammad": 6060,
      "aught": 6061,
      "Ġapologies": 6062,
      "ĠScott": 6063,
      "Ġresolved": 6064,
      "ĠSmith": 6065,
      "ĠFAILEPIC": 6066,
      "ĠSuper": 6067,
      "Ġhundreds": 6068,
      "ĠGEOR": 6069,
      "Or": 6070,
      "PP": 6071,
      "hand": 6072,
      "kins": 6073,
      "ship": 6074,
      "uz": 6075,
      "itor": 6076,
      "inger": 6077,
      "Ġmus": 6078,
      "Ġmurder": 6079,
      "Ġtoward": 6080,
      "Ġdictionary": 6081,
      "Ġreact": 6082,
      "Ġemer": 6083,
      "seud": 6084,
      "ĠMac": 6085,
      "Ġproceed": 6086,
      "Ġexam": 6087,
      "Ġexclus": 6088,
      "Ġunreliable": 6089,
      "ĠRet": 6090,
      "ĠLast": 6091,
      "ĠLOL": 6092,
      "ĠUnt": 6093,
      "ires": 6094,
      "Ġuseless": 6095,
      "ressed": 6096,
      "Ġobserv": 6097,
      "Ġeverybody": 6098,
      "Ġapology": 6099,
      "ĠAsia": 6100,
      "Ġspeculation": 6101,
      "ĠTHERE": 6102,
      "Ġinterests": 6103,
      "Ġtesting": 6104,
      "Ġviolations": 6105,
      "Ġsummar": 6106,
      "Ġadvance": 6107,
      "ashion": 6108,
      "Ġcommonly": 6109,
      "ĠâĻ": 6110,
      "Ġfailure": 6111,
      "Ġaccusation": 6112,
      "Ġrecorded": 6113,
      "contribs": 6114,
      "Ġconvention": 6115,
      "Ġpromotion": 6116,
      "Ġtechnical": 6117,
      "ĠObviously": 6118,
      "Ġcontained": 6119,
      "Ġbenefits": 6120,
      "Ġconstitutes": 6121,
      "Ġradio": 6122,
      "ĠRemember": 6123,
      "Ġlibel": 6124,
      "Ġcommunication": 6125,
      "Ġhypoc": 6126,
      "Ġfemale": 6127,
      "ubbish": 6128,
      "Ġalleged": 6129,
      "ĠBUSH": 6130,
      "Main": 6131,
      "Ph": 6132,
      "UST": 6133,
      "Where": 6134,
      "bably": 6135,
      "cific": 6136,
      "ghan": 6137,
      "uine": 6138,
      "uable": 6139,
      "itar": 6140,
      "ĠIraq": 6141,
      "Ġhide": 6142,
      "ĠTer": 6143,
      "ĠWAS": 6144,
      "ĠCities": 6145,
      "ĠCopyright": 6146,
      "ĠPS": 6147,
      "ĠPerson": 6148,
      "Ġbutton": 6149,
      "Ġunivers": 6150,
      "ĠOUT": 6151,
      "osen": 6152,
      "anging": 6153,
      "Ġsubsequ": 6154,
      "Ġhadn": 6155,
      "ĠStud": 6156,
      "acity": 6157,
      "ributions": 6158,
      "ĠVan": 6159,
      "ached": 6160,
      "uggest": 6161,
      "Ġregular": 6162,
      "OTHER": 6163,
      "ĠArmy": 6164,
      "Ġbrother": 6165,
      "Ġreviewing": 6166,
      "Ġ71": 6167,
      "Ġgotten": 6168,
      "levision": 6169,
      "ĠProject": 6170,
      "Ġfrustr": 6171,
      "ECT": 6172,
      "Ġdemand": 6173,
      "Ġlargest": 6174,
      "Ġschools": 6175,
      "Ġfinish": 6176,
      "Ġmarked": 6177,
      "Ġresponding": 6178,
      "Ġarchives": 6179,
      "Ġdeny": 6180,
      "Ġmassive": 6181,
      "Ġharassing": 6182,
      "Ġcensorship": 6183,
      "Ġtools": 6184,
      "ĠSerbian": 6185,
      "ĠCroatia": 6186,
      "Ġcondition": 6187,
      "Ġcandidates": 6188,
      "ospital": 6189,
      "Ġacknowledge": 6190,
      "Ġnetwork": 6191,
      "Ġwestern": 6192,
      "ĠPersian": 6193,
      "ĠGEORGE": 6194,
      "03": 6195,
      "All": 6196,
      "BI": 6197,
      "Pr": 6198,
      "UL": 6199,
      "Vandalism": 6200,
      "cis": 6201,
      "ga": 6202,
      "garian": 6203,
      "ja": 6204,
      "pre": 6205,
      "ses": 6206,
      "eder": 6207,
      "Ġcru": 6208,
      "Ġdark": 6209,
      "Ġgraph": 6210,
      "ĠWhe": 6211,
      "Ġforced": 6212,
      "Ġarrog": 6213,
      "igr": 6214,
      "Ġ()": 6215,
      "ĠMusic": 6216,
      "Ġsum": 6217,
      "Ġsuitable": 6218,
      "ette": 6219,
      "Ġedition": 6220,
      "Ġshoot": 6221,
      "Ġvast": 6222,
      "ĠLove": 6223,
      "ĠLord": 6224,
      "ĠEgypt": 6225,
      "ĠJer": 6226,
      "ĠJose": 6227,
      "Ġchose": 6228,
      "riting": 6229,
      "Ġacts": 6230,
      "Ġimplement": 6231,
      "Ġrelation": 6232,
      "arning": 6233,
      "Ġobtain": 6234,
      "ĠRec": 6235,
      "Ġentitled": 6236,
      "Ġcritics": 6237,
      "Ġphone": 6238,
      "Ġcontinues": 6239,
      "Ġgreater": 6240,
      "ĠBefore": 6241,
      "Ġdirected": 6242,
      "Ġredund": 6243,
      "Ġleading": 6244,
      "Ġfrank": 6245,
      "Ġhappening": 6246,
      "ditions": 6247,
      "Ġprojects": 6248,
      "Ġpattern": 6249,
      "Ġraise": 6250,
      "bitration": 6251,
      "Ġmedical": 6252,
      "OBOS": 6253,
      "âĢĶâĢĶ": 6254,
      "Ġunfortunately": 6255,
      "Ġlimit": 6256,
      "Ġsteps": 6257,
      "Ġinserted": 6258,
      "Ġignorance": 6259,
      "OCOBOS": 6260,
      "Ġsuccessful": 6261,
      "ĠCHOCOBOS": 6262,
      "ĠAustralian": 6263,
      "Ġsecret": 6264,
      "Ġcitizens": 6265,
      "Ġterritory": 6266,
      "ĠGovernment": 6267,
      ".âĢĿ": 6268,
      "BLP": 6269,
      "Ind": 6270,
      "brew": 6271,
      "lation": 6272,
      "Î½": 6273,
      "Ð¾": 6274,
      "Ġtask": 6275,
      "Ġthorough": 6276,
      "reation": 6277,
      "Ġburn": 6278,
      "ancy": 6279,
      "Ġpath": 6280,
      "Ġmail": 6281,
      "alin": 6282,
      "astern": 6283,
      "ĠSource": 6284,
      "Ġarri": 6285,
      "iful": 6286,
      "ĠPreceding": 6287,
      "ĠDR": 6288,
      "ĠThird": 6289,
      "Ġkn": 6290,
      "rior": 6291,
      "Ġunconstructive": 6292,
      "Ġchap": 6293,
      "Ġenvironment": 6294,
      "Ġdidnt": 6295,
      "Ġinformative": 6296,
      "acing": 6297,
      "Ġapart": 6298,
      "Ġgenuine": 6299,
      "Ġattacking": 6300,
      "Ġblind": 6301,
      "ategor": 6302,
      "Ġ75": 6303,
      "Ġroad": 6304,
      "Ġcities": 6305,
      "Ġarguing": 6306,
      "Ġ60": 6307,
      "Ġanswers": 6308,
      "Ġpublication": 6309,
      "Ġpolitic": 6310,
      "airs": 6311,
      "ussian": 6312,
      "Ġdiscovered": 6313,
      "Ġopened": 6314,
      "Ġengage": 6315,
      "Ġtravel": 6316,
      "Ġnotices": 6317,
      "roduction": 6318,
      "ophob": 6319,
      "ĠSHIT": 6320,
      "Ġrewritten": 6321,
      "ĠRfA": 6322,
      "ville": 6323,
      "Ġimplies": 6324,
      "Ġencourage": 6325,
      "Ġreputation": 6326,
      "Ġcircumst": 6327,
      "Ġdistinction": 6328,
      "Ġexcuse": 6329,
      "Ġdisgust": 6330,
      "Ġmachine": 6331,
      "ĠEVERY": 6332,
      "ĠPIECE": 6333,
      "04": 6334,
      "09": 6335,
      "37": 6336,
      "62": 6337,
      "84": 6338,
      "95": 6339,
      "Hist": 6340,
      "aven": 6341,
      "auc": 6342,
      "based": 6343,
      "iots": 6344,
      "oved": 6345,
      "tle": 6346,
      "Ñĥ": 6347,
      "Ġwit": 6348,
      "Ġoption": 6349,
      "Ġdream": 6350,
      "Ġdyn": 6351,
      "Ġdaughter": 6352,
      "ĠTim": 6353,
      "ĠTell": 6354,
      "ager": 6355,
      "Ġeg": 6356,
      "change": 6357,
      "Ġsequ": 6358,
      "Ġstar": 6359,
      "olved": 6360,
      "ĠMs": 6361,
      "aint": 6362,
      "Ġexer": 6363,
      "ĠRon": 6364,
      "ĠLife": 6365,
      "Ġintend": 6366,
      "Ġcommented": 6367,
      "Ġobs": 6368,
      "ologists": 6369,
      "====": 6370,
      "Ġinvite": 6371,
      "Ġfeelings": 6372,
      "Ġletting": 6373,
      "Ġthrow": 6374,
      "Ġscope": 6375,
      "Ġgeneration": 6376,
      "Ġemot": 6377,
      "anguage": 6378,
      "they": 6379,
      "Ġrestrict": 6380,
      "Ġallows": 6381,
      "Ġâĺ": 6382,
      "Ġexplanations": 6383,
      "background": 6384,
      "dden": 6385,
      "thodox": 6386,
      "Ġwaiting": 6387,
      "ĠYear": 6388,
      "Ġchallenge": 6389,
      "ĠTurkish": 6390,
      "Ġdeliberately": 6391,
      "ĠKorean": 6392,
      "']": 6393,
      ")\"\"": 6394,
      "-)": 6395,
      "92": 6396,
      "Ag": 6397,
      "HO": 6398,
      "Le": 6399,
      "Ne": 6400,
      "UE": 6401,
      "bour": 6402,
      "gment": 6403,
      "ki": 6404,
      "ria": 6405,
      "Ġtim": 6406,
      "including": 6407,
      "Ġsen": 6408,
      "Ġcust": 6409,
      "Ġdirection": 6410,
      "oto": 6411,
      "ĠTy": 6412,
      "Ġeat": 6413,
      "Ġgang": 6414,
      "ĠAFD": 6415,
      "idel": 6416,
      "ĠScience": 6417,
      "sey": 6418,
      "ĠCivil": 6419,
      "Ġstation": 6420,
      "ĠMad": 6421,
      "Ġsudden": 6422,
      "aked": 6423,
      "ĠFact": 6424,
      "ĠGold": 6425,
      "ĠRock": 6426,
      "ĠRobert": 6427,
      "ĠLA": 6428,
      "loc": 6429,
      "Ġamb": 6430,
      "Ġprev": 6431,
      "ublished": 6432,
      "Ġcompare": 6433,
      "Ġcommentary": 6434,
      "ĠVery": 6435,
      "ĠVictor": 6436,
      "Ġvandals": 6437,
      "ĠReal": 6438,
      "Ġcovers": 6439,
      "Ġgenocide": 6440,
      "Ġletters": 6441,
      "why": 6442,
      "Ġmorning": 6443,
      "Reg": 6444,
      "ĠProv": 6445,
      "ĠProfess": 6446,
      "ristian": 6447,
      "Ġcollection": 6448,
      "Ġnoticeboard": 6449,
      "Ġadvise": 6450,
      "Ġbiggest": 6451,
      "Ġheading": 6452,
      "ĠChristians": 6453,
      "Ġbuilt": 6454,
      "Ġrecords": 6455,
      "ĠAMER": 6456,
      "ĠHistor": 6457,
      "Ġremaining": 6458,
      "Ġformatting": 6459,
      "ĠRussia": 6460,
      "aniel": 6461,
      "ĠCentral": 6462,
      "uhammad": 6463,
      "Admin": 6464,
      "Ġtraditional": 6465,
      "Ġopportunity": 6466,
      "Ġspoken": 6467,
      "52": 6468,
      "Ab": 6469,
      "ORE": 6470,
      "Sc": 6471,
      "Tr": 6472,
      "YOU": 6473,
      "ĠØ§ÙĦ": 6474,
      "onic": 6475,
      "onents": 6476,
      "Ġsile": 6477,
      "Ġwont": 6478,
      "Ġfirm": 6479,
      "Ġmut": 6480,
      "Ġdomin": 6481,
      "Ġbeat": 6482,
      "Ġbecomes": 6483,
      "Ġlif": 6484,
      "\"\";": 6485,
      "ago": 6486,
      "ĠAB": 6487,
      "ĠAC": 6488,
      "hered": 6489,
      "ĠSand": 6490,
      "ĠSocial": 6491,
      "igan": 6492,
      "ĠColl": 6493,
      "ĠCOI": 6494,
      "unte": 6495,
      "ĠPre": 6496,
      "ĠPet": 6497,
      "ĠPeter": 6498,
      "urally": 6499,
      "ĠDave": 6500,
      "ĠDutch": 6501,
      "ores": 6502,
      "ulf": 6503,
      "Ġadult": 6504,
      "ĠRS": 6505,
      "ĠJo": 6506,
      "ĠUkrain": 6507,
      "Ġchannel": 6508,
      "Ġenforce": 6509,
      "ĠKnow": 6510,
      "anger": 6511,
      "verted": 6512,
      "arsh": 6513,
      "Ġperce": 6514,
      "Ġpercent": 6515,
      "ĠUnless": 6516,
      "group": 6517,
      "Ġbio": 6518,
      "Ġrob": 6519,
      "Who": 6520,
      "Ġcharge": 6521,
      "AME": 6522,
      "Ġdescribing": 6523,
      "Ġhardly": 6524,
      "Ġignoring": 6525,
      "Ġheads": 6526,
      "ĠChristmas": 6527,
      "Ġfixing": 6528,
      "Ġabsurd": 6529,
      "ĠSHUT": 6530,
      "Ġeffects": 6531,
      "Stop": 6532,
      "Ġprimarily": 6533,
      "Ġartists": 6534,
      "zech": 6535,
      "Ã©sk": 6536,
      "Ġclosely": 6537,
      "Ġtermin": 6538,
      "Ġtechnology": 6539,
      "Ġproducts": 6540,
      "Ġforever": 6541,
      "Ġscholarly": 6542,
      "Ġprivile": 6543,
      "Ġdraw": 6544,
      "Ġcorpor": 6545,
      "ĠCouriano": 6546,
      "Ġdemonstrate": 6547,
      "represent": 6548,
      "Ġunlikely": 6549,
      "ampionship": 6550,
      "agiarism": 6551,
      "Ġoverwhel": 6552,
      "']=": 6553,
      "Ã©skÃ©": 6554,
      "47": 6555,
      "72": 6556,
      "AA": 6557,
      "JÃ©skÃ©": 6558,
      "bar": 6559,
      "border": 6560,
      "ek": 6561,
      "ko": 6562,
      "sourced": 6563,
      "Ġwrest": 6564,
      "edd": 6565,
      "Ġbare": 6566,
      "Ġcow": 6567,
      "Ġflaw": 6568,
      "Ġmouth": 6569,
      "Ġmaster": 6570,
      "Ġoh": 6571,
      "ĠImp": 6572,
      "Ġhits": 6573,
      "alt": 6574,
      "ication": 6575,
      "icated": 6576,
      "Ġner": 6577,
      "Ġoffered": 6578,
      "Ġreb": 6579,
      "Ġretain": 6580,
      "Ġrender": 6581,
      "omp": 6582,
      "Ġitems": 6583,
      "ĠWatch": 6584,
      "ĠSU": 6585,
      "ĠSha": 6586,
      "ĠSection": 6587,
      "igm": 6588,
      "ĠPoint": 6589,
      "ĠPakistan": 6590,
      "ipe": 6591,
      "uries": 6592,
      "ĠDYK": 6593,
      "Ġprohib": 6594,
      "Ġshame": 6595,
      "inking": 6596,
      "Ġcontem": 6597,
      "Ġdish": 6598,
      "orted": 6599,
      "Ġaggress": 6600,
      "cap": 6601,
      "ogy": 6602,
      "OUT": 6603,
      "Ġpeoples": 6604,
      "Ġconsult": 6605,
      "Ġmathem": 6606,
      "comm": 6607,
      "idents": 6608,
      "Ġscript": 6609,
      "Ġ55": 6610,
      "Ġstrateg": 6611,
      "Ġended": 6612,
      "ĠIPs": 6613,
      "Ġvaluable": 6614,
      "Ġflight": 6615,
      "Ġdistingu": 6616,
      "ĠLeague": 6617,
      "Ġpaste": 6618,
      "ĠâĨĴ": 6619,
      "Ġpassage": 6620,
      "Ġthreatening": 6621,
      "Ġnationality": 6622,
      "Ġrecognition": 6623,
      "Ġscientists": 6624,
      "Ġmeeting": 6625,
      "Ġracial": 6626,
      "Ġreceive": 6627,
      "Ġcarry": 6628,
      "Ġsubstantially": 6629,
      "ĠMacedonian": 6630,
      "ĠSystem": 6631,
      "Ġjudgement": 6632,
      "ĠPortug": 6633,
      "ĠApparently": 6634,
      "ĠCongress": 6635,
      "ĠDaily": 6636,
      "Ġofficially": 6637,
      "ĠAcadem": 6638,
      "ĠAzerbaij": 6639,
      "Ġhoax": 6640,
      "Ġnewcomers": 6641,
      "96": 6642,
      "AC": 6643,
      "Act": 6644,
      "Fuck": 6645,
      "RI": 6646,
      "SR": 6647,
      "Ve": 6648,
      "aedia": 6649,
      "bag": 6650,
      "iography": 6651,
      "ker": 6652,
      "look": 6653,
      "sub": 6654,
      "uan": 6655,
      "vest": 6656,
      "wan": 6657,
      "Ã¡": 6658,
      "only": 6659,
      "Ġcas": 6660,
      "Ġfood": 6661,
      "ĠIF": 6662,
      "ĠIQ": 6663,
      "ĠIss": 6664,
      "Ġhorse": 6665,
      "Ġdat": 6666,
      "Ġdude": 6667,
      "Ġinj": 6668,
      "omal": 6669,
      "ĠTime": 6670,
      "Ġitem": 6671,
      "uts": 6672,
      "ĠWi": 6673,
      "ĠSuch": 6674,
      "Ġarrest": 6675,
      "Ġseven": 6676,
      "Ġ\"\"...": 6677,
      "ĠHen": 6678,
      "ĠMass": 6679,
      "Ġwasting": 6680,
      "aks": 6681,
      "Ġrubbish": 6682,
      "ĠRFC": 6683,
      "ĠJe": 6684,
      "Ġfab": 6685,
      "Ġenem": 6686,
      "Ġintro": 6687,
      "oslav": 6688,
      "ubious": 6689,
      "ĠStr": 6690,
      "ĠVol": 6691,
      "appe": 6692,
      "Ġdefe": 6693,
      "Ġbranch": 6694,
      "Ġblame": 6695,
      "Ġformal": 6696,
      "Ġconsideration": 6697,
      "Ġtells": 6698,
      "Ġdescribes": 6699,
      "ĠAfghan": 6700,
      "Ġfinished": 6701,
      "ĠPrime": 6702,
      "Ġprofile": 6703,
      "Arch": 6704,
      "Ġadmitted": 6705,
      "Ġaffil": 6706,
      "Ġpoorly": 6707,
      "Ġdrive": 6708,
      "Ġvotes": 6709,
      "ĠAnti": 6710,
      "Ġliberal": 6711,
      "Ġgirls": 6712,
      "Ġloser": 6713,
      "ĠMartin": 6714,
      "Ġillegal": 6715,
      "Ġcelebr": 6716,
      "ĠKoso": 6717,
      "Ġequivalent": 6718,
      "ĠAMERICAN": 6719,
      "88": 6720,
      "Of": 6721,
      "WN": 6722,
      "from": 6723,
      "iat": 6724,
      "life": 6725,
      "ÑĢ": 6726,
      "Ġ×": 6727,
      "Ġ....": 6728,
      "eds": 6729,
      "Ġcorn": 6730,
      "ender": 6731,
      "Ġpseud": 6732,
      "Ġfast": 6733,
      "Ġhence": 6734,
      "ico": 6735,
      "\"\"\"": 6736,
      "\"\").": 6737,
      "Ġeth": 6738,
      "import": 6739,
      "rol": 6740,
      "thesis": 6741,
      "Ġconventions": 6742,
      "ĠCamp": 6743,
      "ĠBible": 6744,
      "ĠHard": 6745,
      "irty": 6746,
      "ĠTheir": 6747,
      "ĠFY": 6748,
      "ĠFree": 6749,
      "ĠDel": 6750,
      "ĠDiv": 6751,
      "Ġprose": 6752,
      "ĠNet": 6753,
      "Ġexcellent": 6754,
      "Ġunknown": 6755,
      "Ġmyth": 6756,
      "ĠGiven": 6757,
      "eman": 6758,
      "ĠLog": 6759,
      "ĠEC": 6760,
      "ĠOut": 6761,
      "useum": 6762,
      "âĢ¦": 6763,
      "Ġseek": 6764,
      "ĠStep": 6765,
      "ĠStreet": 6766,
      "Ġhelped": 6767,
      "Ġaccord": 6768,
      "Ġrecall": 6769,
      "Ġobsc": 6770,
      "ĠHead": 6771,
      "Ġhero": 6772,
      "Ġgenre": 6773,
      "ologies": 6774,
      "azis": 6775,
      "Ġexperts": 6776,
      "Ġreporting": 6777,
      "vio": 6778,
      "Ġtemper": 6779,
      "Ġcaught": 6780,
      "ĠShow": 6781,
      "Ġ04": 6782,
      "Ġfringe": 6783,
      "Ġpatent": 6784,
      "ĠBritain": 6785,
      "Ġrepresented": 6786,
      "ircraft": 6787,
      "Ġcomplaints": 6788,
      "Ġuncivil": 6789,
      "Ġpresum": 6790,
      "Ġvoting": 6791,
      "Ġoccurred": 6792,
      "Ġtraining": 6793,
      "ĠCharles": 6794,
      "Ġslightly": 6795,
      "Ġfrequently": 6796,
      "Ġviolence": 6797,
      "ĠGeorgia": 6798,
      "Ġredundant": 6799,
      "Ġobsess": 6800,
      "101": 6801,
      "73": 6802,
      "78": 6803,
      "Look": 6804,
      "Per": 6805,
      "burg": 6806,
      "cast": 6807,
      "iest": 6808,
      "oon": 6809,
      "please": 6810,
      "ita": 6811,
      "itage": 6812,
      "Ġbesides": 6813,
      "Ġfell": 6814,
      "Ġmast": 6815,
      "Ġnav": 6816,
      "ĠTex": 6817,
      "Ġgun": 6818,
      "ĠSa": 6819,
      "ĠSen": 6820,
      "Ġconclus": 6821,
      "Ġsell": 6822,
      "ĠPM": 6823,
      "Ġdece": 6824,
      "ĠHaving": 6825,
      "illing": 6826,
      "ĠFROM": 6827,
      "Ġrot": 6828,
      "Ġround": 6829,
      "ĠNothing": 6830,
      "emit": 6831,
      "Ġdismiss": 6832,
      "ĠJul": 6833,
      "Ġjustified": 6834,
      "Ġjustification": 6835,
      "Ġtalks": 6836,
      "ĠKen": 6837,
      "Ġtrick": 6838,
      "Ġlinking": 6839,
      "Ġinformed": 6840,
      "Ġpointless": 6841,
      "ĠSociety": 6842,
      "Ġenter": 6843,
      "Ġinvited": 6844,
      "because": 6845,
      "ĠDeath": 6846,
      "Ġ['": 6847,
      "azon": 6848,
      "Ġ68": 6849,
      "Ġcolon": 6850,
      "esearch": 6851,
      "spond": 6852,
      "Ġconstruct": 6853,
      "Ġrape": 6854,
      "ĠSeriously": 6855,
      "Ġrespected": 6856,
      "''''''": 6857,
      "Ġproductive": 6858,
      "ootball": 6859,
      "Ġveh": 6860,
      "ĠONE": 6861,
      "Ġalbums": 6862,
      "Ġpreferred": 6863,
      "ĠSecondly": 6864,
      "ĠCenter": 6865,
      "Ġanimals": 6866,
      "protected": 6867,
      "ĠSCUM": 6868,
      "ĠBulgarian": 6869,
      "Ġpronoun": 6870,
      "Ġcomparison": 6871,
      "ĠCouncil": 6872,
      "ĠThomas": 6873,
      "Ġconspiracy": 6874,
      "Ġcircumstances": 6875,
      "07": 6876,
      "Ge": 6877,
      "KE": 6878,
      "TS": 6879,
      "cre": 6880,
      "ds": 6881,
      "ih": 6882,
      "personal": 6883,
      "such": 6884,
      "west": 6885,
      "Äĩ": 6886,
      "ÏĦ": 6887,
      "à¤": 6888,
      "âĺ": 6889,
      "Ġast": 6890,
      "inary": 6891,
      "Ġwing": 6892,
      "Ġwanna": 6893,
      "Ġbaby": 6894,
      "enomen": 6895,
      "ĠIll": 6896,
      "esome": 6897,
      "Ġreaction": 6898,
      "utive": 6899,
      "ĠAGA": 6900,
      "heless": 6901,
      "ĠSign": 6902,
      "Ġaside": 6903,
      "ĠCIA": 6904,
      "Ġsecurity": 6905,
      "outs": 6906,
      "Ġwithd": 6907,
      "ĠBas": 6908,
      "ĠMiddle": 6909,
      "ilty": 6910,
      "elly": 6911,
      "ĠFAG": 6912,
      "ĠNob": 6913,
      "Ġvague": 6914,
      "Ġjustice": 6915,
      "abs": 6916,
      "osition": 6917,
      "ugoslav": 6918,
      "INK": 6919,
      "Ġherself": 6920,
      "Ġmission": 6921,
      "Ġargued": 6922,
      "Ġstanding": 6923,
      "Ġ90": 6924,
      "Ġcolumn": 6925,
      "Ġsmart": 6926,
      "Ġhandle": 6927,
      "Ġautom": 6928,
      "Ġphotograph": 6929,
      "Ġpatient": 6930,
      "Ġdealt": 6931,
      "Ġfails": 6932,
      "Ġbuy": 6933,
      "Ġnewsletter": 6934,
      "LEASE": 6935,
      "check": 6936,
      "ĠTurks": 6937,
      "Ġtechnically": 6938,
      "Ġmillions": 6939,
      "Ġmental": 6940,
      "ĠASS": 6941,
      "ĠASIAN": 6942,
      "ĠEditing": 6943,
      "Ġprograms": 6944,
      "Ġpunish": 6945,
      "Ġsubmitted": 6946,
      "Ġ;-)": 6947,
      "Ġassociation": 6948,
      "ĠMinister": 6949,
      "ĠHopefully": 6950,
      "Ġlaunch": 6951,
      "Ġphilosophy": 6952,
      "ĠMovement": 6953,
      "ĠAGAIN": 6954,
      "51": 6955,
      "At": 6956,
      "Any": 6957,
      "GOT": 6958,
      "Pl": 6959,
      "SA": 6960,
      "Sp": 6961,
      "coh": 6962,
      "dated": 6963,
      "hr": 6964,
      "ned": 6965,
      "rome": 6966,
      "warring": 6967,
      "zil": 6968,
      "Ð¸": 6969,
      "Ġtro": 6970,
      "information": 6971,
      "atical": 6972,
      "ansion": 6973,
      "Ġporn": 6974,
      "Ġfashion": 6975,
      "ala": 6976,
      "although": 6977,
      "Ġinser": 6978,
      "ĠTor": 6979,
      "ĠWood": 6980,
      "ĠART": 6981,
      "imp": 6982,
      "igation": 6983,
      "Ġconditions": 6984,
      "ĠCome": 6985,
      "ĠMuhammad": 6986,
      "Ġsup": 6987,
      "Ġship": 6988,
      "Ġshock": 6989,
      "Ġkid": 6990,
      "ulate": 6991,
      "Ġvow": 6992,
      "ĠRad": 6993,
      "pper": 6994,
      "lov": 6995,
      "ĠJoe": 6996,
      "ĠKind": 6997,
      "aren": 6998,
      "Ġmanaged": 6999,
      "Ġ2001": 7000,
      "ression": 7001,
      "ifications": 7002,
      "Ġoverall": 7003,
      "Ġreasonably": 7004,
      "Ġprime": 7005,
      "Ġcommitted": 7006,
      "Ġrefuse": 7007,
      "Ġverb": 7008,
      "Ġbrand": 7009,
      "ALI": 7010,
      "Ġaddresses": 7011,
      "Ġcapt": 7012,
      "Ġproduction": 7013,
      "Ġminute": 7014,
      "Ġminimum": 7015,
      "Ġkindly": 7016,
      "Ġhighlight": 7017,
      "Ġviolated": 7018,
      "Ġpublications": 7019,
      "Ġoppose": 7020,
      "Ġequally": 7021,
      "Ġspeakers": 7022,
      "ĠPrince": 7023,
      "Ġcrazy": 7024,
      "ĠWHY": 7025,
      "Ġexpression": 7026,
      "Ġbalanced": 7027,
      "Ġsubmission": 7028,
      "Ġdemonstrated": 7029,
      "ĠAfrica": 7030,
      "Ġpublisher": 7031,
      "ĠItaly": 7032,
      "Ġrenamed": 7033,
      "Ġfolks": 7034,
      "Ġreplied": 7035,
      "Ġprocedure": 7036,
      "Ġconvinced": 7037,
      "Ġdialect": 7038,
      "Ġinstructions": 7039,
      "Yeah": 7040,
      "BN": 7041,
      "BO": 7042,
      "Media": 7043,
      "TA": 7044,
      "UD": 7045,
      "core": 7046,
      "dr": 7047,
      "give": 7048,
      "host": 7049,
      "ners": 7050,
      "rative": 7051,
      "uy": 7052,
      "vandalism": 7053,
      "Ġaircraft": 7054,
      "Ġsir": 7055,
      "erk": 7056,
      "Ġfals": 7057,
      "Ġnazi": 7058,
      "asp": 7059,
      "arb": 7060,
      "lymp": 7061,
      "ctr": 7062,
      "ĠWizard": 7063,
      "ĠCzech": 7064,
      "ĠPen": 7065,
      "ipl": 7066,
      "ĠBC": 7067,
      "ĠBet": 7068,
      "Ġdoor": 7069,
      "ilst": 7070,
      "akh": 7071,
      "ained": 7072,
      "Ġrum": 7073,
      "Ġrational": 7074,
      "Ġunrelated": 7075,
      "Ġvac": 7076,
      "ĠRIGHT": 7077,
      "ĠEm": 7078,
      "ĠOver": 7079,
      "soft": 7080,
      "Ġdoesnt": 7081,
      "perate": 7082,
      "Ġimply": 7083,
      "Ġfactually": 7084,
      "Ġpartis": 7085,
      "Ġcooper": 7086,
      "obby": 7087,
      "Ġspecifies": 7088,
      "Ġproves": 7089,
      "ĠArt": 7090,
      "Ġviewpoint": 7091,
      "Ġscene": 7092,
      "Ġcares": 7093,
      "Ġinteract": 7094,
      "ĠSeems": 7095,
      "Ġpromise": 7096,
      "Ġregarded": 7097,
      "Ġhighest": 7098,
      "Ġ03": 7099,
      "Ġ05": 7100,
      "Ġinvolving": 7101,
      "ashed": 7102,
      "ĠDID": 7103,
      "Ġretarded": 7104,
      "Ġstats": 7105,
      "ĠLeave": 7106,
      "Ġindicated": 7107,
      "Ġwatched": 7108,
      "Ġassumption": 7109,
      "ĠConstitution": 7110,
      "ĠPolicy": 7111,
      "Ġdescript": 7112,
      "ĠExp": 7113,
      "Ġmodified": 7114,
      "Ġpromotional": 7115,
      "Ġscholar": 7116,
      "Ġbringing": 7117,
      "ĠDisney": 7118,
      "Ġpressure": 7119,
      "Ġmovies": 7120,
      "Ġwikil": 7121,
      "Ġblanking": 7122,
      "Ġteacher": 7123,
      "Ġmethods": 7124,
      "rieved": 7125,
      "Ġeconomic": 7126,
      "Ġcandidate": 7127,
      "ĠCongrat": 7128,
      "Ġrejected": 7129,
      "ĠItalian": 7130,
      "Ġdiag": 7131,
      "MMMMMMMMMMMMMMMM": 7132,
      "Ġcorrespond": 7133,
      "Ġstalking": 7134,
      "Ġangry": 7135,
      "ĠFrancis": 7136,
      "ĠRichard": 7137,
      "Ġinvented": 7138,
      "ĠLouis": 7139,
      "Ġamazing": 7140,
      "Ġdedicated": 7141,
      "Ġchapter": 7142,
      "Ġfabric": 7143,
      "87": 7144,
      "AH": 7145,
      "Here": 7146,
      "MS": 7147,
      "Mer": 7148,
      "VD": 7149,
      "called": 7150,
      "dot": 7151,
      "oving": 7152,
      "Ø±": 7153,
      "ÙĨ": 7154,
      "á¹": 7155,
      "ãģ": 7156,
      "ĠÉ": 7157,
      "rely": 7158,
      "ona": 7159,
      "Ġtheore": 7160,
      "itter": 7161,
      "Ġcard": 7162,
      "Ġmurd": 7163,
      "Ġgross": 7164,
      "uting": 7165,
      "ĠWork": 7166,
      "hey": 7167,
      "ĠSl": 7168,
      "Ġhack": 7169,
      "Ġarms": 7170,
      "ĠPa": 7171,
      "Ġstuck": 7172,
      "ĠBattle": 7173,
      "ĠMOTHER": 7174,
      "iring": 7175,
      "Ġabusing": 7176,
      "ĠFox": 7177,
      "ĠNice": 7178,
      "ĠNext": 7179,
      "ĠThough": 7180,
      "Ġdisruption": 7181,
      "ĠUsing": 7182,
      "Ġchosen": 7183,
      "Ġquit": 7184,
      "Ġupset": 7185,
      "Ġmanual": 7186,
      "Ġreser": 7187,
      "Ġresource": 7188,
      "Ġrepublic": 7189,
      "acre": 7190,
      "Ġoffended": 7191,
      "ĠChic": 7192,
      "Ġdesigned": 7193,
      "Ġvandalized": 7194,
      "Ġparam": 7195,
      "ruit": 7196,
      "Ġphenomen": 7197,
      "Ġstarts": 7198,
      "Ġdecisions": 7199,
      "ighter": 7200,
      "Ġtelevision": 7201,
      "Ġcites": 7202,
      "Ġgreatly": 7203,
      "Ġexplo": 7204,
      "Ġincorpor": 7205,
      "ĠCanadian": 7206,
      "Ġdirectory": 7207,
      "Ġnorth": 7208,
      "Ġextent": 7209,
      "Ġpolitically": 7210,
      "Ġsurr": 7211,
      "Ġminds": 7212,
      "ĠLeg": 7213,
      "Ġindicates": 7214,
      "Ġsockpuppets": 7215,
      "Ġimprovements": 7216,
      "Ġnominate": 7217,
      "Ġmemory": 7218,
      "Ġhistorians": 7219,
      "Ġestim": 7220,
      "ipped": 7221,
      "Ġexception": 7222,
      "Ġconnected": 7223,
      "Ġvideos": 7224,
      "ĠSpecial": 7225,
      "Ġexpressed": 7226,
      "Ġliterally": 7227,
      "ĠHarry": 7228,
      "stitute": 7229,
      "ĠMcC": 7230,
      "Ġlibrary": 7231,
      "ĠRights": 7232,
      "Ġprinted": 7233,
      "Ġacknowled": 7234,
      "Ġlicensed": 7235,
      "biased": 7236,
      "Ġcalc": 7237,
      "ĠUntil": 7238,
      "History": 7239,
      "cohol": 7240,
      ")(": 7241,
      ".(": 7242,
      "71": 7243,
      "FL": 7244,
      "Man": 7245,
      "NOT": 7246,
      "word": 7247,
      "||": 7248,
      "Ã¶": 7249,
      "Ġtiny": 7250,
      "iner": 7251,
      "Ġbudd": 7252,
      "Ġcategor": 7253,
      "anim": 7254,
      "ension": 7255,
      "encies": 7256,
      "Ġpowers": 7257,
      "Ġfant": 7258,
      "Ġmate": 7259,
      "Ġmount": 7260,
      "esh": 7261,
      "Ġdare": 7262,
      "Ġeast": 7263,
      "ĠWal": 7264,
      "ĠWow": 7265,
      "ĠSar": 7266,
      "Ġhair": 7267,
      "ĠCant": 7268,
      "ĠCap": 7269,
      "ĠBal": 7270,
      "ĠBack": 7271,
      "ĠBesides": 7272,
      "ĠMex": 7273,
      "Ġsuit": 7274,
      "Ġmeat": 7275,
      "ilarly": 7276,
      "Ġuniverse": 7277,
      "ĠRay": 7278,
      "Ġhey": 7279,
      "ĠUl": 7280,
      "ardian": 7281,
      "dern": 7282,
      "Ġwhoever": 7283,
      "ffic": 7284,
      "Ġresist": 7285,
      "ache": 7286,
      "Ġrefused": 7287,
      "Ġservices": 7288,
      "Ġmisrepresent": 7289,
      "notable": 7290,
      "Ġpossibility": 7291,
      "ĠBeing": 7292,
      "Ġtitled": 7293,
      "Ġpositions": 7294,
      "Ġtransfer": 7295,
      "Ġanswered": 7296,
      "Ġcloser": 7297,
      "Ġfiled": 7298,
      "ussy": 7299,
      "Ġwatchlist": 7300,
      "Ġassuming": 7301,
      "Ġquoting": 7302,
      "Ġtypical": 7303,
      "Ġkilling": 7304,
      "Ġrepresentative": 7305,
      "year": 7306,
      "Ġintroduced": 7307,
      "\"::::::": 7308,
      "reetings": 7309,
      "Ġnewspapers": 7310,
      "Ġplanet": 7311,
      "Ġprinciples": 7312,
      "ĠOkay": 7313,
      "Ġincreasing": 7314,
      "Ġunreason": 7315,
      "ĠAlbanian": 7316,
      "Ġscale": 7317,
      "ĠDepartment": 7318,
      "Ġrelevance": 7319,
      "81": 7320,
      "93": 7321,
      "Are": 7322,
      "Add": 7323,
      "Category": 7324,
      "Ke": 7325,
      "LC": 7326,
      "Ser": 7327,
      "TV": 7328,
      "TER": 7329,
      "fl": 7330,
      "padding": 7331,
      "rimin": 7332,
      "sm": 7333,
      "Ġ..": 7334,
      "Ġtill": 7335,
      "inch": 7336,
      "inder": 7337,
      "Ġsun": 7338,
      "Ġbur": 7339,
      "icide": 7340,
      "ications": 7341,
      "omer": 7342,
      "ĠTrip": 7343,
      "Ġelements": 7344,
      "ĠAut": 7345,
      "iger": 7346,
      "iament": 7347,
      "ĠCa": 7348,
      "ĠCoh": 7349,
      "ĠPOST": 7350,
      "ours": 7351,
      "iller": 7352,
      "ĠFar": 7353,
      "ĠGive": 7354,
      "ĠRick": 7355,
      "ĠRFA": 7356,
      "ĠResearch": 7357,
      "Ġalot": 7358,
      "ĠJay": 7359,
      "acks": 7360,
      "abb": 7361,
      "ritish": 7362,
      "ĠKn": 7363,
      "Ġtrade": 7364,
      "Ġrelative": 7365,
      "Ġdesk": 7366,
      "Ġvandalising": 7367,
      "Ġoblig": 7368,
      "Ġprick": 7369,
      "Ġfuckin": 7370,
      "Ġrefs": 7371,
      "venue": 7372,
      "Ġrealized": 7373,
      "Ġinval": 7374,
      "Ġlets": 7375,
      "Ġdecent": 7376,
      "ĠWeb": 7377,
      "Ġformed": 7378,
      "ĠNov": 7379,
      "Ġdefinitions": 7380,
      "Ġkinds": 7381,
      "space": 7382,
      "Ġcrimes": 7383,
      "Ġrequirements": 7384,
      "Ġpurs": 7385,
      "Ġmerit": 7386,
      "ĠCommon": 7387,
      "Ġappearance": 7388,
      "ĠNorthern": 7389,
      "Ġsmaller": 7390,
      "Ġrepresents": 7391,
      "alley": 7392,
      "Ġapologise": 7393,
      "Ġfamilies": 7394,
      "Ġclarification": 7395,
      "Ġcontinuing": 7396,
      "Ġadvertise": 7397,
      "official": 7398,
      "Ġcensor": 7399,
      "EEEE": 7400,
      "Ġera": 7401,
      "Ġvolunte": 7402,
      "Ġpotentially": 7403,
      "PeRT": 7404,
      "AKE": 7405,
      "Ġpurely": 7406,
      "ĠMetal": 7407,
      "Ġreputable": 7408,
      "Ġvictims": 7409,
      "Ġheavy": 7410,
      "Ġassessment": 7411,
      "roversial": 7412,
      "FORM": 7413,
      "Ġchemical": 7414,
      "ĠDarwin": 7415,
      "ĠAdditionally": 7416,
      "Ġprepared": 7417,
      "ĠBosnia": 7418,
      "ĠWiLL": 7419,
      "ĠARTIC": 7420,
      "PeRTR": 7421,
      ".'": 7422,
      "02": 7423,
      "98": 7424,
      "DAY": 7425,
      "Me": 7426,
      "har": 7427,
      "hot": 7428,
      "Ġtrib": 7429,
      "Ġtired": 7430,
      "ini": 7431,
      "atform": 7432,
      "Ġbure": 7433,
      "aning": 7434,
      "Ġfictional": 7435,
      "Ġanon": 7436,
      "Ġnick": 7437,
      "ĠToday": 7438,
      "Ġelement": 7439,
      "ĠAv": 7440,
      "ika": 7441,
      "ĠSant": 7442,
      "Ġdear": 7443,
      "Ġdevice": 7444,
      "ĠBell": 7445,
      "ĠMont": 7446,
      "ellect": 7447,
      "Ġabusive": 7448,
      "ĠFam": 7449,
      "ĠNever": 7450,
      "ustration": 7451,
      "ĠRam": 7452,
      "ĠJac": 7453,
      "ĠJUST": 7454,
      "arted": 7455,
      "Ġprem": 7456,
      "Ġpreser": 7457,
      "izar": 7458,
      "anged": 7459,
      "ĠVirgin": 7460,
      "Ġplant": 7461,
      "Ġeverywhere": 7462,
      "Ġregister": 7463,
      "Ġsimpl": 7464,
      "Ġbits": 7465,
      "Ġfeels": 7466,
      "anner": 7467,
      "Ġwarrant": 7468,
      "ropriately": 7469,
      "ographic": 7470,
      "Ġkinda": 7471,
      "cientific": 7472,
      "Ġseconds": 7473,
      "ĠZion": 7474,
      "ĠSpain": 7475,
      "Ġorganisation": 7476,
      "Ġâľ": 7477,
      "Ġhistoric": 7478,
      "Ġquotation": 7479,
      "Ġqualify": 7480,
      "Ġthreaten": 7481,
      "USE": 7482,
      "Ġtranslated": 7483,
      "Ġarchived": 7484,
      "ĠNeutral": 7485,
      "Ġcriticisms": 7486,
      "Ġpermitted": 7487,
      "Ġparticipation": 7488,
      "Ġcontrast": 7489,
      "Ġsucks": 7490,
      "Ġcleanup": 7491,
      "Ġverifiability": 7492,
      "\"::::": 7493,
      "ĠTechn": 7494,
      "ĠInterest": 7495,
      "ĠRepublican": 7496,
      "ennis": 7497,
      "Ġopposition": 7498,
      "ĠIMO": 7499,
      "Ġsockpuppetry": 7500,
      "Ġsanction": 7501,
      "ĠArbCom": 7502,
      "ĠSuPeRTR": 7503,
      "Ġstrength": 7504,
      "Ġfacilit": 7505,
      "Ġchallenged": 7506,
      "Ġrollback": 7507,
      "Ġvariety": 7508,
      "ĠLibrary": 7509,
      "ĠQueen": 7510,
      "Ġfrankly": 7511,
      "91": 7512,
      "BG": 7513,
      "Bl": 7514,
      "Comm": 7515,
      "HH": 7516,
      "IVE": 7517,
      "Rep": 7518,
      "dy": 7519,
      "den": 7520,
      "good": 7521,
      "hy": 7522,
      "kk": 7523,
      "pet": 7524,
      "person": 7525,
      "published": 7526,
      "ras": 7527,
      "there": 7528,
      "yl": 7529,
      "Î¿": 7530,
      "iser": 7531,
      "atics": 7532,
      "ora": 7533,
      "Ġcart": 7534,
      "anc": 7535,
      "ena": 7536,
      "encyclop": 7537,
      "Ġfiction": 7538,
      "Ġhur": 7539,
      "Ġharrass": 7540,
      "aly": 7541,
      "Ġnations": 7542,
      "assion": 7543,
      "ashing": 7544,
      "Ġliar": 7545,
      "enth": 7546,
      "ĠSol": 7547,
      "cell": 7548,
      "state": 7549,
      "Ġarm": 7550,
      "aded": 7551,
      "ifiable": 7552,
      "oppy": 7553,
      "ĠBay": 7554,
      "ĠBur": 7555,
      "ĠHas": 7556,
      "ĠMatt": 7557,
      "ilater": 7558,
      "editing": 7559,
      "urs": 7560,
      "ĠFederal": 7561,
      "ĠName": 7562,
      "Ġexcess": 7563,
      "Ġunit": 7564,
      "ĠGot": 7565,
      "Ġdise": 7566,
      "rav": 7567,
      "Ġheight": 7568,
      "orting": 7569,
      "ĠOs": 7570,
      "abase": 7571,
      "Ġamer": 7572,
      "ferenced": 7573,
      "ĠInformation": 7574,
      "Ġ2002": 7575,
      "Ġguitar": 7576,
      "Ġrelating": 7577,
      "phan": 7578,
      "Ġgranted": 7579,
      "Ġdefine": 7580,
      "Ġentertain": 7581,
      "ologist": 7582,
      "REE": 7583,
      "195": 7584,
      "Ġexposed": 7585,
      "Ġallowing": 7586,
      "Ġextended": 7587,
      "issions": 7588,
      "Ġfourth": 7589,
      "Ġ1990": 7590,
      "Ġpowerful": 7591,
      "Ġjoined": 7592,
      "ĠTruth": 7593,
      "Ġapprox": 7594,
      "ĠScot": 7595,
      "\":::": 7596,
      "Ġfootnote": 7597,
      "Ġconcepts": 7598,
      "ĠGener": 7599,
      "Ġ1970": 7600,
      "Ġconstitute": 7601,
      "Ġmarried": 7602,
      "Ġdogs": 7603,
      "Ġselected": 7604,
      "aaaa": 7605,
      "Ġterrorism": 7606,
      "Ġhypoth": 7607,
      "Ġintelligent": 7608,
      "ĠIranian": 7609,
      "Ġdestroyed": 7610,
      "Ġsettled": 7611,
      "Ġfolk": 7612,
      "ALLY": 7613,
      "Ġtrivial": 7614,
      "ĠSAID": 7615,
      "ĠQuestion": 7616,
      "Ġinnocent": 7617,
      "Ġsleep": 7618,
      "ĠAssociation": 7619,
      "Enigm": 7620,
      "Ġdisgusting": 7621,
      "ĠFAGGOT": 7622,
      "ĠChicago": 7623,
      "Enigmaman": 7624,
      "05": 7625,
      "63": 7626,
      "94": 7627,
      "Br": 7628,
      "Did": 7629,
      "Go": 7630,
      "Now": 7631,
      "Rel": 7632,
      "Sock": 7633,
      "TM": 7634,
      "Template": 7635,
      "],": 7636,
      "after": 7637,
      "bie": 7638,
      "och": 7639,
      "rough": 7640,
      "yal": 7641,
      "reens": 7642,
      "orum": 7643,
      "Ġbigger": 7644,
      "Ġcivility": 7645,
      "Ġfederal": 7646,
      "Ġna": 7647,
      "Ġnasty": 7648,
      "Ġincome": 7649,
      "Ġincons": 7650,
      "Ġreform": 7651,
      "Ġreinst": 7652,
      "Ġlaug": 7653,
      "ĠTib": 7654,
      "again": 7655,
      "ĠWind": 7656,
      "roc": 7657,
      "ĠSir": 7658,
      "ĠSOM": 7659,
      "ĠSupport": 7660,
      "unction": 7661,
      "ĠPLEASE": 7662,
      "Ġstories": 7663,
      "opher": 7664,
      "ĠBro": 7665,
      "ĠBad": 7666,
      "Ġdoll": 7667,
      "ĠMem": 7668,
      "ĠMind": 7669,
      "ĠMuch": 7670,
      "ĠFind": 7671,
      "ĠDC": 7672,
      "ĠNick": 7673,
      "Ġadequ": 7674,
      "leting": 7675,
      "Ġvan": 7676,
      "ĠRod": 7677,
      "raham": 7678,
      "ĠEastern": 7679,
      "ĠOlymp": 7680,
      "itecture": 7681,
      "Ġtalked": 7682,
      "Ġmoves": 7683,
      "Ġpreceding": 7684,
      "arer": 7685,
      "phab": 7686,
      "Ġbacked": 7687,
      "Ġprison": 7688,
      "ĠAndrew": 7689,
      "archy": 7690,
      "duc": 7691,
      "Ġissued": 7692,
      "Ġwrites": 7693,
      "Ġwriters": 7694,
      "Ġproblematic": 7695,
      "Ġserver": 7696,
      "Ġquestionable": 7697,
      "Ġmiscon": 7698,
      "ELET": 7699,
      "aza": 7700,
      "Ġ72": 7701,
      "âĢĻâĢĻ": 7702,
      "Ġbadly": 7703,
      "Ġinvolves": 7704,
      "Ġconstant": 7705,
      "Ġdiscrimin": 7706,
      "Ġauthorit": 7707,
      "Ġcenter": 7708,
      "Ġsorts": 7709,
      "Ġapproved": 7710,
      "ournals": 7711,
      "Ġdenial": 7712,
      "Ġdenied": 7713,
      "Ġlevels": 7714,
      "Ġteams": 7715,
      "ĠColumb": 7716,
      "ĠSTILL": 7717,
      "ĠIntroduction": 7718,
      "IDE": 7719,
      "ĠSerbia": 7720,
      "Ġphysics": 7721,
      "Ġcommunicate": 7722,
      "ĠMoreover": 7723,
      "Ġcellpadding": 7724,
      "Ġintegrity": 7725,
      "ĠCOME": 7726,
      "Ġconformance": 7727,
      "ĠArmenian": 7728,
      "Ġdaily": 7729,
      "ĠBrazil": 7730,
      "ĠEncyclopedia": 7731,
      "Regarding": 7732,
      "Ġcontemporary": 7733,
      "Actually": 7734,
      "ĠAfghanistan": 7735,
      "ĠKosovo": 7736,
      ".âĢĶ": 7737,
      "John": 7738,
      "Mar": 7739,
      "Red": 7740,
      "SE": 7741,
      "UK": 7742,
      "jud": 7743,
      "kin": 7744,
      "rus": 7745,
      "rich": 7746,
      "onent": 7747,
      "Ġsight": 7748,
      "ero": 7749,
      "aters": 7750,
      "Ġbomb": 7751,
      "Ġcla": 7752,
      "Ġdubious": 7753,
      "oma": 7754,
      "ĠTa": 7755,
      "agan": 7756,
      "uty": 7757,
      "ĠWay": 7758,
      "igious": 7759,
      "ĠPD": 7760,
      "ĠPut": 7761,
      "ĠPublic": 7762,
      "Ġdeem": 7763,
      "ĠHad": 7764,
      "ĠHaw": 7765,
      "ols": 7766,
      "olly": 7767,
      "ĠMicro": 7768,
      "ested": 7769,
      "eline": 7770,
      "ĠFore": 7771,
      "Ġrisk": 7772,
      "Ġproved": 7773,
      "Ġproxy": 7774,
      "Ġweap": 7775,
      "ĠGame": 7776,
      "Ġjok": 7777,
      "raction": 7778,
      "ĠJournal": 7779,
      "Ġque": 7780,
      "abled": 7781,
      "icking": 7782,
      "Ġnowhere": 7783,
      "conf": 7784,
      "ocal": 7785,
      "Ġcold": 7786,
      "lessly": 7787,
      "onto": 7788,
      "Ġ45": 7789,
      "Ġfounded": 7790,
      "azy": 7791,
      "ITE": 7792,
      "Ġcauses": 7793,
      "Ġcharges": 7794,
      "OOD": 7795,
      "Ġ09": 7796,
      "Ġflow": 7797,
      "spacing": 7798,
      "Ġpublicly": 7799,
      "Ġdiscred": 7800,
      "2011": 7801,
      "Ġ//": 7802,
      "Ġassumed": 7803,
      "Ġmister": 7804,
      "Ġhistorian": 7805,
      "Ġmedi": 7806,
      "Ġeffectively": 7807,
      "ĠExpl": 7808,
      "Ġconflicts": 7809,
      "Ġbroke": 7810,
      "Ġboys": 7811,
      "Ġconvince": 7812,
      "Ġboxes": 7813,
      "Ġintroduce": 7814,
      "ĠIntellig": 7815,
      "Ġportal": 7816,
      "Ġportion": 7817,
      "Ġelections": 7818,
      "Ġjournalist": 7819,
      "Ġachieved": 7820,
      "Ġlayout": 7821,
      "Ġlede": 7822,
      "Ġadopted": 7823,
      "Ġslave": 7824,
      "ĠHolocaust": 7825,
      "ĠCOMP": 7826,
      "ĠCommunity": 7827,
      "ĠTwo": 7828,
      "Ġheavily": 7829,
      "ĠPalestinian": 7830,
      "Ġdangerous": 7831,
      "Ġvirtually": 7832,
      "MainPage": 7833,
      "Ġsuddenly": 7834,
      "Ġoverwhelming": 7835,
      "Ġaccordance": 7836,
      "ĠTexas": 7837,
      "FORMATION": 7838,
      "GB": 7839,
      "ND": 7840,
      "Spe": 7841,
      "cour": 7842,
      "def": 7843,
      "fobox": 7844,
      "gor": 7845,
      "gent": 7846,
      "hen": 7847,
      "mond": 7848,
      "master": 7849,
      "nes": 7850,
      "pha": 7851,
      "sch": 7852,
      "ties": 7853,
      "Ã³": 7854,
      "Ø©": 7855,
      "Ġtalent": 7856,
      "real": 7857,
      "eries": 7858,
      "atri": 7859,
      "Ġwise": 7860,
      "Ġbog": 7861,
      "Ġcook": 7862,
      "Ġcab": 7863,
      "Ġcalm": 7864,
      "Ġdial": 7865,
      "oting": 7866,
      "lla": 7867,
      "agger": 7868,
      "Ġgreen": 7869,
      "ĠWolf": 7870,
      "ĠAP": 7871,
      "iments": 7872,
      "ĠSay": 7873,
      "Ġconven": 7874,
      "ĠPE": 7875,
      "ĠPan": 7876,
      "Ġstaff": 7877,
      "ĠBBC": 7878,
      "omet": 7879,
      "andy": 7880,
      "illa": 7881,
      "Ġrud": 7882,
      "ĠThree": 7883,
      "riage": 7884,
      "Ġweas": 7885,
      "Ġalive": 7886,
      "pping": 7887,
      "Ġjack": 7888,
      "ieval": 7889,
      "ĠUR": 7890,
      "ĠOx": 7891,
      "ĠOcc": 7892,
      "ĠOWN": 7893,
      "Ġadds": 7894,
      "ĠYoung": 7895,
      "Ġgoals": 7896,
      "anges": 7897,
      "Ġrelatively": 7898,
      "ĠStand": 7899,
      "Ġoffense": 7900,
      "aps": 7901,
      "Ġplanning": 7902,
      "ĠReally": 7903,
      "ĠAsian": 7904,
      "Ġdefam": 7905,
      "Ġassign": 7906,
      "Ġrealise": 7907,
      "ĠIsland": 7908,
      "ĠDeb": 7909,
      "Ġdescend": 7910,
      "alem": 7911,
      "Ġorigins": 7912,
      "Ġ48": 7913,
      "Ġexpansion": 7914,
      "ALAL": 7915,
      "Ġendorse": 7916,
      "Ġcausing": 7917,
      "......": 7918,
      "Ġleads": 7919,
      "ĠOrder": 7920,
      "Ġsurvey": 7921,
      "Ġobjects": 7922,
      "Ġdouche": 7923,
      "Ġaccurately": 7924,
      "Ġ1992": 7925,
      "Ġspeaks": 7926,
      "Ġdrug": 7927,
      "Ġtyping": 7928,
      "Ġnationalist": 7929,
      "Ġmeaningful": 7930,
      "ĠAmazon": 7931,
      "ĠContribs": 7932,
      "Ġpersist": 7933,
      "ĠGrand": 7934,
      "Ġspelled": 7935,
      "Ġinfluenced": 7936,
      "Ġresponses": 7937,
      "Ġreturned": 7938,
      "ĠSerbs": 7939,
      "Ġessay": 7940,
      "Ġconstitution": 7941,
      "Ġanimal": 7942,
      "ĠCurrent": 7943,
      "Ġmixed": 7944,
      "Class": 7945,
      "UUUUUUUU": 7946,
      "Ġstrictly": 7947,
      "ĠPersonally": 7948,
      "Ġarrogant": 7949,
      "Ġambig": 7950,
      "Ġdishonest": 7951,
      "Ġcasual": 7952,
      "Ġcorner": 7953,
      "!).": 7954,
      "Che": 7955,
      "EAR": 7956,
      "GO": 7957,
      "HING": 7958,
      "Let": 7959,
      "SO": 7960,
      "TC": 7961,
      "TF": 7962,
      "dog": 7963,
      "fr": 7964,
      "his": 7965,
      "hab": 7966,
      "may": 7967,
      "ns": 7968,
      "rong": 7969,
      "range": 7970,
      "uing": 7971,
      "zant": 7972,
      "Ã¤": 7973,
      "Ð»": 7974,
      "ãĥ": 7975,
      "instein": 7976,
      "Ġsouthern": 7977,
      "atu": 7978,
      "Ġbizar": 7979,
      "ĠIDI": 7980,
      "Ġhidden": 7981,
      "Ġrely": 7982,
      "Ġnotification": 7983,
      "ĠWeek": 7984,
      "ĠCare": 7985,
      "ĠBow": 7986,
      "ĠBoy": 7987,
      "ĠFC": 7988,
      "ĠFace": 7989,
      "ĠDie": 7990,
      "ĠDuke": 7991,
      "ĠDOWN": 7992,
      "ĠDVD": 7993,
      "ĠDELET": 7994,
      "ĠNether": 7995,
      "Ġunits": 7996,
      "Ġjournals": 7997,
      "Ġoutcome": 7998,
      "Ġevident": 7999,
      "...)": 8000,
      "Ġwhenever": 8001,
      "Ġcomply": 8002,
      "icket": 8003,
      "Ġguilty": 8004,
      "Ġattend": 8005,
      "Ġreliability": 8006,
      "ĠVandal": 8007,
      "ĠVAND": 8008,
      "aching": 8009,
      "Ġreferencing": 8010,
      "Ġspin": 8011,
      "ĠReference": 8012,
      "Ġcommand": 8013,
      "ĠSock": 8014,
      "ysop": 8015,
      "wealth": 8016,
      "notes": 8017,
      "ĠDoing": 8018,
      "Ġ500": 8019,
      "Ġfounder": 8020,
      "Ġsymp": 8021,
      "Ġstrike": 8022,
      "Ġincred": 8023,
      "Ġ69": 8024,
      "Ġextensive": 8025,
      "Ġextrem": 8026,
      "Ġ07": 8027,
      "Ġdetect": 8028,
      "Ġtrial": 8029,
      "ĠNotability": 8030,
      "ĠSomething": 8031,
      "Ġmerits": 8032,
      "Ġsinger": 8033,
      "ĠGermans": 8034,
      "gery": 8035,
      "ossibly": 8036,
      "Ġgovernments": 8037,
      "Ġ1995": 8038,
      "Ġthreatened": 8039,
      "Ġeffective": 8040,
      "Ġdepartment": 8041,
      "Ġtranslate": 8042,
      "Ġpractices": 8043,
      "Ġsupposedly": 8044,
      "Ġcarried": 8045,
      "Ġfeatures": 8046,
      "ĠGroup": 8047,
      "Ġproposing": 8048,
      "Ġinsults": 8049,
      "ĠDOES": 8050,
      "Ġtables": 8051,
      "Ġimmediate": 8052,
      "Ġcensored": 8053,
      "Ġprofessor": 8054,
      "Ġpicked": 8055,
      "Ġterrorist": 8056,
      "Ġdisplayed": 8057,
      "Ġreduce": 8058,
      "Ġintentions": 8059,
      "Ġadministration": 8060,
      "!!!!!!!!!!!!!!!!!!!!!!!!!!!!!!!!!!!!!!!!!!!!!!!!!!!!!!!!!!!!!!!!!!!!!!!!!!!!!!!!!!!!!!!!!!!!!!!!!!!!!!!!!!!!!!!!!!!!!!!!!!!!!!!!": 8061,
      "Ġhatred": 8062,
      "Ġannoying": 8063,
      "ĠJuda": 8064,
      "ĠKNOW": 8065,
      "ĠFollow": 8066,
      "Ġprecisely": 8067,
      "ĠJoseph": 8068,
      "ĠHenry": 8069,
      "Archive": 8070,
      "Ġobscure": 8071,
      "Ġconclusions": 8072,
      "Ġinvalid": 8073,
      "MainPageBG": 8074,
      ")...": 8075,
      "File": 8076,
      "NU": 8077,
      "Note": 8078,
      "[[": 8079,
      "cal": 8080,
      "gate": 8081,
      "lly": 8082,
      "mann": 8083,
      "place": 8084,
      "wer": 8085,
      "ÃŃ": 8086,
      "Ð½": 8087,
      "Ġtab": 8088,
      "Ġtutorial": 8089,
      "inform": 8090,
      "organ": 8091,
      "Ġblah": 8092,
      "Ġcos": 8093,
      "Ġfest": 8094,
      "Ġfits": 8095,
      "ĠId": 8096,
      "estic": 8097,
      "asm": 8098,
      "Ġbear": 8099,
      "ĠTit": 8100,
      "ental": 8101,
      "Ġela": 8102,
      "Ġgas": 8103,
      "Ġgall": 8104,
      "ĠAG": 8105,
      "idering": 8106,
      "imb": 8107,
      "thur": 8108,
      "admin": 8109,
      "Ġconce": 8110,
      "ĠCA": 8111,
      "ĠCult": 8112,
      "ĠPal": 8113,
      "ĠBus": 8114,
      "ĠBob": 8115,
      "ĠHoly": 8116,
      "ĠMax": 8117,
      "ersion": 8118,
      "Ġprod": 8119,
      "Ġkidd": 8120,
      "quently": 8121,
      "Ġven": 8122,
      "ĠRoyal": 8123,
      "ĠLi": 8124,
      "ĠLo": 8125,
      "ĠLar": 8126,
      "umber": 8127,
      "ouses": 8128,
      "Ġquant": 8129,
      "Ġeval": 8130,
      "ĠInter": 8131,
      "Ġ''": 8132,
      "Ġpolite": 8133,
      "apy": 8134,
      "apore": 8135,
      "Ġplatform": 8136,
      "ails": 8137,
      "Ġwhereas": 8138,
      "Ġclearer": 8139,
      "neutral": 8140,
      "Ġheritage": 8141,
      "tym": 8142,
      "Ġdecades": 8143,
      "athan": 8144,
      "Ġtexts": 8145,
      "Ġgreatest": 8146,
      "Ġends": 8147,
      "Ġintervention": 8148,
      "Ġworldwide": 8149,
      "Ġcommunist": 8150,
      "Ġflat": 8151,
      "Ġawesome": 8152,
      "Ġclassic": 8153,
      "141": 8154,
      "Ġproperty": 8155,
      "Ġauthorities": 8156,
      "ISM": 8157,
      "ASS": 8158,
      "Ġpassing": 8159,
      "Ġidentical": 8160,
      "Ġ1994": 8161,
      "Ġadminship": 8162,
      "Ġtypically": 8163,
      "ĠINFORMATION": 8164,
      "ĠGreeks": 8165,
      "Ġundue": 8166,
      "Ġsubstit": 8167,
      "Ġparticipants": 8168,
      "2008": 8169,
      "Ġpromoting": 8170,
      "Ġterrible": 8171,
      "iably": 8172,
      "Notability": 8173,
      "ĠWithout": 8174,
      "Ġsucceed": 8175,
      "Ġanaly": 8176,
      "gency": 8177,
      "Ġpunk": 8178,
      "Ġvoted": 8179,
      "Ġradical": 8180,
      "ĠCountry": 8181,
      "Ġincrease": 8182,
      "ĠJackson": 8183,
      "Ġthousand": 8184,
      "Because": 8185,
      "Ġrenaming": 8186,
      "ĠMuslims": 8187,
      "Okay": 8188,
      "DDDDDDDD": 8189,
      "Ġhonor": 8190,
      "Ġconservative": 8191,
      "Ġtactics": 8192,
      "Ġlocked": 8193,
      "Ġsubsequent": 8194,
      "ĠProfessor": 8195,
      "Ġdistinguish": 8196,
      "ĠAzerbaijan": 8197,
      "Ġunreasonable": 8198,
      "Ġfacilitate": 8199,
      "Ġhypothesis": 8200,
      "ĠIDIOT": 8201,
      "BA": 8202,
      "NG": 8203,
      "National": 8204,
      "Res": 8205,
      "Rem": 8206,
      "SC": 8207,
      "bul": 8208,
      "ls": 8209,
      "lor": 8210,
      "mind": 8211,
      "pired": 8212,
      "uis": 8213,
      "uild": 8214,
      "ufact": 8215,
      "Ã§": 8216,
      "Îµ": 8217,
      "Ġtree": 8218,
      "inux": 8219,
      "Ġsland": 8220,
      "Ġsister": 8221,
      "Ġwikip": 8222,
      "Ġwild": 8223,
      "Ġbed": 8224,
      "Ġbreat": 8225,
      "Ġpic": 8226,
      "esy": 8227,
      "Ġdance": 8228,
      "omy": 8229,
      "Ġhabit": 8230,
      "ĠCR": 8231,
      "ĠCla": 8232,
      "ĠCreat": 8233,
      "unn": 8234,
      "Ġstance": 8235,
      "ĠBang": 8236,
      "ĠBudd": 8237,
      "ĠHy": 8238,
      "olas": 8239,
      "ĠMur": 8240,
      "aka": 8241,
      "Ġathe": 8242,
      "ĠFil": 8243,
      "ĠDE": 8244,
      "ĠNations": 8245,
      "rial": 8246,
      "Ġcomic": 8247,
      "ĠGlobal": 8248,
      "ĠRiver": 8249,
      "Ġhearing": 8250,
      "umm": 8251,
      "care": 8252,
      "Ġpreference": 8253,
      "ĠKy": 8254,
      "ĠKat": 8255,
      "ĠKurd": 8256,
      "Ġsubc": 8257,
      "Ġattached": 8258,
      "active": 8259,
      "Ġcommenting": 8260,
      "Ġmath": 8261,
      "ĠChild": 8262,
      "Ġprice": 8263,
      "ĠRev": 8264,
      "ugh": 8265,
      "Ġregions": 8266,
      "Ġregret": 8267,
      "Ġownership": 8268,
      "ĠArbitration": 8269,
      "athy": 8270,
      "Ġtextbook": 8271,
      "Ġsym": 8272,
      "Ġ67": 8273,
      "ographies": 8274,
      "Ġlogging": 8275,
      "Ġuntr": 8276,
      "Ġresearchers": 8277,
      "Ġ08": 8278,
      "olen": 8279,
      "Ġdistrict": 8280,
      "Ġharder": 8281,
      "ĠLeban": 8282,
      "Ġindication": 8283,
      "Ġbothered": 8284,
      "ĠLIKE": 8285,
      "together": 8286,
      "Ġdiffs": 8287,
      "âĢĿ.": 8288,
      "Ġoccasion": 8289,
      "Ġfigured": 8290,
      "251": 8291,
      "Ġnationalism": 8292,
      "Ġholding": 8293,
      "ĠAmb": 8294,
      "Ġcrack": 8295,
      "Ġpieces": 8296,
      "Ġpromoted": 8297,
      "Ġbehalf": 8298,
      "Ġoperation": 8299,
      "Ġsuperior": 8300,
      "Ġphrases": 8301,
      "Ġethnicity": 8302,
      "Ġsurprise": 8303,
      "Ġperformed": 8304,
      "Ġperformance": 8305,
      "Ġselecting": 8306,
      "Ġbiographical": 8307,
      "ĠDemocrat": 8308,
      "Ġdistinct": 8309,
      "Ġrevealed": 8310,
      "Ġnarrow": 8311,
      "Ġutterly": 8312,
      "Ġaccomplish": 8313,
      "Ġdeclared": 8314,
      "ĠProvince": 8315,
      "Ġperceived": 8316,
      "ĠOxford": 8317,
      "!\"": 8318,
      "210": 8319,
      "83": 8320,
      "BER": 8321,
      "CA": 8322,
      "Jew": 8323,
      "Mon": 8324,
      "PT": 8325,
      "Will": 8326,
      "hed": 8327,
      "iel": 8328,
      "irop": 8329,
      "lar": 8330,
      "links": 8331,
      "national": 8332,
      "pan": 8333,
      "rid": 8334,
      "uzz": 8335,
      "ÑĤ": 8336,
      "Ġ\\": 8337,
      "oral": 8338,
      "oric": 8339,
      "Ġboo": 8340,
      "Ġbtw": 8341,
      "lem": 8342,
      "Ġopt": 8343,
      "Ġyouth": 8344,
      "otic": 8345,
      "ĠTitle": 8346,
      "ĠWall": 8347,
      "ima": 8348,
      "ĠSqu": 8349,
      "ĠSources": 8350,
      "stant": 8351,
      "throp": 8352,
      "adow": 8353,
      "ĠPot": 8354,
      "ĠPop": 8355,
      "Ġdeals": 8356,
      "ĠBan": 8357,
      "ĠBru": 8358,
      "Ġdoctor": 8359,
      "ĠMike": 8360,
      "ĠMilitary": 8361,
      "Ġorg": 8362,
      "andon": 8363,
      "ĠDen": 8364,
      "ĠDam": 8365,
      "ĠDist": 8366,
      "ĠDick": 8367,
      "Ġran": 8368,
      "ĠNon": 8369,
      "people": 8370,
      "Ġdiss": 8371,
      "ĠUr": 8372,
      "Ġenfor": 8373,
      "Ġacqu": 8374,
      "riter": 8375,
      "Ġseeking": 8376,
      "Ġmanagement": 8377,
      "assing": 8378,
      "Ġsales": 8379,
      "Ġ''''": 8380,
      "ĠValley": 8381,
      "Ġrecre": 8382,
      "Ġplagiarism": 8383,
      "Ġvandalise": 8384,
      "Ġclimate": 8385,
      "Ġcoinc": 8386,
      "IND": 8387,
      "ANK": 8388,
      "Ġdefense": 8389,
      "Ġassure": 8390,
      "OVE": 8391,
      "Ġscen": 8392,
      "Ġfoundation": 8393,
      "Ġprobability": 8394,
      "Ġaddressing": 8395,
      "Ġsched": 8396,
      "ĠOnline": 8397,
      "span": 8398,
      "Ġcontrolled": 8399,
      "Ġcrow": 8400,
      "Ġcrash": 8401,
      "ĠZeal": 8402,
      "146": 8403,
      "177": 8404,
      "Israel": 8405,
      "Ġcenturies": 8406,
      "Ġtraffic": 8407,
      "ĠFACT": 8408,
      "Ġprotecting": 8409,
      "Ġoccas": 8410,
      "Ġcapacity": 8411,
      "Ġmeantime": 8412,
      "Ġracism": 8413,
      "Ġidiots": 8414,
      "Ġreceiving": 8415,
      "ĠPlay": 8416,
      "ĠDiscussion": 8417,
      "Ġfalls": 8418,
      "Ġbulldo": 8419,
      "borhood": 8420,
      "Ġhostile": 8421,
      "ĠBelow": 8422,
      "ĠDespite": 8423,
      "ĠPortal": 8424,
      "Ġreduced": 8425,
      "Ġcircumcision": 8426,
      "Ġpuppetry": 8427,
      "Ġadministrative": 8428,
      "ĠAlexander": 8429,
      "Ġattributed": 8430,
      "ĠHungary": 8431,
      "Ġannounced": 8432,
      "FUCKFUCKFUCKFUCKFUCKFUCKFUCKFUCKFUCKFUCKFUCKFUCKFUCKFUCKFUCKFUCKFUCKFUCKFUCKFUCKFUCKFUCKFUCKFUCKFUCKFUCKFUCKFUCKFUCKFUCKFUCKFUCKFUCKFUCKFUCKFUCKFUCKFUCKFUCKFUCKFUCKFUCKFUCKFUCKFUCKFUCKFUCKFUCKFUCKFUCKFUCKFUCKFUCKFUCKFUCKFUCKFUCKFUCKFUCKFUCKFUCKFUCKFUCKFUCK": 8433,
      "nnnnnnnnnnnnnnnnnnnnnnnnnnnnnnnnnnnnnnnnnnnnnnnnnnnnnnnnnnnnnnnnnnnnnnnnnnnnnnnnnnnnnnnnnnnnnnnnnnnnnnnnnnnnnnnnnnnnnnnnnnnnnnnnnnnnnnnnnnnnnnnnnnnnnnnnnnnnnnnnnnnnnnnnnnnnnnnnnnnnnnnnnnnnnnnnnnnnnnnnnnnnnnnnnnnnnnnnnnnnnnnnnnnnnnnnnnnnnnnnnnnnnnnnnnnnnnnn": 8434,
      "ĠClearly": 8435,
      "Ġadvocate": 8436,
      "Images": 8437,
      "Ġlinguistic": 8438,
      "Ġindefinitely": 8439,
      "Ġtonight": 8440,
      "ĠHamas": 8441,
      "Ġmusical": 8442,
      "Ġexclusively": 8443,
      "Ġsequence": 8444,
      "Ġcustom": 8445,
      "ĠIssue": 8446,
      "Ġvehicle": 8447,
      "ĠNobody": 8448,
      "Ġphenomenon": 8449,
      "ellectual": 8450,
      "Ġmisterwiki": 8451,
      "Ġelabor": 8452,
      "79": 8453,
      "Block": 8454,
      "God": 8455,
      "IF": 8456,
      "Int": 8457,
      "crip": 8458,
      "citation": 8459,
      "eous": 8460,
      "gg": 8461,
      "je": 8462,
      "oor": 8463,
      "pa": 8464,
      "pool": 8465,
      "panic": 8466,
      "yet": 8467,
      "âĨĴ": 8468,
      "Ġtherap": 8469,
      "Ġsitting": 8470,
      "itors": 8471,
      "Ġbow": 8472,
      "Ġcous": 8473,
      "ancing": 8474,
      "Ġom": 8475,
      "Ġrecons": 8476,
      "otes": 8477,
      "usalem": 8478,
      "Ġisnt": 8479,
      "ĠTre": 8480,
      "ĠTot": 8481,
      "Ġearn": 8482,
      "ikes": 8483,
      "roat": 8484,
      "ĠSS": 8485,
      "ĠSon": 8486,
      "ĠSal": 8487,
      "ĠSuggest": 8488,
      "ithuan": 8489,
      "ĠCat": 8490,
      "ĠPA": 8491,
      "ĠPower": 8492,
      "Ġstore": 8493,
      "Ġstations": 8494,
      "Ġstreet": 8495,
      "ĠHay": 8496,
      "ĠMid": 8497,
      "ĠMah": 8498,
      "Ġsuicide": 8499,
      "ĠDirect": 8500,
      "Ġrating": 8501,
      "Ġroman": 8502,
      "Ġshape": 8503,
      "ĠThink": 8504,
      "ĠRose": 8505,
      "Ġdisappe": 8506,
      "ĠEU": 8507,
      "ĠEp": 8508,
      "ĠEnd": 8509,
      "ĠExt": 8510,
      "arts": 8511,
      "osis": 8512,
      "ĠCharl": 8513,
      "ĠChannel": 8514,
      "Ġplacing": 8515,
      "Ġgradu": 8516,
      "Ġparaph": 8517,
      "Ġspending": 8518,
      "Ġfucked": 8519,
      "Ġowned": 8520,
      "OTS": 8521,
      "Ġsubjective": 8522,
      "Ġserved": 8523,
      "Ġserving": 8524,
      "Ġsigns": 8525,
      "Ġviewed": 8526,
      "Ġscr": 8527,
      "192": 8528,
      "Ġ[]": 8529,
      "uese": 8530,
      "ĠComments": 8531,
      "Ġawards": 8532,
      "129": 8533,
      "Ġdisturb": 8534,
      "Ġresulted": 8535,
      "ĠSometimes": 8536,
      "Ġorganized": 8537,
      "Ġsocks": 8538,
      "Ġhumor": 8539,
      "Ġmarks": 8540,
      "Ġsky": 8541,
      "Ġaccordingly": 8542,
      "Ġcontroversies": 8543,
      "Ġvalidity": 8544,
      "Ġvisible": 8545,
      "ĠÂ«": 8546,
      "2006": 8547,
      "ĠJohnson": 8548,
      "Ġpresence": 8549,
      "gener": 8550,
      "Ġurge": 8551,
      "Ġessential": 8552,
      "Ġwinning": 8553,
      "Ø§Ø": 8554,
      "Ġinitially": 8555,
      "***": 8556,
      "Ġrecommended": 8557,
      "Ġstubs": 8558,
      "Ġfilled": 8559,
      "Ġallegation": 8560,
      "ĠSupreme": 8561,
      "Ġencouraged": 8562,
      "Ġsoldiers": 8563,
      "Ġlicensing": 8564,
      "Ġpissed": 8565,
      "YYYY": 8566,
      "Ġancestry": 8567,
      "Ġpedoph": 8568,
      "ĠDocument": 8569,
      "Ġpermanent": 8570,
      "Ġuserboxes": 8571,
      "ĠWhether": 8572,
      "ophobia": 8573,
      "Ġexercise": 8574,
      "Ġautomated": 8575,
      "arbage": 8576,
      "Ġsurrounding": 8577,
      "ĠMexico": 8578,
      "Ġbureauc": 8579,
      "ĠTibet": 8580,
      "Ġbizarre": 8581,
      "ĠJudaism": 8582,
      "97": 8583,
      ">>": 8584,
      "Help": 8585,
      "JPG": 8586,
      "KK": 8587,
      "PU": 8588,
      "SP": 8589,
      "gov": 8590,
      "rated": 8591,
      "uct": 8592,
      "uated": 8593,
      "uations": 8594,
      "Î¹": 8595,
      "Ġtape": 8596,
      "Ġwel": 8597,
      "Ġwall": 8598,
      "Ġble": 8599,
      "Ġcir": 8600,
      "Ġcert": 8601,
      "Ġpig": 8602,
      "Ġhook": 8603,
      "Ġhang": 8604,
      "Ġholid": 8605,
      "Ġlately": 8606,
      "Ġlazy": 8607,
      "llo": 8608,
      "ĠTag": 8609,
      "ĠTamil": 8610,
      "\"\"\"\"": 8611,
      "Ġwhilst": 8612,
      "Ġglo": 8613,
      "Ġnotion": 8614,
      "ĠAge": 8615,
      "imm": 8616,
      "room": 8617,
      "ĠSE": 8618,
      "ĠSAL": 8619,
      "ĠSlav": 8620,
      "vertical": 8621,
      "stop": 8622,
      "Ġash": 8623,
      "ado": 8624,
      "ĠCall": 8625,
      "ĠCNN": 8626,
      "Ġstable": 8627,
      "ĠBI": 8628,
      "ĠBR": 8629,
      "ĠBS": 8630,
      "ĠBat": 8631,
      "ĠBalk": 8632,
      "ĠBost": 8633,
      "ĠHell": 8634,
      "ĠHence": 8635,
      "ĠHmm": 8636,
      "Ġdozen": 8637,
      "iry": 8638,
      "ilers": 8639,
      "ĠYugoslav": 8640,
      "Ġabst": 8641,
      "ĠFred": 8642,
      "ĠDet": 8643,
      "rive": 8644,
      "Ġunbiased": 8645,
      "Ġunilater": 8646,
      "anti": 8647,
      "Ġwearing": 8648,
      "Ġvag": 8649,
      "Ġcomfort": 8650,
      "ĠGreetings": 8651,
      "ĠRoll": 8652,
      "Ġalcohol": 8653,
      "los": 8654,
      "ĠJon": 8655,
      "uming": 8656,
      "Ġdeletions": 8657,
      "Ġ->": 8658,
      "udge": 8659,
      "Ġmob": 8660,
      "ideo": 8661,
      "osing": 8662,
      "Ġtrip": 8663,
      "inton": 8664,
      "Ġmanufact": 8665,
      "ictions": 8666,
      "Ġbelt": 8667,
      "ĠView": 8668,
      "Ġgrade": 8669,
      "Ġgrowing": 8670,
      "Ġcommittee": 8671,
      "ĠHebrew": 8672,
      "Ġverification": 8673,
      "Ġdefending": 8674,
      "Ġcopyvio": 8675,
      "onds": 8676,
      "Ġbrow": 8677,
      "Ġscrew": 8678,
      "white": 8679,
      "ahoo": 8680,
      "Ġroot": 8681,
      "Ġending": 8682,
      "Ġcaption": 8683,
      "Ġdirector": 8684,
      "Ġnorthern": 8685,
      "Ġpretend": 8686,
      "istrator": 8687,
      "ĠOrgan": 8688,
      "ĠOriginal": 8689,
      "149": 8690,
      "Ġvariable": 8691,
      "nesses": 8692,
      "inson": 8693,
      "HEAD": 8694,
      "Ġnominations": 8695,
      "Ġ1997": 8696,
      "130": 8697,
      "omatic": 8698,
      "Ġcontacted": 8699,
      "addy": 8700,
      "Ġdepend": 8701,
      "ĠExternal": 8702,
      "Ġrevisions": 8703,
      "Ġmeaningless": 8704,
      "ringe": 8705,
      "Ġscientist": 8706,
      "Ġexceptions": 8707,
      "Christian": 8708,
      "ĠClub": 8709,
      "Ġcomplaining": 8710,
      "ependent": 8711,
      "Ġdocumentation": 8712,
      "Ġpersistent": 8713,
      "Ġinsulted": 8714,
      "Ġportray": 8715,
      "Ġresponsibility": 8716,
      "ĠONLY": 8717,
      "ĠBlue": 8718,
      "????????": 8719,
      "specific": 8720,
      "Ġerase": 8721,
      "Ġpublishing": 8722,
      "Contribs": 8723,
      "ĠFlor": 8724,
      "Ġdecline": 8725,
      "Ġdeclined": 8726,
      "ĠCompany": 8727,
      "Ġdeliberate": 8728,
      "ĠFrequently": 8729,
      "Ġapplicable": 8730,
      "ĠSingapore": 8731,
      "OOOOOOOOOOOOOOOO": 8732,
      "Ġpulled": 8733,
      "Ġduplicate": 8734,
      "riticism": 8735,
      "Ġbeautiful": 8736,
      "Administrators": 8737,
      "Ġinserting": 8738,
      "ĠCongratulations": 8739,
      "ĠIntelligence": 8740,
      "Ġrudeness": 8741,
      "ĠNetherlands": 8742,
      "Gu": 8743,
      "Jan": 8744,
      "Te": 8745,
      "Tube": 8746,
      "WE": 8747,
      "car": 8748,
      "oices": 8749,
      "vandal": 8750,
      "worthy": 8751,
      "Ġut": 8752,
      "Ġtough": 8753,
      "Ġaka": 8754,
      "Ġthin": 8755,
      "resh": 8756,
      "atible": 8757,
      "orge": 8758,
      "Ġbug": 8759,
      "Ġcamer": 8760,
      "ano": 8761,
      "Ġpadding": 8762,
      "Ġot": 8763,
      "ĠIRC": 8764,
      "also": 8765,
      "Ġinherent": 8766,
      "Ġreversion": 8767,
      "ller": 8768,
      "ĠTour": 8769,
      "agged": 8770,
      "Ġgerman": 8771,
      "ĠWR": 8772,
      "ĠWOR": 8773,
      "ĠSky": 8774,
      "ĠSikh": 8775,
      "igin": 8776,
      "chen": 8777,
      "ĠCup": 8778,
      "ĠCreation": 8779,
      "ĠBank": 8780,
      "ĠBull": 8781,
      "ĠHop": 8782,
      "ĠHel": 8783,
      "ilver": 8784,
      "akers": 8785,
      "ĠFreedom": 8786,
      "ĠDown": 8787,
      "ĠDuring": 8788,
      "ĠNight": 8789,
      "ĠNeed": 8790,
      "ĠTher": 8791,
      "Ġexchange": 8792,
      "Ġadjust": 8793,
      "antage": 8794,
      "ĠGal": 8795,
      "ĠGoth": 8796,
      "Ġsoci": 8797,
      "ppose": 8798,
      "ndrome": 8799,
      "ups": 8800,
      "Ġdisorder": 8801,
      "ĠLic": 8802,
      "ĠEth": 8803,
      "ĠEinstein": 8804,
      "ĠOper": 8805,
      "lab": 8806,
      "Ġwhats": 8807,
      "Ġintim": 8808,
      "!!!!!": 8809,
      "OUR": 8810,
      "haw": 8811,
      "pty": 8812,
      "ĠKelly": 8813,
      "ables": 8814,
      "odies": 8815,
      "Ġcompleted": 8816,
      "Ġimpartial": 8817,
      "Ġsubtle": 8818,
      "Ġguest": 8819,
      "ĠStorm": 8820,
      "Ġfactor": 8821,
      "Ġfactors": 8822,
      "achel": 8823,
      "Ġlistening": 8824,
      "ĠViet": 8825,
      "Ġoverview": 8826,
      "Ġgrad": 8827,
      "Ġpartly": 8828,
      "ĠAltern": 8829,
      "orders": 8830,
      "Ġcommons": 8831,
      "Ġtwist": 8832,
      "Ġinfin": 8833,
      "Ġscreens": 8834,
      "Ġencyclopaedia": 8835,
      "Ġcorrecting": 8836,
      "Ġ74": 8837,
      "viation": 8838,
      "Ġstring": 8839,
      "ĠTHEY": 8840,
      "Ġdefining": 8841,
      "Ġconcent": 8842,
      "Ġinspired": 8843,
      "Ġinteraction": 8844,
      "ĠIndeed": 8845,
      "ART": 8846,
      "107": 8847,
      "Ġrequirement": 8848,
      "Ġautob": 8849,
      "178": 8850,
      "Ġmerging": 8851,
      "Ġpatience": 8852,
      "Ġassumptions": 8853,
      "âĢĿ,": 8854,
      "Ġqualified": 8855,
      "Ġdrugs": 8856,
      "Ġwonderful": 8857,
      "Ġturns": 8858,
      "Ġholds": 8859,
      "ĠClass": 8860,
      "Ġpromotes": 8861,
      "Ġ1980": 8862,
      "Ġbuildings": 8863,
      "ĠPlus": 8864,
      "Ġdestruction": 8865,
      "ski": 8866,
      "sky": 8867,
      "Ġoperating": 8868,
      "Ġprofession": 8869,
      "Ġinvestigations": 8870,
      "Ġsuspected": 8871,
      "Ġdropdown": 8872,
      "ĠCarol": 8873,
      "Ġblatantly": 8874,
      "Ġforums": 8875,
      "Ġruled": 8876,
      "Ġmarketing": 8877,
      "ĠKNOB": 8878,
      "HAHAHAHAHAHAHAHAHAHAHAHA": 8879,
      "Ġsolely": 8880,
      "Ġtrivia": 8881,
      "ĠRoad": 8882,
      "Ġdropped": 8883,
      "Ġconsequences": 8884,
      "ĠWikiproject": 8885,
      "Ġemphasis": 8886,
      "Ġsenior": 8887,
      "lovak": 8888,
      "Ġpartisan": 8889,
      "Ġcooperation": 8890,
      "Keep": 8891,
      "ĠARTICLE": 8892,
      "Ġdisease": 8893,
      "ĠFacebook": 8894,
      "Apr": 8895,
      "BL": 8896,
      "DP": 8897,
      "FO": 8898,
      "NPA": 8899,
      "Prop": 8900,
      "Sch": 8901,
      "Ship": 8902,
      "Support": 8903,
      "UQ": 8904,
      "Ver": 8905,
      "bon": 8906,
      "cuse": 8907,
      "long": 8908,
      "lines": 8909,
      "pher": 8910,
      "rage": 8911,
      "sv": 8912,
      "wen": 8913,
      "written": 8914,
      "xx": 8915,
      "{{": 8916,
      "ÏĤ": 8917,
      "Ġ]": 8918,
      "Ġie": 8919,
      "Ġ~~~~": 8920,
      "Ġain": 8921,
      "ref": 8922,
      "itarian": 8923,
      "Ġflo": 8924,
      "Ġmartial": 8925,
      "Ġovert": 8926,
      "Ġhole": 8927,
      "alo": 8928,
      "iced": 8929,
      "Ġnoun": 8930,
      "Ġincl": 8931,
      "Ġincon": 8932,
      "Ġinline": 8933,
      "arter": 8934,
      "Ġrein": 8935,
      "Ġrela": 8936,
      "ota": 8937,
      "Ġlands": 8938,
      "Ġeh": 8939,
      "ĠAR": 8940,
      "ĠAth": 8941,
      "rov": 8942,
      "ĠSlim": 8943,
      "iams": 8944,
      "semb": 8945,
      "cher": 8946,
      "ĠCe": 8947,
      "ĠCON": 8948,
      "ĠCertain": 8949,
      "unj": 8950,
      "Ġsevere": 8951,
      "Ġstress": 8952,
      "ipal": 8953,
      "ĠBUT": 8954,
      "ĠBaby": 8955,
      "ĠHome": 8956,
      "ĠMA": 8957,
      "ĠMake": 8958,
      "ĠMount": 8959,
      "ura": 8960,
      "urday": 8961,
      "ĠFootball": 8962,
      "ĠDON": 8963,
      "ĠDaniel": 8964,
      "Ġring": 8965,
      "Ġrant": 8966,
      "Ġrich": 8967,
      "Ġrough": 8968,
      "ĠNic": 8969,
      "ĠNone": 8970,
      "ĠNOW": 8971,
      "Ġshop": 8972,
      "bles": 8973,
      "ĠGNU": 8974,
      "ĠRog": 8975,
      "Ġalphab": 8976,
      "Ġaltogether": 8977,
      "ieve": 8978,
      "uper": 8979,
      "Ġdisapp": 8980,
      "ĠLink": 8981,
      "ĠLED": 8982,
      "ĠOl": 8983,
      "ĠOp": 8984,
      "Ġchoo": 8985,
      "Ġleaves": 8986,
      "ardless": 8987,
      "Ġagrees": 8988,
      "cape": 8989,
      "ession": 8990,
      "ineering": 8991,
      "Ġtheme": 8992,
      "Ġacted": 8993,
      "Ġactor": 8994,
      "Ġactors": 8995,
      "Ġactively": 8996,
      "ĠStalin": 8997,
      "acies": 8998,
      "uality": 8999,
      "Ġplans": 9000,
      "Ġpray": 9001,
      "Ġspoke": 9002,
      "Ġsports": 9003,
      "ampion": 9004,
      "ĠReferences": 9005,
      "Ġregularly": 9006,
      "ĠAsh": 9007,
      "ANI": 9008,
      "venge": 9009,
      "Ġwritings": 9010,
      "tenance": 9011,
      "Ġinvasion": 9012,
      "Ġserves": 9013,
      "Ġcontinually": 9014,
      "Ġbrings": 9015,
      "Ġsupporters": 9016,
      "ĠISBN": 9017,
      "Ġcorrections": 9018,
      "ĠForce": 9019,
      "Ġstrug": 9020,
      "Ġwarming": 9021,
      "Ġ65": 9022,
      "ĠSec": 9023,
      "ORT": 9024,
      "Ġrestoring": 9025,
      "Ġminister": 9026,
      "OOK": 9027,
      "Ġdisagrees": 9028,
      "Ġleaders": 9029,
      "retch": 9030,
      "atted": 9031,
      "186": 9032,
      "144": 9033,
      "Ġpurch": 9034,
      "Ġsloppy": 9035,
      "Ġcreates": 9036,
      "Ġhumans": 9037,
      "Ġcomplicated": 9038,
      "139": 9039,
      "ĠPolit": 9040,
      "Ġreplacing": 9041,
      "atson": 9042,
      "Ġredirected": 9043,
      "Ġskin": 9044,
      "Ġskep": 9045,
      "Ġworthless": 9046,
      "Ġcapable": 9047,
      "Ġunfortun": 9048,
      "Ġfocused": 9049,
      "ĠGOES": 9050,
      "Ġbreaking": 9051,
      "ĠWilliams": 9052,
      "Ġcleaned": 9053,
      "Ġcleaning": 9054,
      "iques": 9055,
      "ĠPHUQ": 9056,
      "Ġanalogy": 9057,
      "Ġhello": 9058,
      "Ġfresh": 9059,
      "ĠEdward": 9060,
      "Ġblogs": 9061,
      "Ġopposing": 9062,
      "Ġmaps": 9063,
      "Ġcopies": 9064,
      "ĠSunday": 9065,
      "Ġbriefly": 9066,
      "ĠTurkic": 9067,
      "Ġimmature": 9068,
      "ĠConsidering": 9069,
      "Ġsynthesis": 9070,
      "Ġundoing": 9071,
      "Ġruling": 9072,
      "Ġultimately": 9073,
      "Ġcitizen": 9074,
      "abeth": 9075,
      "Ġobserved": 9076,
      "Ã¼r": 9077,
      "Ġpermanently": 9078,
      "ĠSteve": 9079,
      "wwwwwwww": 9080,
      "Ġmisunderstanding": 9081,
      "Ġinstitution": 9082,
      "faith": 9083,
      "according": 9084,
      "Ġthoroughly": 9085,
      "ĠSocialist": 9086,
      "Ġterminology": 9087,
      "ĠCommonwealth": 9088,
      "Ġparaphr": 9089,
      "ĠSALT": 9090,
      "ĠFlorida": 9091,
      "After": 9092,
      "By": 9093,
      "First": 9094,
      "Love": 9095,
      "More": 9096,
      "da": 9097,
      "dep": 9098,
      "fair": 9099,
      "gon": 9100,
      "hop": 9101,
      "ji": 9102,
      "las": 9103,
      "oided": 9104,
      "Äģ": 9105,
      "ÙĤ": 9106,
      "Ġ}}": 9107,
      "Ġtong": 9108,
      "Ġtaught": 9109,
      "inct": 9110,
      "ati": 9111,
      "atural": 9112,
      "Ġwp": 9113,
      "Ġbank": 9114,
      "Ġbought": 9115,
      "Ġcats": 9116,
      "Ġpra": 9117,
      "Ġfly": 9118,
      "Ġfought": 9119,
      "Ġmir": 9120,
      "Ġhint": 9121,
      "Ġnom": 9122,
      "aration": 9123,
      "ĠTen": 9124,
      "Ġeight": 9125,
      "Ġgreek": 9126,
      "utt": 9127,
      "ĠWM": 9128,
      "rove": 9129,
      "iac": 9130,
      "ĠBre": 9131,
      "ĠBlo": 9132,
      "ĠBure": 9133,
      "ĠBEC": 9134,
      "ĠHor": 9135,
      "ĠHOW": 9136,
      "ĠMong": 9137,
      "Ġsuf": 9138,
      "ila": 9139,
      "Ġabroad": 9140,
      "ĠFun": 9141,
      "ĠDub": 9142,
      "ĠDomin": 9143,
      "Ġrise": 9144,
      "oooo": 9145,
      "pelled": 9146,
      "ĠThought": 9147,
      "ulating": 9148,
      "Ġunde": 9149,
      "Ġunjust": 9150,
      "Ġweird": 9151,
      "111": 9152,
      "rave": 9153,
      "ĠLand": 9154,
      "ĠLight": 9155,
      "ĠLine": 9156,
      "ĠOtt": 9157,
      "ĠOpen": 9158,
      "Ġpov": 9159,
      "iveness": 9160,
      "ĠYouTube": 9161,
      "ogg": 9162,
      "Ġpreced": 9163,
      "ĠWhatever": 9164,
      "Ġwanting": 9165,
      "Ġoffering": 9166,
      "ĠChal": 9167,
      "itional": 9168,
      "Ġ35": 9169,
      "Ġposter": 9170,
      "Ġputs": 9171,
      "ĠThats": 9172,
      "ĠIsn": 9173,
      "Ġquestioned": 9174,
      "Ġquestioning": 9175,
      "ĠUniverse": 9176,
      "Ġbrothers": 9177,
      "Ġdescent": 9178,
      "when": 9179,
      "Ġroyal": 9180,
      "Ġdifferently": 9181,
      "Ġguidance": 9182,
      "When": 9183,
      "ĠComment": 9184,
      "Ġdownload": 9185,
      "Ġimportantly": 9186,
      "Ġstudied": 9187,
      "ĠProbably": 9188,
      "Ġadvised": 9189,
      "Ġclasses": 9190,
      "ĠNOTHING": 9191,
      "147": 9192,
      "Ġdemocracy": 9193,
      "arris": 9194,
      "VEN": 9195,
      "Inc": 9196,
      "ĠSeries": 9197,
      "rolling": 9198,
      "Ġtranslations": 9199,
      "Ġmembership": 9200,
      "ĠNeither": 9201,
      "controversial": 9202,
      "Ġdenying": 9203,
      "afford": 9204,
      "Ġ1986": 9205,
      "Ġ1989": 9206,
      "Ġmassacre": 9207,
      "Ġsuffer": 9208,
      "Ġmotives": 9209,
      "ĠKevin": 9210,
      "Ġconsistently": 9211,
      "Ġamongst": 9212,
      "Ġreplacement": 9213,
      "ĠLooking": 9214,
      "Ġintentionally": 9215,
      "Ġliked": 9216,
      "Ġeconomy": 9217,
      "Ġcourtesy": 9218,
      "ĠArabs": 9219,
      "Ġerrone": 9220,
      "Ġdegrees": 9221,
      "ĠParis": 9222,
      "Ġofficer": 9223,
      "ĠCorrie": 9224,
      "ĠKorea": 9225,
      "Ġapplication": 9226,
      "Ġbullying": 9227,
      "ĠBiography": 9228,
      "Ġwindow": 9229,
      "Ġcomprehensive": 9230,
      "Ġsuspic": 9231,
      "FFFFFF": 9232,
      "LLLLLLLLLLLLLLLL": 9233,
      "ĠSwedish": 9234,
      "Ġflawed": 9235,
      "Ġtroops": 9236,
      "ĠToronto": 9237,
      "Ġbuddy": 9238,
      "ĠCohanim": 9239,
[...]
