{
  "version": "1.0",
  "truncation": null,
  "padding": null,
  "added_tokens": [
    {
      "id": 0,
      "content": "<PAD>",
      "single_word": false,
      "lstrip": false,
      "rstrip": false,
      "normalized": false,
      "special": true
    },
    {
      "id": 1,
      "content": "<UNK>",
      "single_word": false,
      "lstrip": false,
      "rstrip": false,
      "normalized": false,
      "special": true
    },
    {
      "id": 2,
      "content": "<URL>",
      "single_word": false,
      "lstrip": false,
      "rstrip": false,
      "normalized": false,
      "special": true
    }
  ],
  "normalizer": null,
  "pre_tokenizer": {
    "type": "ByteLevel",
    "add_prefix_space": false,
    "trim_offsets": true,
    "use_regex": true
  },
  "post_processor": {
    "type": "ByteLevel",
    "add_prefix_space": true,
    "trim_offsets": false,
    "use_regex": true
  },
  "decoder": {
    "type": "ByteLevel",
    "add_prefix_space": true,
    "trim_offsets": true,
    "use_regex": true
  },
  "model": {
    "type": "BPE",
    "dropout": null,
    "unk_token": null,
    "continuing_subword_prefix": null,
    "end_of_word_suffix": null,
    "fuse_unk": false,
    "byte_fallback": false,
    "ignore_merges": false,
    "vocab": {
      "<PAD>": 0,
      "<UNK>": 1,
      "<URL>": 2,
      "!": 3,
      "\"": 4,
      "#": 5,
      "$": 6,
      "%": 7,
      "&": 8,
      "'": 9,
      "(": 10,
      ")": 11,
      "*": 12,
      "+": 13,
      ",": 14,
      "-": 15,
      ".": 16,
      "/": 17,
      "0": 18,
      "1": 19,
      "2": 20,
      "3": 21,
      "4": 22,
      "5": 23,
      "6": 24,
      "7": 25,
      "8": 26,
      "9": 27,
      ":": 28,
      ";": 29,
      "<": 30,
      "=": 31,
      ">": 32,
      "?": 33,
      "@": 34,
      "A": 35,
      "B": 36,
      "C": 37,
      "D": 38,
      "E": 39,
      "F": 40,
      "G": 41,
      "H": 42,
      "I": 43,
      "J": 44,
      "K": 45,
      "L": 46,
      "M": 47,
      "N": 48,
      "O": 49,
      "P": 50,
      "Q": 51,
      "R": 52,
      "S": 53,
      "T": 54,
      "U": 55,
      "V": 56,
      "W": 57,
      "X": 58,
      "Y": 59,
      "Z": 60,
      "[": 61,
      "\\": 62,
      "]": 63,
      "^": 64,
      "_": 65,
      "`": 66,
      "a": 67,
      "b": 68,
      "c": 69,
      "d": 70,
      "e": 71,
      "f": 72,
      "g": 73,
      "h": 74,
      "i": 75,
      "j": 76,
      "k": 77,
      "l": 78,
      "m": 79,
      "n": 80,
      "o": 81,
      "p": 82,
      "q": 83,
      "r": 84,
      "s": 85,
      "t": 86,
      "u": 87,
      "v": 88,
      "w": 89,
      "x": 90,
      "y": 91,
      "z": 92,
      "{": 93,
      "|": 94,
      "}": 95,
      "~": 96,
      "¡": 97,
      "¢": 98,
      "£": 99,
      "¤": 100,
      "¥": 101,
      "¦": 102,
      "§": 103,
      "¨": 104,
      "©": 105,
      "ª": 106,
      "«": 107,
      "¬": 108,
      "®": 109,
      "¯": 110,
      "°": 111,
      "±": 112,
      "²": 113,
      "³": 114,
      "´": 115,
      "µ": 116,
      "¶": 117,
      "·": 118,
      "¸": 119,
      "¹": 120,
      "º": 121,
      "»": 122,
      "¼": 123,
      "½": 124,
      "¾": 125,
      "¿": 126,
      "À": 127,
      "Á": 128,
      "Â": 129,
      "Ã": 130,
      "Ä": 131,
      "Å": 132,
      "Æ": 133,
      "Ç": 134,
      "È": 135,
      "É": 136,
      "Ê": 137,
      "Ë": 138,
      "Ì": 139,
      "Í": 140,
      "Î": 141,
      "Ï": 142,
      "Ð": 143,
      "Ñ": 144,
      "Ò": 145,
      "Ó": 146,
      "Ô": 147,
      "Õ": 148,
      "Ö": 149,
      "×": 150,
      "Ø": 151,
      "Ù": 152,
      "Ú": 153,
      "Û": 154,
      "Ü": 155,
      "Ý": 156,
      "Þ": 157,
      "ß": 158,
      "à": 159,
      "á": 160,
      "â": 161,
      "ã": 162,
      "ä": 163,
      "å": 164,
      "æ": 165,
      "ç": 166,
      "è": 167,
      "é": 168,
      "ê": 169,
      "ë": 170,
      "ì": 171,
      "í": 172,
      "î": 173,
      "ï": 174,
      "ð": 175,
      "ñ": 176,
      "ò": 177,
      "ó": 178,
      "ô": 179,
      "õ": 180,
      "ö": 181,
      "÷": 182,
      "ø": 183,
      "ù": 184,
      "ú": 185,
      "û": 186,
      "ü": 187,
      "ý": 188,
      "þ": 189,
      "ÿ": 190,
      "Ā": 191,
      "ā": 192,
      "Ă": 193,
      "ă": 194,
      "Ą": 195,
      "ą": 196,
      "Ć": 197,
      "ć": 198,
      "Ĉ": 199,
      "ĉ": 200,
      "Ċ": 201,
      "ċ": 202,
      "Č": 203,
      "č": 204,
      "Ď": 205,
      "ď": 206,
      "Đ": 207,
      "đ": 208,
      "Ē": 209,
      "ē": 210,
      "Ĕ": 211,
      "ĕ": 212,
      "Ė": 213,
      "ė": 214,
      "Ę": 215,
      "ę": 216,
      "Ě": 217,
      "ě": 218,
      "Ĝ": 219,
      "ĝ": 220,
      "Ğ": 221,
      "ğ": 222,
      "Ġ": 223,
      "ġ": 224,
      "Ģ": 225,
      "ģ": 226,
      "Ĥ": 227,
      "ĥ": 228,
      "Ħ": 229,
      "ħ": 230,
      "Ĩ": 231,
      "ĩ": 232,
      "Ī": 233,
      "ī": 234,
      "Ĭ": 235,
      "ĭ": 236,
      "Į": 237,
      "į": 238,
      "İ": 239,
      "ı": 240,
      "Ĳ": 241,
      "ĳ": 242,
      "Ĵ": 243,
      "ĵ": 244,
      "Ķ": 245,
      "ķ": 246,
      "ĸ": 247,
      "Ĺ": 248,
      "ĺ": 249,
      "Ļ": 250,
      "ļ": 251,
      "Ľ": 252,
      "ľ": 253,
      "Ŀ": 254,
      "ŀ": 255,
      "Ł": 256,
      "ł": 257,
      "Ń": 258,
      "Ġt": 259,
      "Ġa": 260,
      "Ġth": 261,
      "in": 262,
      "re": 263,
      "on": 264,
      "ou": 265,
      "Ġthe": 266,
      "Ġs": 267,
      "er": 268,
      "is": 269,
      "Ġw": 270,
      "at": 271,
      "it": 272,
      "ed": 273,
      "or": 274,
      "Ġb": 275,
      "Ġc": 276,
      "le": 277,
      "an": 278,
      "en": 279,
      "Ġp": 280,
      "ing": 281,
      "Ġto": 282,
      "Ġm": 283,
      "Ġf": 284,
      "Ġo": 285,
      "ĠI": 286,
      "Ġan": 287,
      "Ġh": 288,
      "es": 289,
      "Ġd": 290,
      "al": 291,
      "ic": 292,
      "Ġy": 293,
      "Ġyou": 294,
      "Ġn": 295,
      "Ġof": 296,
      "Ġin": 297,
      "ion": 298,
      "ar": 299,
      "as": 300,
      "Ġand": 301,
      "ot": 302,
      "Ġre": 303,
      "om": 304,
      "us": 305,
      "Ġis": 306,
      "Ġbe": 307,
      "ve": 308,
      "ly": 309,
      "čĊ": 310,
      "Ġthat": 311,
      "ll": 312,
      "Ġl": 313,
      "\"\"": 314,
      "ĠT": 315,
      "Ġit": 316,
      "Ġon": 317,
      "ent": 318,
      "ag": 319,
      "ct": 320,
      "Ġe": 321,
      "Ġwh": 322,
      "Ġg": 323,
      "ĠA": 324,
      "ut": 325,
      "Ġnot": 326,
      "ĠW": 327,
      "ow": 328,
      "id": 329,
      "Ġfor": 330,
      "im": 331,
      "ere": 332,
      "ro": 333,
      "ld": 334,
      "ik": 335,
      "th": 336,
      "Ġha": 337,
      "ce": 338,
      "ver": 339,
      "ĠTh": 340,
      "st": 341,
      "ĠS": 342,
      "Ġas": 343,
      "ay": 344,
      "tic": 345,
      "Ġar": 346,
      "ig": 347,
      "se": 348,
      "ia": 349,
      "ad": 350,
      "ck": 351,
      "Ġcon": 352,
      "am": 353,
      "Ġthis": 354,
      "Ġ(": 355,
      "ith": 356,
      "ch": 357,
      "un": 358,
      "age": 359,
      "ation": 360,
      "ticle": 361,
      "ĠC": 362,
      "if": 363,
      "Ġare": 364,
      "Ġst": 365,
      "Ġarticle": 366,
      "Ġhave": 367,
      "ip": 368,
      "ould": 369,
      "Ġse": 370,
      "Ġ\"\"": 371,
      "out": 372,
      "op": 373,
      "ol": 374,
      "Ġwith": 375,
      "'s": 376,
      "Ġde": 377,
      "ĠP": 378,
      "ist": 379,
      "Ġyour": 380,
      "ĠB": 381,
      "ĠM": 382,
      "ate": 383,
      "Ġdo": 384,
      "ĠH": 385,
      "Ġor": 386,
      "!!": 387,
      "ome": 388,
      "Ġsu": 389,
      "'t": 390,
      "Ġme": 391,
      "Ġus": 392,
      "Ġwas": 393,
      "ir": 394,
      "our": 395,
      "ers": 396,
      "el": 397,
      "and": 398,
      "edia": 399,
      "est": 400,
      "et": 401,
      "ill": 402,
      "il": 403,
      "edit": 404,
      "Ġat": 405,
      "Ġedit": 406,
      "Ġsh": 407,
      "ak": 408,
      "Ġab": 409,
      "..": 410,
      "ĠD": 411,
      "ĠF": 412,
      "ĠY": 413,
      "ur": 414,
      "ain": 415,
      "ikip": 416,
      "oo": 417,
      "rom": 418,
      "Ġpro": 419,
      "pp": 420,
      "ore": 421,
      "ĠN": 422,
      "ri": 423,
      "ikipedia": 424,
      "Ġpage": 425,
      "qu": 426,
      "Ġne": 427,
      "Ġbut": 428,
      "Ġad": 429,
      "Ġk": 430,
      "ul": 431,
      "ab": 432,
      "Ġex": 433,
      "Ġr": 434,
      "ter": 435,
      "alk": 436,
      "Ġun": 437,
      "ment": 438,
      "ust": 439,
      "Ġv": 440,
      "ht": 441,
      "Ġwe": 442,
      "Ġmy": 443,
      "ant": 444,
      "ĠThe": 445,
      "ase": 446,
      "ally": 447,
      "Ġcom": 448,
      "ĠR": 449,
      "Ġcan": 450,
      "let": 451,
      "ink": 452,
      "em": 453,
      "Ġ\"": 454,
      "Ġfrom": 455,
      "Ġsome": 456,
      "Ġby": 457,
      "pe": 458,
      "Ġal": 459,
      "ĠG": 460,
      "Ġcont": 461,
      "ĠWikipedia": 462,
      "Ġso": 463,
      "Ġany": 464,
      "Ġabout": 465,
      "nd": 466,
      "Ġj": 467,
      "Ġch": 468,
      "Ġ2": 469,
      "ie": 470,
      "ther": 471,
      "nt": 472,
      "ss": 473,
      "Ġ1": 474,
      "up": 475,
      "ive": 476,
      "ight": 477,
      "ĠO": 478,
      "Ġhe": 479,
      "lo": 480,
      "ĠL": 481,
      "ĠE": 482,
      "Ġdis": 483,
      "Ġpo": 484,
      "ike": 485,
      "ces": 486,
      "ra": 487,
      "one": 488,
      "Ġif": 489,
      "Ġhas": 490,
      "Ġall": 491,
      "lease": 492,
      "ort": 493,
      "ity": 494,
      "ame": 495,
      "ions": 496,
      "Ġwor": 497,
      "Ġwould": 498,
      "Ġwill": 499,
      "ĠJ": 500,
      "ank": 501,
      "ich": 502,
      "00": 503,
      "ard": 504,
      "Ġthere": 505,
      "um": 506,
      "Ġle": 507,
      "la": 508,
      "Ġlike": 509,
      "ish": 510,
      "now": 511,
      "Ġwhat": 512,
      "Ġim": 513,
      "ry": 514,
      "Ġone": 515,
      "ite": 516,
      "ĠU": 517,
      "ies": 518,
      "Ġadd": 519,
      "ect": 520,
      "âĢ": 521,
      "Ġ-": 522,
      "ous": 523,
      "Ġdelet": 524,
      "ated": 525,
      "ĠIf": 526,
      "der": 527,
      "Ġfa": 528,
      "Ġtalk": 529,
      "iv": 530,
      "Ġknow": 531,
      "Ġno": 532,
      "Ġjust": 533,
      "Ġbeen": 534,
      "use": 535,
      "so": 536,
      "ang": 537,
      "Ġthey": 538,
      "oug": 539,
      "ble": 540,
      "ake": 541,
      "Ġwho": 542,
      "Ġag": 543,
      "Ġqu": 544,
      "Ġshould": 545,
      "ud": 546,
      "Ġup": 547,
      "art": 548,
      "ure": 549,
      "ĠYou": 550,
      "!!!!": 551,
      "ack": 552,
      "Ġdon": 553,
      "ong": 554,
      "ian": 555,
      "Ġother": 556,
      "Ġint": 557,
      "ind": 558,
      "Ġwhich": 559,
      "ue": 560,
      "end": 561,
      "Ġsour": 562,
      "Ġmore": 563,
      "og": 564,
      "ook": 565,
      "ĠIt": 566,
      "ca": 567,
      "very": 568,
      "Ġthink": 569,
      "pl": 570,
      "ree": 571,
      "Ġac": 572,
      "Ġam": 573,
      "ast": 574,
      "cl": 575,
      "all": 576,
      "rit": 577,
      "ial": 578,
      "Ġgo": 579,
      "Ġmo": 580,
      "Ġrem": 581,
      "Ġev": 582,
      "ide": 583,
      "Ġout": 584,
      "for": 585,
      "os": 586,
      "Ġhere": 587,
      "ell": 588,
      "Ġpe": 589,
      "pt": 590,
      "her": 591,
      "Ġhis": 592,
      "fere": 593,
      "cus": 594,
      "ess": 595,
      "Ġsee": 596,
      "ople": 597,
      "able": 598,
      "Ġpre": 599,
      "Ġdid": 600,
      "cause": 601,
      "ction": 602,
      "ire": 603,
      "Ġuse": 604,
      "ine": 605,
      "ime": 606,
      "are": 607,
      "rib": 608,
      "lock": 609,
      "ages": 610,
      "Ġapp": 611,
      "he": 612,
      "Ġen": 613,
      "ound": 614,
      "ĠWh": 615,
      "Ġspe": 616,
      "'m": 617,
      "iz": 618,
      "ood": 619,
      "Ġsay": 620,
      "Ġpeople": 621,
      "...": 622,
      "ough": 623,
      "ary": 624,
      "Ġdoes": 625,
      "Ġbecause": 626,
      "ĠK": 627,
      "sion": 628,
      "form": 629,
      "Ġthem": 630,
      "ory": 631,
      "ber": 632,
      "ign": 633,
      "ĠThank": 634,
      "Ġonly": 635,
      "ap": 636,
      "int": 637,
      "ear": 638,
      "od": 639,
      "uck": 640,
      "ove": 641,
      "lf": 642,
      "ĠâĢ": 643,
      "ject": 644,
      "Ġmay": 645,
      "ious": 646,
      "ors": 647,
      "Ġget": 648,
      "ism": 649,
      "ub": 650,
      "ep": 651,
      "ence": 652,
      "erson": 653,
      "Ġneed": 654,
      "ew": 655,
      "thing": 656,
      "Ġwere": 657,
      "Ġalso": 658,
      "ice": 659,
      "Ġcons": 660,
      "ved": 661,
      "Ġarticles": 662,
      "Ġtr": 663,
      "Ġhow": 664,
      "elp": 665,
      "ge": 666,
      "Ġtime": 667,
      "CK": 668,
      "Ġres": 669,
      "ĠPlease": 670,
      "Ġthen": 671,
      "ĠThis": 672,
      "Ġwant": 673,
      "ci": 674,
      "ose": 675,
      "Ġlink": 676,
      "ced": 677,
      "ff": 678,
      "Ġblock": 679,
      "OU": 680,
      "per": 681,
      "Ġdiscus": 682,
      "Ġwhen": 683,
      "ile": 684,
      "Ġbeing": 685,
      "Ġman": 686,
      ").": 687,
      "iew": 688,
      "Ġtheir": 689,
      "Ġwork": 690,
      "Ġunder": 691,
      "Ġperson": 692,
      "Ġthan": 693,
      "Ġi": 694,
      "ens": 695,
      "self": 696,
      "ĠIn": 697,
      "ans": 698,
      "ount": 699,
      "ER": 700,
      "Ġact": 701,
      "feren": 702,
      "Ġcomp": 703,
      "ations": 704,
      "Ġatt": 705,
      "Ġread": 706,
      "ical": 707,
      "Ġagain": 708,
      "Ġinform": 709,
      "ult": 710,
      "vert": 711,
      "ict": 712,
      "Ġ200": 713,
      "Ġmake": 714,
      "Ġhad": 715,
      "min": 716,
      "Ġlook": 717,
      "Ġimp": 718,
      "Ġcomment": 719,
      "Ġgu": 720,
      "Ġ'": 721,
      "Ġcre": 722,
      "Ġplease": 723,
      "ass": 724,
      "Ġnow": 725,
      "Ġwhy": 726,
      "Ġsub": 727,
      "ick": 728,
      "Ġhelp": 729,
      "Ġrel": 730,
      "ason": 731,
      "Ġrep": 732,
      "ade": 733,
      "'ve": 734,
      "ings": 735,
      "Ġoff": 736,
      "Ġfact": 737,
      "Ġeven": 738,
      "Ġpol": 739,
      "Ġway": 740,
      "Ġchang": 741,
      "ac": 742,
      "Ġper": 743,
      "ph": 744,
      "Ġinformation": 745,
      "Ġcould": 746,
      "act": 747,
      "andal": 748,
      "Ġuser": 749,
      "ĠYOU": 750,
      "ĠCh": 751,
      "Ġvery": 752,
      "ĠSt": 753,
      "Ġbel": 754,
      "Ġpoint": 755,
      "ance": 756,
      "Ġwr": 757,
      "Ġlist": 758,
      "Ġnew": 759,
      "Ġsa": 760,
      "ribut": 761,
      "ser": 762,
      "ex": 763,
      "11": 764,
      "==": 765,
      "les": 766,
      "irst": 767,
      "Ġgood": 768,
      "con": 769,
      "ĠV": 770,
      "ving": 771,
      "Ġsources": 772,
      "fore": 773,
      "Ġquest": 774,
      "Ġsuch": 775,
      "Ġname": 776,
      "Ġacc": 777,
      "ress": 778,
      "Ġpages": 779,
      "uch": 780,
      "'re": 781,
      "ific": 782,
      "ual": 783,
      "ention": 784,
      "Ġmat": 785,
      "Ġdeletion": 786,
      "Ġits": 787,
      "Ġrec": 788,
      "Ġdes": 789,
      "way": 790,
      "ition": 791,
      "Ġover": 792,
      "Ġseem": 793,
      "Ġback": 794,
      "!!!!!!!!": 795,
      "ĠWP": 796,
      "Ġbet": 797,
      "ful": 798,
      "wn": 799,
      "Ġediting": 800,
      "ates": 801,
      "''": 802,
      "other": 803,
      "Ġfind": 804,
      "Ġreason": 805,
      "ach": 806,
      "reat": 807,
      "clud": 808,
      "ail": 809,
      "Ġpla": 810,
      "Ġsource": 811,
      "Ġvandal": 812,
      "ince": 813,
      "Ġremo": 814,
      "lish": 815,
      "Ġedits": 816,
      "Ġsection": 817,
      "itt": 818,
      "Ġ19": 819,
      "Ġind": 820,
      "Ġgr": 821,
      "Ġmade": 822,
      "Ġwell": 823,
      "AT": 824,
      "Ġthese": 825,
      "Ġhim": 826,
      "ng": 827,
      "UCK": 828,
      "Ġreferen": 829,
      "Ġwar": 830,
      "IN": 831,
      "Ġask": 832,
      "Ġused": 833,
      "ĠThanks": 834,
      "ually": 835,
      "Ġfo": 836,
      "UR": 837,
      "Ġrevert": 838,
      "ĠRe": 839,
      "ĠAnd": 840,
      "Ġpl": 841,
      "Ġtoo": 842,
      "Ġpar": 843,
      "iki": 844,
      "Ġmuch": 845,
      "ple": 846,
      "Ġcontribut": 847,
      "ĠHow": 848,
      "Ġfirst": 849,
      "Ġpr": 850,
      "ĠAl": 851,
      "AN": 852,
      "Ġob": 853,
      "Ġass": 854,
      "Ġdeleted": 855,
      "Ġpart": 856,
      "Ġsp": 857,
      "come": 858,
      "Ġright": 859,
      "Ġwhere": 860,
      "UT": 861,
      "Ġtw": 862,
      "Ġco": 863,
      "Ġcle": 864,
      "ise": 865,
      "Ġfuck": 866,
      "erm": 867,
      "oc": 868,
      "ord": 869,
      "RE": 870,
      "fter": 871,
      "ote": 872,
      "Ġdif": 873,
      "Ġmost": 874,
      "Ġfe": 875,
      "Ġadmin": 876,
      "cept": 877,
      "Ġinto": 878,
      "Ġtry": 879,
      "Ġcop": 880,
      "Ġdiscussion": 881,
      "cy": 882,
      "Ġcomm": 883,
      "Ġreally": 884,
      "Ġtag": 885,
      "),": 886,
      "du": 887,
      "Ġsame": 888,
      "ever": 889,
      "ĠHe": 890,
      "Ġevery": 891,
      "Ġcl": 892,
      "Ġ3": 893,
      "Ġown": 894,
      "Ġsupp": 895,
      "Th": 896,
      "ied": 897,
      "ating": 898,
      "Ġmany": 899,
      "oth": 900,
      "nn": 901,
      "ered": 902,
      "Ġrequ": 903,
      "arch": 904,
      "ave": 905,
      "Ġinclud": 906,
      "own": 907,
      "Ġver": 908,
      "Ġ<": 909,
      "ib": 910,
      "Ġsim": 911,
      "Ġref": 912,
      "ĠAs": 913,
      "cess": 914,
      "Ġ|": 915,
      "Ġhist": 916,
      "Ġword": 917,
      "Ġreg": 918,
      "ug": 919,
      "av": 920,
      "Ġpost": 921,
      "Ġop": 922,
      "Ġcall": 923,
      "Ġexpl": 924,
      "URL": 925,
      "Ġconsid": 926,
      "Ġthose": 927,
      "ĠSo": 928,
      "\"\".": 929,
      "ting": 930,
      "ĠThere": 931,
      "Ġbefore": 932,
      "read": 933,
      "aking": 934,
      "ost": 935,
      "ox": 936,
      "wh": 937,
      "ĠAr": 938,
      "ĠTH": 939,
      "Ġ20": 940,
      "Ġiss": 941,
      "laim": 942,
      "'ll": 943,
      "arly": 944,
      "Ġcopy": 945,
      "Ġgen": 946,
      "ope": 947,
      "orre": 948,
      "right": 949,
      "Ġke": 950,
      "ark": 951,
      "Ġent": 952,
      "Ġcontent": 953,
      "olog": 954,
      "Ġbelie": 955,
      "tern": 956,
      "ob": 957,
      "ext": 958,
      "ility": 959,
      "Ġdef": 960,
      "Ġstate": 961,
      "Ġsomeone": 962,
      "Ġpolic": 963,
      "Ġspec": 964,
      ".\"\"": 965,
      "ning": 966,
      "ten": 967,
      "blem": 968,
      "Ġyear": 969,
      "ah": 970,
      "Ġtwo": 971,
      "Ġprov": 972,
      "mer": 973,
      "ru": 974,
      "Ġafter": 975,
      "raph": 976,
      "less": 977,
      "view": 978,
      "ee": 979,
      "Ġstill": 980,
      "gest": 981,
      "Ġclaim": 982,
      "Ġput": 983,
      "Ġsaid": 984,
      "vers": 985,
      "Ġcrit": 986,
      "Ġsomething": 987,
      "ON": 988,
      "erest": 989,
      "pect": 990,
      "IT": 991,
      "rop": 992,
      "Ġblocked": 993,
      "Ġproblem": 994,
      "ased": 995,
      "stand": 996,
      "ĠAn": 997,
      "ne": 998,
      "ons": 999,
      "ĠIs": 1000,
      "ible": 1001,
      "Ġwrit": 1002,
      "talk": 1003,
      "Ġgoing": 1004,
      "uth": 1005,
      "Ġinv": 1006,
      "ĠBut": 1007,
      "ĠThat": 1008,
      "inal": 1009,
      "Ġher": 1010,
      "Ġimage": 1011,
      "Ġsince": 1012,
      "lic": 1013,
      "Ġph": 1014,
      "ments": 1015,
      "rat": 1016,
      "Ġmention": 1017,
      "iable": 1018,
      "The": 1019,
      "Ġshow": 1020,
      "Ġwithout": 1021,
      "orrect": 1022,
      "UTC": 1023,
      "Ġtop": 1024,
      "ense": 1025,
      "Ġsubject": 1026,
      "ines": 1027,
      "ĠTalk": 1028,
      "LL": 1029,
      "elcome": 1030,
      "Ġcontin": 1031,
      "Ġweb": 1032,
      "Ġour": 1033,
      "Ġmean": 1034,
      "Ġser": 1035,
      "tain": 1036,
      "ought": 1037,
      "Ġinterest": 1038,
      "hing": 1039,
      "Ġyourself": 1040,
      "Ġmight": 1041,
      "Ġtake": 1042,
      "Ġplace": 1043,
      "Ġsure": 1044,
      "ited": 1045,
      "Ġeditors": 1046,
      "Ġadded": 1047,
      "Ġconf": 1048,
      "red": 1049,
      "ily": 1050,
      "Ġche": 1051,
      "Ġlong": 1052,
      "llow": 1053,
      "Ġcur": 1054,
      "Ġview": 1055,
      "Ġremoved": 1056,
      "Ġinf": 1057,
      "OT": 1058,
      "ys": 1059,
      "ĠWhat": 1060,
      "com": 1061,
      "ather": 1062,
      "Ġstop": 1063,
      "ild": 1064,
      "Ġdoesn": 1065,
      "Ġdec": 1066,
      "Ġquestion": 1067,
      "vious": 1068,
      "ft": 1069,
      "ident": 1070,
      "Ġsug": 1071,
      "ative": 1072,
      "irect": 1073,
      "Ġstart": 1074,
      "Ġcase": 1075,
      "Ġday": 1076,
      "Ġel": 1077,
      "Ġsuggest": 1078,
      "Ġunderstand": 1079,
      "sent": 1080,
      "ards": 1081,
      "ably": 1082,
      "Ġpub": 1083,
      "Ġte": 1084,
      "ĠUn": 1085,
      "be": 1086,
      "ven": 1087,
      "Ġlet": 1088,
      "Ġreal": 1089,
      "Ġsign": 1090,
      "ize": 1091,
      "Ġmis": 1092,
      "we": 1093,
      "OV": 1094,
      "Ġmess": 1095,
      "Ġpersonal": 1096,
      "Ġattack": 1097,
      "Ġfollow": 1098,
      "gr": 1099,
      "Ġbetter": 1100,
      "Ġdone": 1101,
      "Ġkeep": 1102,
      "Ġfeel": 1103,
      "Ġinst": 1104,
      "Ġbelieve": 1105,
      "Ġnever": 1106,
      "Ġbr": 1107,
      "ral": 1108,
      "Ġanother": 1109,
      "ics": 1110,
      "rent": 1111,
      "ES": 1112,
      "Ġseems": 1113,
      "ath": 1114,
      "ĠâĢ¢": 1115,
      "ont": 1116,
      "??": 1117,
      "Ġwikipedia": 1118,
      "oy": 1119,
      "ale": 1120,
      "Ġorig": 1121,
      "Ġhistory": 1122,
      "ty": 1123,
      "Ġthings": 1124,
      "led": 1125,
      "Ġlinks": 1126,
      "ational": 1127,
      "ned": 1128,
      "Ġhapp": 1129,
      "not": 1130,
      "Ġanything": 1131,
      "ĠDo": 1132,
      "\"\",": 1133,
      "mm": 1134,
      "Ġhope": 1135,
      "ĠWe": 1136,
      "igh": 1137,
      "Ġusing": 1138,
      "Ġ.": 1139,
      "Ġcopyright": 1140,
      "Ġcheck": 1141,
      "ond": 1142,
      "ute": 1143,
      "Ġrequest": 1144,
      "Ġgiv": 1145,
      "Ġspeed": 1146,
      "Ġdesc": 1147,
      "Ġbi": 1148,
      "Ġcomments": 1149,
      "Ġboth": 1150,
      "Ġfree": 1151,
      "the": 1152,
      "Ġnum": 1153,
      "Ġsupport": 1154,
      "Ġdiscuss": 1155,
      "aw": 1156,
      "ists": 1157,
      "clop": 1158,
      "Ġopin": 1159,
      "__": 1160,
      "Ġbook": 1161,
      "ix": 1162,
      "ready": 1163,
      "Ġthing": 1164,
      "Ġdidn": 1165,
      "ither": 1166,
      "'d": 1167,
      "gu": 1168,
      "Ġagree": 1169,
      "Ġthr": 1170,
      "lect": 1171,
      "Ġru": 1172,
      "Ġbit": 1173,
      "anks": 1174,
      "akes": 1175,
      "Ġexam": 1176,
      "Ġgener": 1177,
      "cyclop": 1178,
      "Ġpolicy": 1179,
      "Ġagainst": 1180,
      "az": 1181,
      "ically": 1182,
      "Ġalready": 1183,
      "vel": 1184,
      "ĠFor": 1185,
      "Ġeditor": 1186,
      "Ġwrong": 1187,
      "Ġform": 1188,
      "10": 1189,
      "Ġcount": 1190,
      "Ġterm": 1191,
      "ittle": 1192,
      "Ġfound": 1193,
      "cer": 1194,
      "sh": 1195,
      "imes": 1196,
      "Ġcurrent": 1197,
      "Ġexplain": 1198,
      "Ġresp": 1199,
      "ferent": 1200,
      "ĠYour": 1201,
      "Ġactually": 1202,
      "ĠAN": 1203,
      "Ġvandalism": 1204,
      "Ġ[": 1205,
      "ians": 1206,
      "Ġtext": 1207,
      "Ġremove": 1208,
      "Ġcorrect": 1209,
      "thers": 1210,
      "ĠâĢĶ": 1211,
      "Ġnote": 1212,
      "Ġchange": 1213,
      "Ġem": 1214,
      "err": 1215,
      "~~": 1216,
      "Ġ5": 1217,
      "ĠEng": 1218,
      "ames": 1219,
      "Ġelse": 1220,
      "ves": 1221,
      "ING": 1222,
      "Ġfew": 1223,
      "ace": 1224,
      "ull": 1225,
      "Ġdifferent": 1226,
      "IS": 1227,
      "lev": 1228,
      "Ġwelcome": 1229,
      "old": 1230,
      "Ġbl": 1231,
      "yle": 1232,
      "Ġ4": 1233,
      "oup": 1234,
      "Ġabove": 1235,
      "FF": 1236,
      "Ġothers": 1237,
      "Ġsc": 1238,
      "Ġtem": 1239,
      "ature": 1240,
      "Ġnothing": 1241,
      "ife": 1242,
      "aj": 1243,
      "Ġcit": 1244,
      "::": 1245,
      "Ġtrying": 1246,
      "Ġmain": 1247,
      "ged": 1248,
      "orry": 1249,
      "Ġreview": 1250,
      "Ġexper": 1251,
      "Ġprop": 1252,
      "Ġaccount": 1253,
      "Ġlittle": 1254,
      "ĠDe": 1255,
      "Ġ,": 1256,
      "Ġissue": 1257,
      "land": 1258,
      "Ġwon": 1259,
      "ify": 1260,
      "ensus": 1261,
      "Ġgreat": 1262,
      "Ġshe": 1263,
      "Ġsy": 1264,
      "Ġro": 1265,
      "Ġmust": 1266,
      "Ġcare": 1267,
      "Ġappear": 1268,
      "Ġimport": 1269,
      "ody": 1270,
      "cond": 1271,
      "Ġexp": 1272,
      "Ġ7": 1273,
      "Ġpartic": 1274,
      "Ġgot": 1275,
      "Ġyears": 1276,
      "Ġtell": 1277,
      "lete": 1278,
      "19": 1279,
      "ĠSh": 1280,
      "Ġthough": 1281,
      "ues": 1282,
      "Ġquestions": 1283,
      "!!!!!!!!!!!!!!!!": 1284,
      "Ġide": 1285,
      "meric": 1286,
      "Ġstr": 1287,
      "ateg": 1288,
      "Ġguid": 1289,
      "Ġconsider": 1290,
      "Ġinc": 1291,
      "Ġwhile": 1292,
      "ular": 1293,
      "Ġfair": 1294,
      "ID": 1295,
      "angu": 1296,
      "Ġencyclop": 1297,
      "Ġsent": 1298,
      "uy": 1299,
      "ĠNo": 1300,
      "Ġsm": 1301,
      "Ġlast": 1302,
      "Ġposs": 1303,
      "ĠAlso": 1304,
      "any": 1305,
      "aps": 1306,
      "ĠIP": 1307,
      "ĠTHE": 1308,
      "erial": 1309,
      "pr": 1310,
      "Ġcontinue": 1311,
      "Ġrather": 1312,
      "Ġthought": 1313,
      "Ġgive": 1314,
      "ead": 1315,
      "Ġet": 1316,
      "Ġprob": 1317,
      "Ġmaking": 1318,
      "ertain": 1319,
      "Ġanyone": 1320,
      "Ġthrough": 1321,
      "ograph": 1322,
      "Ġstand": 1323,
      "ĠFUCK": 1324,
      "Ġlot": 1325,
      "ke": 1326,
      "12": 1327,
      "Ġsch": 1328,
      "ĠBe": 1329,
      "ply": 1330,
      "osed": 1331,
      "Ġreference": 1332,
      "Ġwebs": 1333,
      "ĠCom": 1334,
      "Ġend": 1335,
      "Ġargu": 1336,
      "ED": 1337,
      "Ġsays": 1338,
      "idence": 1339,
      "Ġfar": 1340,
      "Ġreliable": 1341,
      "Ġinter": 1342,
      "ution": 1343,
      "ars": 1344,
      "ool": 1345,
      "Ġdoing": 1346,
      "OR": 1347,
      "Ġaccept": 1348,
      "ater": 1349,
      "ropri": 1350,
      "Ġvi": 1351,
      "Ġaddress": 1352,
      "Ġnon": 1353,
      "Ġmaterial": 1354,
      "Ġspeedy": 1355,
      "urther": 1356,
      "Ġguidel": 1357,
      "Ġbest": 1358,
      "Ġcour": 1359,
      "Ġ6": 1360,
      "You": 1361,
      "Ġins": 1362,
      "Ġsite": 1363,
      "Ġcome": 1364,
      "ately": 1365,
      "upp": 1366,
      "ello": 1367,
      "its": 1368,
      "OL": 1369,
      "Ġreport": 1370,
      "gan": 1371,
      "ĠMy": 1372,
      "Ġ)": 1373,
      "ĠUser": 1374,
      "Ġ==": 1375,
      "Ġleast": 1376,
      "Ġdown": 1377,
      "ĠHi": 1378,
      "Ġworld": 1379,
      "ified": 1380,
      "Ġgroup": 1381,
      "Ġreferences": 1382,
      "app": 1383,
      "load": 1384,
      "Ġcreated": 1385,
      "Ġleave": 1386,
      "man": 1387,
      "Ġisn": 1388,
      "arn": 1389,
      "Ġplay": 1390,
      "....": 1391,
      "Ġtit": 1392,
      "ways": 1393,
      "Ġlangu": 1394,
      "ĠAmeric": 1395,
      "ently": 1396,
      "ents": 1397,
      "ĠWhy": 1398,
      "ĠEnglish": 1399,
      "Ġsimply": 1400,
      "Ġdefin": 1401,
      "Wh": 1402,
      "ĠSe": 1403,
      "Ġcriter": 1404,
      "Ġopinion": 1405,
      "Ġ8": 1406,
      "Ġaround": 1407,
      "Ġprobably": 1408,
      "ĠHowever": 1409,
      "Ġca": 1410,
      "ween": 1411,
      "ĠWiki": 1412,
      "ĠCan": 1413,
      "Ġetc": 1414,
      "Ġenough": 1415,
      "Ġoriginal": 1416,
      "Ġexample": 1417,
      "mage": 1418,
      "Ġcertain": 1419,
      "Ġadding": 1420,
      "Ġ0": 1421,
      "ided": 1422,
      "Ġauth": 1423,
      "ropriate": 1424,
      "Ġusers": 1425,
      "got": 1426,
      "Ġbeh": 1427,
      "Ġexist": 1428,
      "Ġrese": 1429,
      "ret": 1430,
      "=\"\"": 1431,
      "me": 1432,
      "Ġmon": 1433,
      "omin": 1434,
      "Ġconsensus": 1435,
      "AL": 1436,
      "Ġdelete": 1437,
      "âĢĻ": 1438,
      "rip": 1439,
      "Ġmatter": 1440,
      "Ġreverted": 1441,
      "Ġtempl": 1442,
      "Ġeither": 1443,
      "Ġbetween": 1444,
      "ĠAd": 1445,
      "oh": 1446,
      "ĠUS": 1447,
      "20": 1448,
      "Ġ9": 1449,
      "Ġimpro": 1450,
      "als": 1451,
      "ier": 1452,
      "cc": 1453,
      "Ġwrite": 1454,
      "ĠNew": 1455,
      "Ġprodu": 1456,
      "Ġrest": 1457,
      "sw": 1458,
      "EN": 1459,
      "Ġav": 1460,
      "Ġcontributions": 1461,
      "Ġimportant": 1462,
      "Ġunt": 1463,
      "Ġchar": 1464,
      "ren": 1465,
      "Ġlog": 1466,
      "istrat": 1467,
      "ger": 1468,
      "Ġmin": 1469,
      "Ġpos": 1470,
      "levant": 1471,
      "icture": 1472,
      "Ġban": 1473,
      "Ġregard": 1474,
      "Ġty": 1475,
      "Ġcol": 1476,
      "Ġdisp": 1477,
      "14": 1478,
      "ether": 1479,
      "Ġeff": 1480,
      "Ġclear": 1481,
      "Ġneeds": 1482,
      "Ġtrans": 1483,
      "ability": 1484,
      "Ġcalled": 1485,
      "Ġlife": 1486,
      "ek": 1487,
      "Ġresearch": 1488,
      "ology": 1489,
      "Ġnotable": 1490,
      "Ġprom": 1491,
      "Ġkind": 1492,
      "Ġviol": 1493,
      "Ġext": 1494,
      "Ġcommun": 1495,
      "ized": 1496,
      "day": 1497,
      "ef": 1498,
      "nnnn": 1499,
      "Ġdirect": 1500,
      "ĠThey": 1501,
      "Ġevidence": 1502,
      "haps": 1503,
      "Ġold": 1504,
      "uyuy": 1505,
      "Ġval": 1506,
      "ruct": 1507,
      "Ġspecific": 1508,
      "amp": 1509,
      "atch": 1510,
      "Ġred": 1511,
      "Ġbad": 1512,
      "Ġmem": 1513,
      "io": 1514,
      "Ġmessage": 1515,
      "Ġimages": 1516,
      "Ġconcer": 1517,
      "Ġinvol": 1518,
      "Ġnor": 1519,
      "ower": 1520,
      "//": 1521,
      "Ġsit": 1522,
      "ĠDI": 1523,
      "Ġsumm": 1524,
      "ts": 1525,
      "ĠSH": 1526,
      "Ġnotice": 1527,
      "Ġsecond": 1528,
      "Ġever": 1529,
      "ised": 1530,
      "ĠOn": 1531,
      "Ġlead": 1532,
      "Ġwebsite": 1533,
      "Ġconst": 1534,
      "Ġupload": 1535,
      "of": 1536,
      "Ġaw": 1537,
      "Ġallow": 1538,
      "Ġclearly": 1539,
      "orn": 1540,
      "Ġfun": 1541,
      "Ġhigh": 1542,
      "ĠFA": 1543,
      "ract": 1544,
      "Ġmove": 1545,
      "ision": 1546,
      "Ġ{": 1547,
      "Ġconsidered": 1548,
      "13": 1549,
      "Ġsaying": 1550,
      "rist": 1551,
      "Ġgiven": 1552,
      "ĠOr": 1553,
      "Ġwritten": 1554,
      "Ġquite": 1555,
      "Ġadv": 1556,
      "tion": 1557,
      "Ġnumber": 1558,
      "Ġencyclopedia": 1559,
      "ember": 1560,
      "ĠTo": 1561,
      "Ġcontro": 1562,
      "Ġfl": 1563,
      "ĠIS": 1564,
      "Ġcriteria": 1565,
      "Ġhaving": 1566,
      "Ġalways": 1567,
      "sp": 1568,
      "Ġpicture": 1569,
      "riend": 1570,
      "Re": 1571,
      "Ġdet": 1572,
      "Ġleg": 1573,
      "Ġcomplete": 1574,
      "Ġwiki": 1575,
      "ese": 1576,
      "Ġguidelines": 1577,
      "bers": 1578,
      "uff": 1579,
      "Ġversion": 1580,
      "Ġobvious": 1581,
      "te": 1582,
      "ities": 1583,
      "ĠPro": 1584,
      "utral": 1585,
      "Ġlanguage": 1586,
      "air": 1587,
      "Ġtrue": 1588,
      "lished": 1589,
      "Ġmor": 1590,
      "Ġyet": 1591,
      "empt": 1592,
      "box": 1593,
      "ĠNot": 1594,
      "ĠJust": 1595,
      "Ġpresent": 1596,
      "otect": 1597,
      "Ġpublic": 1598,
      "1111": 1599,
      "ĠInd": 1600,
      "hip": 1601,
      "ĠPOV": 1602,
      "Ġtri": 1603,
      "ash": 1604,
      "ork": 1605,
      "Ġret": 1606,
      "Ġwhether": 1607,
      "ric": 1608,
      "Ġbig": 1609,
      "Ġfam": 1610,
      "Ġsex": 1611,
      "Ġstud": 1612,
      "GG": 1613,
      "Ġhand": 1614,
      "veral": 1615,
      "ĠHello": 1616,
      "Ġclo": 1617,
      "att": 1618,
      "Ġchanges": 1619,
      "Ġinstead": 1620,
      ".\"": 1621,
      "Ġmakes": 1622,
      "ajor": 1623,
      "Ġansw": 1624,
      "Ġseveral": 1625,
      "15": 1626,
      "ĠAny": 1627,
      "Ġhard": 1628,
      "ock": 1629,
      "Ġwish": 1630,
      "cial": 1631,
      "Ġfurther": 1632,
      "line": 1633,
      "Ġpolit": 1634,
      "Ġcannot": 1635,
      "ony": 1636,
      "Ġmeans": 1637,
      "cient": 1638,
      "oun": 1639,
      "ets": 1640,
      "Ġuntil": 1641,
      "Ġfag": 1642,
      "ĠAll": 1643,
      "Ġauthor": 1644,
      "ĠQ": 1645,
      "Ġdist": 1646,
      "Ġless": 1647,
      "Ġwords": 1648,
      "Ġsing": 1649,
      "Ġrules": 1650,
      "Ġleft": 1651,
      "Ġsur": 1652,
      "Ġlisted": 1653,
      "Ġidea": 1654,
      "Ġ&": 1655,
      "ĠMay": 1656,
      "Ġmedia": 1657,
      "Ġfollowing": 1658,
      "Ġhappen": 1659,
      "Ġadministrat": 1660,
      "body": 1661,
      "Ġpop": 1662,
      "Ġtest": 1663,
      "ole": 1664,
      "Ġfr": 1665,
      "Ġbas": 1666,
      "uring": 1667,
      "Ġbased": 1668,
      "Ġoffic": 1669,
      "Ġtitle": 1670,
      "Ġmentioned": 1671,
      "reci": 1672,
      "ns": 1673,
      "usion": 1674,
      "aken": 1675,
      "Ġmind": 1676,
      "iss": 1677,
      "000": 1678,
      "Ġwhole": 1679,
      "Ġproper": 1680,
      "Ġweek": 1681,
      "Ġentire": 1682,
      "ann": 1683,
      "Ġopp": 1684,
      "Ġpossible": 1685,
      "Ġthanks": 1686,
      "Ġfil": 1687,
      "Ġresult": 1688,
      "Ġeach": 1689,
      "18": 1690,
      "Ġeas": 1691,
      "though": 1692,
      "Ġcourse": 1693,
      "RA": 1694,
      "stem": 1695,
      "Ġthree": 1696,
      "Ġappreci": 1697,
      "Ġdescrib": 1698,
      "Ġcr": 1699,
      "Ġ18": 1700,
      "Ġstat": 1701,
      "Ġstatement": 1702,
      "ĠMar": 1703,
      "ategory": 1704,
      "Ġign": 1705,
      "Ġattempt": 1706,
      "Ġlar": 1707,
      "ĠFe": 1708,
      "Ġseen": 1709,
      "Ġproject": 1710,
      "Ġtemplate": 1711,
      "Ġdetail": 1712,
      "Ġfacts": 1713,
      "Ġmajor": 1714,
      "uss": 1715,
      "OM": 1716,
      "ribs": 1717,
      "Ġ10": 1718,
      "Ġtimes": 1719,
      "Ġsense": 1720,
      "}}": 1721,
      "IC": 1722,
      "Ġuns": 1723,
      "ness": 1724,
      "Ġdisc": 1725,
      "ĠSp": 1726,
      "Ġissues": 1727,
      "ĠZ": 1728,
      "cially": 1729,
      "Ġinclude": 1730,
      "AH": 1731,
      "ives": 1732,
      "Ġfaggot": 1733,
      "Ġrequire": 1734,
      "arent": 1735,
      "rup": 1736,
      "head": 1737,
      "Ġtopic": 1738,
      "Ġfriend": 1739,
      "AS": 1740,
      "ĠGo": 1741,
      "ĠNOT": 1742,
      "name": 1743,
      "Ġdate": 1744,
      "Ġobject": 1745,
      "Ġap": 1746,
      "uc": 1747,
      "Ġes": 1748,
      "Ġonce": 1749,
      "med": 1750,
      "Ġaut": 1751,
      "Ġpret": 1752,
      "ins": 1753,
      "istic": 1754,
      "ĠOF": 1755,
      "ording": 1756,
      "where": 1757,
      "Ġindic": 1758,
      "Ġmer": 1759,
      "Ġhar": 1760,
      "Ġhead": 1761,
      "Ġgeneral": 1762,
      "ina": 1763,
      "ides": 1764,
      "block": 1765,
      "16": 1766,
      "vern": 1767,
      "xt": 1768,
      "ĠSome": 1769,
      "Ġsock": 1770,
      "!!!": 1771,
      "bo": 1772,
      "22": 1773,
      "Ġpast": 1774,
      "Ġappropriate": 1775,
      "uation": 1776,
      "Ġprovide": 1777,
      "error": 1778,
      "Ġvar": 1779,
      "17": 1780,
      "ivers": 1781,
      "ler": 1782,
      "olution": 1783,
      "Ġknown": 1784,
      "Ġexact": 1785,
      "Ġstyle": 1786,
      "dit": 1787,
      "Ġfour": 1788,
      "Ġmyself": 1789,
      "Ġâ": 1790,
      ".)": 1791,
      "cing": 1792,
      "ional": 1793,
      "ush": 1794,
      "Ġloc": 1795,
      "go": 1796,
      "Ġsentence": 1797,
      "Ġorgan": 1798,
      "Ġpur": 1799,
      "Ġchanged": 1800,
      "Ġdays": 1801,
      "Ġset": 1802,
      "AR": 1803,
      "ring": 1804,
      "Ġcommon": 1805,
      "It": 1806,
      "ĠLe": 1807,
      "CT": 1808,
      "Ġsl": 1809,
      "Ġincluded": 1810,
      "Ġdisag": 1811,
      "Ġ...": 1812,
      "Ġassum": 1813,
      "pg": 1814,
      "col": 1815,
      "ories": 1816,
      "Ġfix": 1817,
      "ground": 1818,
      "Ġshort": 1819,
      "ude": 1820,
      "ries": 1821,
      "Ġcharact": 1822,
      "Ġshit": 1823,
      "Ġphot": 1824,
      "Ġdem": 1825,
      "Ġcreate": 1826,
      "ner": 1827,
      "ĠAg": 1828,
      "ĠSUCK": 1829,
      "EL": 1830,
      "Ġrelevant": 1831,
      "ok": 1832,
      "ledge": 1833,
      "Ġ2005": 1834,
      "Ġinfo": 1835,
      "ĠAf": 1836,
      "my": 1837,
      "Ġdou": 1838,
      "Ġlaw": 1839,
      "ĠSee": 1840,
      "Ġgetting": 1841,
      "____": 1842,
      "Ġstay": 1843,
      "outh": 1844,
      "ikiped": 1845,
      "ared": 1846,
      "ax": 1847,
      "uro": 1848,
      "ĠChe": 1849,
      "ĠMan": 1850,
      "Ġprocess": 1851,
      "Ġneutral": 1852,
      "Ġnomin": 1853,
      "ĠGerm": 1854,
      "Ġsystem": 1855,
      "Ġopen": 1856,
      "ĠChrist": 1857,
      "ising": 1858,
      "agraph": 1859,
      "Ġsorry": 1860,
      "ward": 1861,
      "Ġstarted": 1862,
      "Ġu": 1863,
      "jpg": 1864,
      "resent": 1865,
      "Ġanswer": 1866,
      "ran": 1867,
      "pecially": 1868,
      "ĠAt": 1869,
      "Ġaccus": 1870,
      "ior": 1871,
      "Ġserious": 1872,
      "ization": 1873,
      "rodu": 1874,
      "OCK": 1875,
      "Ġcent": 1876,
      "ĠBrit": 1877,
      "par": 1878,
      "Ġaway": 1879,
      "ĠHere": 1880,
      "ĠTO": 1881,
      "ird": 1882,
      "ilar": 1883,
      "EW": 1884,
      "ĠAmerican": 1885,
      "Ġline": 1886,
      "by": 1887,
      "Ġnotic": 1888,
      "This": 1889,
      "Ġrespect": 1890,
      "Ġhistor": 1891,
      "reed": 1892,
      "ived": 1893,
      "Ġeng": 1894,
      "oid": 1895,
      "res": 1896,
      "ored": 1897,
      "ĠReg": 1898,
      "Ġparagraph": 1899,
      "Ġmonth": 1900,
      "Ġfal": 1901,
      "Ġschool": 1902,
      "ĠImage": 1903,
      "ĠCon": 1904,
      "Ġsummary": 1905,
      "Ġpri": 1906,
      "ĠIN": 1907,
      "Ġhum": 1908,
      "Ġnames": 1909,
      "ross": 1910,
      "Ġimprove": 1911,
      "cu": 1912,
      "ator": 1913,
      "US": 1914,
      "Ġwrote": 1915,
      "ĠSHIT": 1916,
      "ov": 1917,
      "Ġcompl": 1918,
      "ĠNow": 1919,
      "Ġincluding": 1920,
      "ton": 1921,
      "Ġremoving": 1922,
      "Ġclaims": 1923,
      "most": 1924,
      "Ġinterested": 1925,
      "arl": 1926,
      "ĠWI": 1927,
      "Ġposition": 1928,
      "Ġhowever": 1929,
      "ended": 1930,
      "ester": 1931,
      "Ġtaken": 1932,
      "Talk": 1933,
      "ms": 1934,
      "Ġitself": 1935,
      "eed": 1936,
      "Ġir": 1937,
      "Ġhi": 1938,
      "gle": 1939,
      "Ġorder": 1940,
      "ĠComm": 1941,
      "upid": 1942,
      "uppet": 1943,
      "Ġfull": 1944,
      "Ġprevious": 1945,
      "Ġpat": 1946,
      "Ġable": 1947,
      "Ġprotect": 1948,
      "ange": 1949,
      "ĠWhen": 1950,
      "Ġqual": 1951,
      "Ġsort": 1952,
      "Ġlove": 1953,
      "Ġattacks": 1954,
      "ey": 1955,
      "ti": 1956,
      "Ġappears": 1957,
      "Ġdeal": 1958,
      "fer": 1959,
      "ield": 1960,
      "Ġrelated": 1961,
      "sert": 1962,
      "Ġrun": 1963,
      "âĢĿ": 1964,
      "ĠLOL": 1965,
      "Ġ=": 1966,
      "ference": 1967,
      "iber": 1968,
      "ĠPer": 1969,
      "Ġrecent": 1970,
      "Pro": 1971,
      "Ġmus": 1972,
      "fully": 1973,
      "Ġcurrently": 1974,
      "Ġmist": 1975,
      "Ġfaith": 1976,
      "ĠAND": 1977,
      "to": 1978,
      "Ġband": 1979,
      "Ġlater": 1980,
      "Ġstuff": 1981,
      "Ġpass": 1982,
      "sel": 1983,
      "urn": 1984,
      "lling": 1985,
      "OO": 1986,
      "ĠJew": 1987,
      "lack": 1988,
      "ging": 1989,
      "Ġwriting": 1990,
      "Ġwithin": 1991,
      "Ġmoron": 1992,
      "Ġocc": 1993,
      "Ġnext": 1994,
      "gin": 1995,
      "Ġbehav": 1996,
      "inc": 1997,
      "ĠâĢľ": 1998,
      "Ġlooking": 1999,
      "Ar": 2000,
      "Ġtra": 2001,
      "amm": 2002,
      "Ġsearch": 2003,
      "Ġdisagree": 2004,
      "Ġinvolved": 2005,
      "de": 2006,
      "Ġwanted": 2007,
      "''''": 2008,
      "ks": 2009,
      "Ġregarding": 2010,
      "ron": 2011,
      "iment": 2012,
      "ĠNor": 2013,
      "Ġcritic": 2014,
      "iving": 2015,
      "Ġquot": 2016,
      "ATE": 2017,
      "andbox": 2018,
      "velop": 2019,
      "Ġjo": 2020,
      "ivil": 2021,
      "Ġdont": 2022,
      "Ġcommunity": 2023,
      "Ġaddition": 2024,
      "ĠâĢĵ": 2025,
      "AM": 2026,
      "und": 2027,
      "24": 2028,
      "In": 2029,
      "Ġwarning": 2030,
      "Ġ{{": 2031,
      "ait": 2032,
      "chn": 2033,
      "Ġsingle": 2034,
      "oss": 2035,
      "onse": 2036,
      "leg": 2037,
      "uture": 2038,
      "ode": 2039,
      "amb": 2040,
      "Ġrefer": 2041,
      "used": 2042,
      "Ġwatch": 2043,
      "Ġstupid": 2044,
      "Ġfail": 2045,
      "wise": 2046,
      "Ġmed": 2047,
      "ification": 2048,
      "OS": 2049,
      "Ġdeb": 2050,
      "ases": 2051,
      "Ġnotability": 2052,
      "Ġcountry": 2053,
      "ĠDIE": 2054,
      "Ġest": 2055,
      "Ġself": 2056,
      "Ġabs": 2057,
      "oman": 2058,
      "ration": 2059,
      "Ġcame": 2060,
      "Ġmaybe": 2061,
      "POV": 2062,
      "lict": 2063,
      "Ġpolicies": 2064,
      "Ġcompletely": 2065,
      "DI": 2066,
      "ott": 2067,
      "23": 2068,
      "Ġintern": 2069,
      "Ġeveryone": 2070,
      "Ġsimilar": 2071,
      "Ġfile": 2072,
      "Ġcertainly": 2073,
      "Ġpretty": 2074,
      "Ġfalse": 2075,
      "ulation": 2076,
      "ury": 2077,
      "Please": 2078,
      "mber": 2079,
      "Ġofficial": 2080,
      "Ġdescrip": 2081,
      "Ġargument": 2082,
      "Ġexplan": 2083,
      "UN": 2084,
      "page": 2085,
      "atever": 2086,
      "Ġguess": 2087,
      "idd": 2088,
      "Ġclass": 2089,
      "Ġnice": 2090,
      "Ġprof": 2091,
      "vernment": 2092,
      "Ġcult": 2093,
      "ially": 2094,
      "Ġago": 2095,
      "Ch": 2096,
      "ĠFAT": 2097,
      "Ġstates": 2098,
      "Ġrelig": 2099,
      "Ġmiss": 2100,
      "Ġwasn": 2101,
      "Ġentry": 2102,
      "Ġedited": 2103,
      "ĠÂ": 2104,
      "ĠSer": 2105,
      "ĠBr": 2106,
      "!!!!!!!!!!!!!!!!!!!!!!!!!!!!!!!!": 2107,
      "Ġthreat": 2108,
      "ĠWH": 2109,
      "Ġtot": 2110,
      "ĠEx": 2111,
      "Ġplaced": 2112,
      "back": 2113,
      "vent": 2114,
      "ilit": 2115,
      "Ġnecess": 2116,
      "ctions": 2117,
      "Ġrepla": 2118,
      "bit": 2119,
      "Ġduring": 2120,
      "Ġequ": 2121,
      "Ġgay": 2122,
      "uly": 2123,
      "Ġrepe": 2124,
      "AA": 2125,
      "ending": 2126,
      "Ġrecord": 2127,
      "Ġpower": 2128,
      "Ġaccur": 2129,
      "Ġsound": 2130,
      "Ġident": 2131,
      "Ġchild": 2132,
      "ĠAS": 2133,
      "Ġrespond": 2134,
      "more": 2135,
      "ogn": 2136,
      "oph": 2137,
      "olic": 2138,
      "Ġhour": 2139,
      "ĠWell": 2140,
      "Ġasked": 2141,
      "Ġdep": 2142,
      "Ġwonder": 2143,
      "Ġfig": 2144,
      "ĠPh": 2145,
      "ĠJoh": 2146,
      "ĠMY": 2147,
      "Ġtalking": 2148,
      "AB": 2149,
      "Ġra": 2150,
      "ban": 2151,
      "Ġ/": 2152,
      "Ġdel": 2153,
      "aged": 2154,
      "IP": 2155,
      "get": 2156,
      "ĠTr": 2157,
      "oint": 2158,
      "ains": 2159,
      "ĠJEW": 2160,
      "Ġnoticed": 2161,
      "ai": 2162,
      "Ġdue": 2163,
      "Ġtyp": 2164,
      "Ġespecially": 2165,
      "Ġfin": 2166,
      "Ġ15": 2167,
      "Ġfucking": 2168,
      "Ġspeak": 2169,
      "33": 2170,
      "omat": 2171,
      "Ġparticular": 2172,
      "umb": 2173,
      "Ġuseful": 2174,
      "Ġdr": 2175,
      "TS": 2176,
      "Ġ24": 2177,
      "Ġbelow": 2178,
      "Ġgame": 2179,
      "igned": 2180,
      "CC": 2181,
      "iet": 2182,
      "Ġtruth": 2183,
      "Ġdick": 2184,
      "Ġdiff": 2185,
      "Ġfuture": 2186,
      "clusion": 2187,
      "Ġlearn": 2188,
      "Ġquote": 2189,
      "ouse": 2190,
      "ĠPr": 2191,
      "Ġpublished": 2192,
      "Ġdevelop": 2193,
      "Ġperhaps": 2194,
      "ots": 2195,
      "Ġposted": 2196,
      "selves": 2197,
      "ĠAgain": 2198,
      "iar": 2199,
      "ively": 2200,
      "acy": 2201,
      "ortun": 2202,
      "ats": 2203,
      "Ġreasons": 2204,
      "ĠNO": 2205,
      "ling": 2206,
      "Ġknowledge": 2207,
      "Ġreading": 2208,
      "Ġsignific": 2209,
      "urope": 2210,
      "Ġredirect": 2211,
      "rupt": 2212,
      "Ġeverything": 2213,
      "ivid": 2214,
      "amed": 2215,
      "ĠOne": 2216,
      "ĠARE": 2217,
      "Ġfigure": 2218,
      "Ġ199": 2219,
      "Ġresponse": 2220,
      "Ġnews": 2221,
      "rel": 2222,
      "ĠWikiped": 2223,
      "cience": 2224,
      "Ġ2006": 2225,
      "Ġpolitical": 2226,
      "Ġworking": 2227,
      "ission": 2228,
      "ĠBy": 2229,
      "Ġalong": 2230,
      "Ġlack": 2231,
      "ants": 2232,
      "Ġappreciate": 2233,
      "PC": 2234,
      "Ġside": 2235,
      "AY": 2236,
      "Ġsol": 2237,
      "Ġtoday": 2238,
      "LE": 2239,
      "unt": 2240,
      "joy": 2241,
      "add": 2242,
      "Ġexactly": 2243,
      "Ġpie": 2244,
      "Ġdispute": 2245,
      "ient": 2246,
      "Ġlarge": 2247,
      "Ġlooks": 2248,
      "Ġarch": 2249,
      "Ġcontact": 2250,
      "Ġtried": 2251,
      "Ġnational": 2252,
      "log": 2253,
      "ĠRep": 2254,
      "ane": 2255,
      "Ġneeded": 2256,
      "Ġsmall": 2257,
      "Ġcar": 2258,
      "Ġeffect": 2259,
      "Ġvalid": 2260,
      "oogle": 2261,
      "ĠNI": 2262,
      "Ġprovided": 2263,
      "Ġ17": 2264,
      "ublic": 2265,
      "Ġsuck": 2266,
      "Ġoften": 2267,
      "Ġworth": 2268,
      "Ġbecome": 2269,
      "Ġmeaning": 2270,
      "like": 2271,
      "ternal": 2272,
      "Ġrule": 2273,
      "Ġstated": 2274,
      "Ġhold": 2275,
      "ĠArticle": 2276,
      "ata": 2277,
      "VE": 2278,
      "Ġart": 2279,
      "ital": 2280,
      "ĠME": 2281,
      "ural": 2282,
      "Ġsoon": 2283,
      "Ġmult": 2284,
      "Ġrev": 2285,
      "Ġbo": 2286,
      "Ġmark": 2287,
      "ĠDon": 2288,
      "Ġkill": 2289,
      "ley": 2290,
      "25": 2291,
      "Ġcontribs": 2292,
      "Ġappro": 2293,
      "Ġguy": 2294,
      "Ġbus": 2295,
      "Ġvandalize": 2296,
      "Ġuploaded": 2297,
      "No": 2298,
      "Ġtook": 2299,
      "Ġcover": 2300,
      "val": 2301,
      "Ġhon": 2302,
      "Ġusername": 2303,
      "ography": 2304,
      "utes": 2305,
      "Ġstatus": 2306,
      "iple": 2307,
      "itions": 2308,
      "Ġproblems": 2309,
      "Ġsk": 2310,
      "Ġanti": 2311,
      "IA": 2312,
      "Ġtags": 2313,
      "Ġstrong": 2314,
      "Ġ?": 2315,
      "ired": 2316,
      "Ġsandbox": 2317,
      "Ġbu": 2318,
      "nnnnnnnn": 2319,
      "uyuyuyuy": 2320,
      "lam": 2321,
      "Ġpurp": 2322,
      "Ġconfir": 2323,
      "ny": 2324,
      "using": 2325,
      "Ġdeleting": 2326,
      "Ġhaven": 2327,
      "por": 2328,
      "you": 2329,
      "Ġcontrovers": 2330,
      "Project": 2331,
      "which": 2332,
      "wards": 2333,
      "Ġunblock": 2334,
      "Ġund": 2335,
      "Ġaware": 2336,
      "Ġreverting": 2337,
      "Ġexplanation": 2338,
      "bt": 2339,
      "Ġbre": 2340,
      "Ġemail": 2341,
      "Ġfish": 2342,
      "iversity": 2343,
      "ividual": 2344,
      "Ġfive": 2345,
      "Ġpoints": 2346,
      "GGER": 2347,
      "urch": 2348,
      "Ġbooks": 2349,
      "Ġsepar": 2350,
      "Ġmod": 2351,
      "ĠGree": 2352,
      "Thanks": 2353,
      "ĠUnited": 2354,
      "Ġdocu": 2355,
      "Ġdecide": 2356,
      "Ġtaking": 2357,
      "St": 2358,
      "Ġupd": 2359,
      "Ġadministrator": 2360,
      "co": 2361,
      "Ġunf": 2362,
      "Ġcontext": 2363,
      "Ġremember": 2364,
      "Ġexperi": 2365,
      "Ġdescription": 2366,
      "row": 2367,
      "Ġthank": 2368,
      "Ġguys": 2369,
      "irc": 2370,
      "Ġlikely": 2371,
      "ĠMr": 2372,
      "lying": 2373,
      "Ġterms": 2374,
      "iness": 2375,
      "lim": 2376,
      "quest": 2377,
      "Hi": 2378,
      "Ġ14": 2379,
      "ĠJun": 2380,
      "Ġhappy": 2381,
      "Ġvis": 2382,
      "Ġ2008": 2383,
      "Ġ16": 2384,
      "IDS": 2385,
      "Ġlic": 2386,
      "Ġbro": 2387,
      "Ġcou": 2388,
      "Ġwhatever": 2389,
      "RAPC": 2390,
      "Ġshows": 2391,
      "Ġavoid": 2392,
      "RAPCRAPC": 2393,
      "Ġmembers": 2394,
      "ery": 2395,
      "200": 2396,
      "Ġcited": 2397,
      "Ġenjoy": 2398,
      "Ġrepresent": 2399,
      "Ġcharacter": 2400,
      "ĠNIGGER": 2401,
      "cur": 2402,
      "Ġscient": 2403,
      "Ġalmost": 2404,
      "rain": 2405,
      "Ġ2007": 2406,
      "AG": 2407,
      "ĠGood": 2408,
      "iction": 2409,
      "Ġdefinition": 2410,
      "Fuck": 2411,
      "Ġalone": 2412,
      "Ġgovernment": 2413,
      "iter": 2414,
      "ĠCont": 2415,
      "Ġsaw": 2416,
      "ĠMe": 2417,
      "Ġadm": 2418,
      "color": 2419,
      "ering": 2420,
      "Ġstory": 2421,
      "Ġunless": 2422,
      "ream": 2423,
      "edic": 2424,
      "ĠAre": 2425,
      "Ġ12": 2426,
      "dd": 2427,
      "Ġep": 2428,
      "Ġobviously": 2429,
      "son": 2430,
      "OW": 2431,
      "que": 2432,
      "rael": 2433,
      "Ġconflict": 2434,
      "Ġautomat": 2435,
      "au": 2436,
      "ĠGod": 2437,
      "Ġmusic": 2438,
      "Ġfilm": 2439,
      "ĠALL": 2440,
      "ET": 2441,
      "Ġmet": 2442,
      "aper": 2443,
      "ION": 2444,
      "lu": 2445,
      "Ġones": 2446,
      "Ġexperiment": 2447,
      "ĠTur": 2448,
      "Ġactual": 2449,
      "Ġallowed": 2450,
      "Ġcap": 2451,
      "Ġrecently": 2452,
      "FA": 2453,
      "FUCK": 2454,
      "Ġpen": 2455,
      "ĠAb": 2456,
      "ĠSince": 2457,
      "Ġaccording": 2458,
      "Ġexcept": 2459,
      "adem": 2460,
      "Ġbackground": 2461,
      "ĠHATE": 2462,
      "Ġclose": 2463,
      "Ġadmins": 2464,
      "ĠCheers": 2465,
      "ffic": 2466,
      "Ġtro": 2467,
      "Ġid": 2468,
      "Ġviews": 2469,
      "Ġprim": 2470,
      "zer": 2471,
      "Ġnig": 2472,
      "alf": 2473,
      "Ġjob": 2474,
      "Ġindividual": 2475,
      "Ġpract": 2476,
      "Ġbanned": 2477,
      "Ġtransl": 2478,
      "]]": 2479,
      "Ġden": 2480,
      "ĠSc": 2481,
      "ump": 2482,
      "ourn": 2483,
      "Ġwent": 2484,
      "ĠCl": 2485,
      "11111111": 2486,
      "ball": 2487,
      "ĠWar": 2488,
      "ĠSch": 2489,
      "Ġactions": 2490,
      "Ġ2004": 2491,
      "ober": 2492,
      "imate": 2493,
      "Ġaren": 2494,
      "aug": 2495,
      "ĠLI": 2496,
      "iod": 2497,
      "ĠST": 2498,
      "epend": 2499,
      "Ġthemselves": 2500,
      "put": 2501,
      "itive": 2502,
      "cont": 2503,
      "ris": 2504,
      "tical": 2505,
      "Ġgenerally": 2506,
      "Ġexpect": 2507,
      "Ġwouldn": 2508,
      "Ġcompany": 2509,
      "Ġattention": 2510,
      "Ġvarious": 2511,
      "ined": 2512,
      "ĠRuss": 2513,
      "Ġtold": 2514,
      "unk": 2515,
      "ĠBritish": 2516,
      "Ġfine": 2517,
      "mp": 2518,
      "reme": 2519,
      "ĠAm": 2520,
      "Ġcontributing": 2521,
      "ibly": 2522,
      "âĢĶ": 2523,
      "Ġcontr": 2524,
      "eah": 2525,
      "omen": 2526,
      "Ġpres": 2527,
      "olute": 2528,
      "Ġlonger": 2529,
      "ĠJohn": 2530,
      "orial": 2531,
      "ĠGet": 2532,
      "Ġintrodu": 2533,
      "Ġparticip": 2534,
      "cent": 2535,
      "ites": 2536,
      "nect": 2537,
      "Ġ*": 2538,
      "Ġvide": 2539,
      "Ġhom": 2540,
      "Ġreply": 2541,
      "orld": 2542,
      "Ġhy": 2543,
      "Ġeffort": 2544,
      "gy": 2545,
      "na": 2546,
      "Ġok": 2547,
      "Ġavail": 2548,
      "Ġpiece": 2549,
      "izing": 2550,
      "itted": 2551,
      "bum": 2552,
      "AHAH": 2553,
      "Ġautomatically": 2554,
      "ĠX": 2555,
      "Ġhimself": 2556,
      "Ġ#": 2557,
      "Ġrece": 2558,
      "Ġquick": 2559,
      "Ġcra": 2560,
      "Ġlevel": 2561,
      "Ġminor": 2562,
      "ama": 2563,
      "Ġtype": 2564,
      "Ġbox": 2565,
      "Ġbelong": 2566,
      "onsense": 2567,
      "eal": 2568,
      "order": 2569,
      "ĠBL": 2570,
      "Ġcomes": 2571,
      "ĠRE": 2572,
      "Ġrecogn": 2573,
      "~~~~": 2574,
      "Ġpromot": 2575,
      "Ġtild": 2576,
      "Ġlive": 2577,
      "Ġhours": 2578,
      "Ġeth": 2579,
      "Ġ13": 2580,
      "ĠEurope": 2581,
      "Ġorigin": 2582,
      "Ġsites": 2583,
      "puppet": 2584,
      "work": 2585,
      "Ġarea": 2586,
      "ularly": 2587,
      "Ġtoge": 2588,
      "Ġrac": 2589,
      "Ġcriticism": 2590,
      "side": 2591,
      "erely": 2592,
      "Ġevent": 2593,
      "ĠAug": 2594,
      "ĠCol": 2595,
      "Ġapolog": 2596,
      "Ġcomplain": 2597,
      "Ġworks": 2598,
      "Image": 2599,
      "rew": 2600,
      "Ġanyway": 2601,
      "Ġtogether": 2602,
      "ĠFr": 2603,
      "RECT": 2604,
      "Ġsimple": 2605,
      "omm": 2606,
      "Ġsus": 2607,
      "Ġmoder": 2608,
      "Ġter": 2609,
      "ĠLet": 2610,
      "Ġworked": 2611,
      "CH": 2612,
      ",\"\"": 2613,
      "reen": 2614,
      "Ġplan": 2615,
      "ĠPe": 2616,
      "ĠGe": 2617,
      "ensive": 2618,
      "Ġindicate": 2619,
      "Ġdoubt": 2620,
      "fect": 2621,
      "lex": 2622,
      "Ġinteresting": 2623,
      "ences": 2624,
      "Ġhuman": 2625,
      "Ġsong": 2626,
      "ĠAM": 2627,
      "Ġtechn": 2628,
      "Ġcitation": 2629,
      "Ġconv": 2630,
      "urd": 2631,
      "What": 2632,
      "Ġtildes": 2633,
      "ĠOH": 2634,
      "eral": 2635,
      "ĠBark": 2636,
      ":#": 2637,
      "ĠSorry": 2638,
      "Ġsubst": 2639,
      "\"::": 2640,
      "Ġann": 2641,
      "UP": 2642,
      "Ġestab": 2643,
      "iation": 2644,
      "ĠCUN": 2645,
      "Ġhelpful": 2646,
      "ĠMa": 2647,
      "Ġmoved": 2648,
      "aving": 2649,
      "Ġ!": 2650,
      "see": 2651,
      "Ġtherefore": 2652,
      "Ġfav": 2653,
      "Ġcategory": 2654,
      "Ġsourced": 2655,
      "pret": 2656,
      "apan": 2657,
      "Ġclar": 2658,
      "Ġcitations": 2659,
      "Ġmeet": 2660,
      "pro": 2661,
      "Ġcreating": 2662,
      "Ġaff": 2663,
      "Ġyes": 2664,
      "ĠNe": 2665,
      "AD": 2666,
      "Ġhappened": 2667,
      "If": 2668,
      "ANK": 2669,
      "Ġsupposed": 2670,
      "Ġbitch": 2671,
      "ĠGerman": 2672,
      "iver": 2673,
      "Ġmonths": 2674,
      "arily": 2675,
      "ĠYes": 2676,
      "itely": 2677,
      "Ġmeant": 2678,
      "oring": 2679,
      "Ġstatements": 2680,
      "Ġteam": 2681,
      "ĠJan": 2682,
      "Ġperiod": 2683,
      "Ġavailable": 2684,
      ");": 2685,
      "ĠStates": 2686,
      "vice": 2687,
      "ĠGr": 2688,
      "ĠSpe": 2689,
      "thod": 2690,
      "Ġdeath": 2691,
      "ĠQu": 2692,
      "ĠAIDS": 2693,
      "Ġfeature": 2694,
      "Ġwait": 2695,
      "Ġclick": 2696,
      "Ġbias": 2697,
      "Ġed": 2698,
      "alle": 2699,
      "Ġaccepted": 2700,
      "Ġnecessary": 2701,
      "Ġopinions": 2702,
      "VER": 2703,
      "Ġlim": 2704,
      "Ġgl": 2705,
      "unch": 2706,
      "Ġill": 2707,
      "Ġjud": 2708,
      "idth": 2709,
      "Ġlab": 2710,
      "Ġration": 2711,
      "ĠShe": 2712,
      "Ġabsolute": 2713,
      "Ġcite": 2714,
      "Ġtheory": 2715,
      "Ġlo": 2716,
      "Ġgoes": 2717,
      "Ġdra": 2718,
      "ĠNPOV": 2719,
      "Ġalthough": 2720,
      "User": 2721,
      "Ġfight": 2722,
      "Ġnonsense": 2723,
      "Ġproof": 2724,
      "ĠThese": 2725,
      "Ġey": 2726,
      "ĠPol": 2727,
      "Ġ11": 2728,
      "REDI": 2729,
      "Ġfamily": 2730,
      "ĠFirst": 2731,
      ".,": 2732,
      "IL": 2733,
      "Ġtur": 2734,
      "nder": 2735,
      "Ġaction": 2736,
      "Ġfield": 2737,
      "\"\"?": 2738,
      "Ġindeed": 2739,
      "ĠPl": 2740,
      "ney": 2741,
      "ilitary": 2742,
      "Ġbring": 2743,
      "Ġsignificant": 2744,
      "Ġpers": 2745,
      "ĠHelp": 2746,
      "Ġtagged": 2747,
      "Ġviolation": 2748,
      "ructive": 2749,
      "REDIRECT": 2750,
      "Ġproposed": 2751,
      "ĠFuck": 2752,
      "ĠPerhaps": 2753,
      "nic": 2754,
      "Ġbegin": 2755,
      "Ġperm": 2756,
      "sy": 2757,
      "ada": 2758,
      "Ġ198": 2759,
      "ĠHA": 2760,
      "Ġmass": 2761,
      "arian": 2762,
      "Ġunc": 2763,
      "Ġbiased": 2764,
      "ĠWith": 2765,
      "Ġsw": 2766,
      "ĠWill": 2767,
      "Ġcontest": 2768,
      "anda": 2769,
      "ĠOh": 2770,
      "ĠMus": 2771,
      "ev": 2772,
      "ĠIT": 2773,
      "istory": 2774,
      "Ġinsult": 2775,
      "arently": 2776,
      "Ġsections": 2777,
      "Ġsituation": 2778,
      "Ġaccurate": 2779,
      "Ġmill": 2780,
      "Ġben": 2781,
      "Ġstandard": 2782,
      "Ġrid": 2783,
      "reg": 2784,
      "Ġliving": 2785,
      "ĠGu": 2786,
      "Ġcred": 2787,
      "ĠASS": 2788,
      "Ġhome": 2789,
      "Ġamong": 2790,
      "Ġenc": 2791,
      "oice": 2792,
      "ading": 2793,
      "ĠMaybe": 2794,
      "just": 2795,
      "Ġseparate": 2796,
      "uk": 2797,
      "ĠTe": 2798,
      "Ġdebate": 2799,
      "Ġdisrupt": 2800,
      "gress": 2801,
      "Ġotherwise": 2802,
      "ters": 2803,
      "Ġincorrect": 2804,
      "Ġreach": 2805,
      "ĠAust": 2806,
      "ĠIsrael": 2807,
      "Ġbehavior": 2808,
      "Ġdocument": 2809,
      "TW": 2810,
      "Ġmom": 2811,
      "0000": 2812,
      "lent": 2813,
      "Ġtable": 2814,
      "ĠDis": 2815,
      "Ġproduct": 2816,
      "Ġconnect": 2817,
      "Ġfoot": 2818,
      "mb": 2819,
      "Ġment": 2820,
      "Ġclean": 2821,
      "Ġepis": 2822,
      "Ġremain": 2823,
      "itch": 2824,
      "Ġmessages": 2825,
      "Ġpill": 2826,
      "Ġschol": 2827,
      "sc": 2828,
      "ĠTake": 2829,
      "ency": 2830,
      "Ġthird": 2831,
      "aster": 2832,
      "Ġsuc": 2833,
      "Ġidi": 2834,
      "Ġheard": 2835,
      "ĠEven": 2836,
      "Ġmag": 2837,
      "ONG": 2838,
      "ĠAugust": 2839,
      "Ġexplaining": 2840,
      "ĠWik": 2841,
      "Ġ2009": 2842,
      "lection": 2843,
      "Ġalbum": 2844,
      "ĠTHIS": 2845,
      "Ġfore": 2846,
      "Ġhell": 2847,
      "ones": 2848,
      "ĠApr": 2849,
      "Ġverif": 2850,
      "Ġ2010": 2851,
      "Ġshouldn": 2852,
      "Ġindepend": 2853,
      "port": 2854,
      "Ġearl": 2855,
      "han": 2856,
      "che": 2857,
      "Ġadvert": 2858,
      "ĠWhile": 2859,
      "onym": 2860,
      "Ġdam": 2861,
      "ential": 2862,
      "Ġasking": 2863,
      "Ġcause": 2864,
      "ĠThen": 2865,
      "ague": 2866,
      "oney": 2867,
      "Ġterror": 2868,
      "Ġdata": 2869,
      "Ġcomput": 2870,
      "obox": 2871,
      "over": 2872,
      "ĠDr": 2873,
      "Ġseries": 2874,
      "Ġdetails": 2875,
      "Ġirre": 2876,
      "ĠCH": 2877,
      "Ġlegal": 2878,
      "Ġrationale": 2879,
      "Ġupon": 2880,
      "ĠChristian": 2881,
      "af": 2882,
      "star": 2883,
      "iab": 2884,
      "gram": 2885,
      "men": 2886,
      "ĠDid": 2887,
      "ibility": 2888,
      "yn": 2889,
      "Ġhate": 2890,
      "Al": 2891,
      "els": 2892,
      "Ġusually": 2893,
      "rench": 2894,
      "Ġmot": 2895,
      "ĠCUNT": 2896,
      "ison": 2897,
      "Ġculture": 2898,
      "ĠStyle": 2899,
      "ĠWIK": 2900,
      "Ġvideo": 2901,
      "OCKS": 2902,
      "times": 2903,
      "ĠUK": 2904,
      "ESS": 2905,
      "Ġrepeated": 2906,
      "no": 2907,
      "Ġmultiple": 2908,
      "Ġdeser": 2909,
      "Ġformat": 2910,
      "ĠDO": 2911,
      "new": 2912,
      "Ġve": 2913,
      "Ġparty": 2914,
      "Ġdifference": 2915,
      "TH": 2916,
      "Ġcivil": 2917,
      "ĠOb": 2918,
      "Ġrew": 2919,
      "Ġgets": 2920,
      "Ġdirectly": 2921,
      "Ġhonest": 2922,
      "Ġpurpose": 2923,
      "ted": 2924,
      "Ġdeter": 2925,
      "Ġcouple": 2926,
      "Ġlight": 2927,
      "aming": 2928,
      "OP": 2929,
      "utorial": 2930,
      "ĠOf": 2931,
      "top": 2932,
      "uary": 2933,
      "ĠEn": 2934,
      "Ġur": 2935,
      "Ġfre": 2936,
      "ĠHey": 2937,
      "Ġassume": 2938,
      "orm": 2939,
      "ĠJapan": 2940,
      "Ġcalling": 2941,
      "ambig": 2942,
      "ferences": 2943,
      "Is": 2944,
      "how": 2945,
      "Ã©": 2946,
      "ĠHar": 2947,
      "Ġdescribed": 2948,
      "Ġrights": 2949,
      "Ġcity": 2950,
      "Ġcontribute": 2951,
      "Ġproduce": 2952,
      "alth": 2953,
      "Ġlat": 2954,
      "ĠAss": 2955,
      "Ġaccess": 2956,
      "ully": 2957,
      "Ġ100": 2958,
      "Ġpress": 2959,
      "FD": 2960,
      "Ġmar": 2961,
      "Ġoper": 2962,
      "ipple": 2963,
      "Ġcountries": 2964,
      "Ġexisting": 2965,
      "oot": 2966,
      "org": 2967,
      "Ġperfect": 2968,
      "arth": 2969,
      "ster": 2970,
      "Ġprove": 2971,
      "And": 2972,
      "Ġprefer": 2973,
      "icult": 2974,
      "Ġcamp": 2975,
      "Ġexternal": 2976,
      "Ġpenis": 2977,
      "50": 2978,
      "str": 2979,
      "Ġmov": 2980,
      "Ġbuild": 2981,
      "Ġdest": 2982,
      "Ġwhite": 2983,
      "Ġexpress": 2984,
      "ĠHave": 2985,
      "Ġanal": 2986,
      "iding": 2987,
      "IG": 2988,
      "Ġconcept": 2989,
      "Ġneg": 2990,
      "Ġpoor": 2991,
      "EC": 2992,
      "ances": 2993,
      "ands": 2994,
      "Se": 2995,
      "Ġcoll": 2996,
      "Ġprofess": 2997,
      "Ġpillars": 2998,
      "Ġconsist": 2999,
      "Ġinterpret": 3000,
      "Ġblack": 3001,
      "Ġ(~~~~": 3002,
      "Ġuses": 3003,
      "appropriate": 3004,
      "what": 3005,
      "Ġinclusion": 3006,
      "Ġ21": 3007,
      "ption": 3008,
      "Ġ'''''": 3009,
      "Ġcens": 3010,
      "Ġwarn": 3011,
      "Ġquality": 3012,
      "ĠWorld": 3013,
      "ister": 3014,
      "ĠHis": 3015,
      "Ġrespons": 3016,
      "Ġharass": 3017,
      "Ġhistorical": 3018,
      "Hey": 3019,
      "Ġport": 3020,
      "That": 3021,
      "Ġfan": 3022,
      "ĠON": 3023,
      "Ġspecial": 3024,
      "lement": 3025,
      "aul": 3026,
      "Ġcases": 3027,
      "ĠAfter": 3028,
      "sex": 3029,
      "Thank": 3030,
      "Ġpropos": 3031,
      "RS": 3032,
      "aries": 3033,
      "ĠList": 3034,
      "ani": 3035,
      "Ġhit": 3036,
      "ĠUN": 3037,
      "AND": 3038,
      "Ġspace": 3039,
      "Ġcontinu": 3040,
      "war": 3041,
      "Ġmember": 3042,
      "ĠFeb": 3043,
      "Ġpriv": 3044,
      "Wiki": 3045,
      "ĠGen": 3046,
      "aid": 3047,
      "atic": 3048,
      "irl": 3049,
      "ĠJuly": 3050,
      "conom": 3051,
      "ĠManual": 3052,
      "Ġer": 3053,
      "Ġtreat": 3054,
      "erous": 3055,
      "Ġelect": 3056,
      "ĠWho": 3057,
      "Ġchanging": 3058,
      "________": 3059,
      "appy": 3060,
      "Ġreplace": 3061,
      "Ġearlier": 3062,
      "rest": 3063,
      "thern": 3064,
      "Ġconcerns": 3065,
      "Ġcontrol": 3066,
      "ĠWikipedian": 3067,
      "Ġtakes": 3068,
      "ung": 3069,
      "play": 3070,
      "ĠKing": 3071,
      "Ġreaders": 3072,
      "Ġdifficult": 3073,
      "ortunately": 3074,
      "Ġpersonally": 3075,
      "Ġactiv": 3076,
      "px": 3077,
      "Ġtowards": 3078,
      "ĠIslam": 3079,
      "aring": 3080,
      "Ġarguments": 3081,
      "ished": 3082,
      "Ġamount": 3083,
      "ĠFUCKING": 3084,
      "sk": 3085,
      "ĠAct": 3086,
      "ells": 3087,
      "ĠDoes": 3088,
      "Ġextreme": 3089,
      "Ġmother": 3090,
      "Ġinvest": 3091,
      "Ġdecided": 3092,
      "ices": 3093,
      "Ġblocking": 3094,
      "ĠÂ·": 3095,
      "Ġabsolutely": 3096,
      "Ġlinked": 3097,
      "UU": 3098,
      "Ġsubm": 3099,
      "eter": 3100,
      "ĠEdit": 3101,
      "Ġ30": 3102,
      "ĠIndia": 3103,
      "azi": 3104,
      "Ġprimary": 3105,
      "ĠGO": 3106,
      "ĠCo": 3107,
      "rim": 3108,
      "Ġerror": 3109,
      "soci": 3110,
      "avid": 3111,
      "Ġexpand": 3112,
      "Wikipedia": 3113,
      "andalism": 3114,
      "Ġphr": 3115,
      "ourced": 3116,
      "Ġearly": 3117,
      "Not": 3118,
      "uted": 3119,
      "ales": 3120,
      "help": 3121,
      "ournal": 3122,
      "Ġgave": 3123,
      "ĠWhere": 3124,
      "**": 3125,
      "Ġsuper": 3126,
      "abor": 3127,
      "hole": 3128,
      "Ġhalf": 3129,
      "ĠRes": 3130,
      "Ġclos": 3131,
      "ech": 3132,
      "Ġscience": 3133,
      "Ġseriously": 3134,
      "ped": 3135,
      "ceding": 3136,
      "Ġrelease": 3137,
      "set": 3138,
      "acos": 3139,
      "Ġface": 3140,
      "ĠUniversity": 3141,
      "Ġdiscussed": 3142,
      "Ġsat": 3143,
      "Ġacadem": 3144,
      "Ġcreation": 3145,
      "Ġrele": 3146,
      "ĠBl": 3147,
      "Ġbenef": 3148,
      "ĠOct": 3149,
      "Ġcor": 3150,
      "attle": 3151,
      "Ġscientific": 3152,
      "EE": 3153,
      "Ġmerely": 3154,
      "Ġcontain": 3155,
      "Ġdecision": 3156,
      "Ġnumbers": 3157,
      "Ġoppos": 3158,
      "Ġmodern": 3159,
      "Ġphys": 3160,
      "Ġparticularly": 3161,
      "ety": 3162,
      "Ġoutside": 3163,
      "100": 3164,
      "Ġess": 3165,
      "Ġnone": 3166,
      "ngth": 3167,
      "Ġdisruptive": 3168,
      "ĠSm": 3169,
      "Ġcoming": 3170,
      "Ġlooked": 3171,
      "Ġgiving": 3172,
      "Ġmajority": 3173,
      "but": 3174,
      "Ġdickhead": 3175,
      "ures": 3176,
      "Ġgroups": 3177,
      "Ġspecifically": 3178,
      "ĠGreek": 3179,
      "oose": 3180,
      "overed": 3181,
      "Ġpopulation": 3182,
      "Ġentirely": 3183,
      "Ġmistake": 3184,
      "Ġonline": 3185,
      "Ġshall": 3186,
      "???": 3187,
      "Ġunsigned": 3188,
      "board": 3189,
      "Ġblog": 3190,
      "ĠDON": 3191,
      "Ġthinking": 3192,
      "ĠIntern": 3193,
      "Ġ197": 3194,
      "Ġconfirm": 3195,
      "TR": 3196,
      "Ġcirc": 3197,
      "Ġconstit": 3198,
      "ĠGoogle": 3199,
      "Ġreflect": 3200,
      "Ġemp": 3201,
      "Ġfamil": 3202,
      "Ġthus": 3203,
      "ĠFeel": 3204,
      "Ġprogram": 3205,
      "Ġstandards": 3206,
      "Ġlegit": 3207,
      "Ġirrelevant": 3208,
      "RR": 3209,
      "bal": 3210,
      "ĠInt": 3211,
      "Ġliter": 3212,
      "Ġchance": 3213,
      "ological": 3214,
      "Ġnorm": 3215,
      "uge": 3216,
      "ouble": 3217,
      "Ġpropag": 3218,
      "ĠSim": 3219,
      "Ġphoto": 3220,
      "Ġ''''''": 3221,
      "Ġinsert": 3222,
      "Ġinappropriate": 3223,
      "Ġbusiness": 3224,
      "ges": 3225,
      "Ġaf": 3226,
      "Ġ22": 3227,
      "Ġwants": 3228,
      "Ġvote": 3229,
      "Ġinflu": 3230,
      "rem": 3231,
      "ulous": 3232,
      "ĠCould": 3233,
      "Ġfriends": 3234,
      "free": 3235,
      "here": 3236,
      "ĠCAN": 3237,
      "udd": 3238,
      "Ġevents": 3239,
      "Ġpictures": 3240,
      "gue": 3241,
      "ĠSouth": 3242,
      "Ġacross": 3243,
      "Ġposts": 3244,
      "Ġacceptable": 3245,
      "align": 3246,
      "ĠRem": 3247,
      "ĠEl": 3248,
      "Ġgives": 3249,
      "Ġwin": 3250,
      "antly": 3251,
      "ĠAdd": 3252,
      "medi": 3253,
      "Ġinternet": 3254,
      "list": 3255,
      "nce": 3256,
      "Ġbal": 3257,
      "Ġassoci": 3258,
      "ĠNational": 3259,
      "ĠAdmin": 3260,
      "Ġorganization": 3261,
      "ination": 3262,
      "Ġ23": 3263,
      "Ġfocus": 3264,
      "Ġcateg": 3265,
      "empl": 3266,
      "Ġ2012": 3267,
      "Ġunderstanding": 3268,
      "ĠJewish": 3269,
      "ĠAustral": 3270,
      "pite": 3271,
      "ĠWANK": 3272,
      "cember": 3273,
      "Ġabuse": 3274,
      "cons": 3275,
      "iddle": 3276,
      "ĠRepublic": 3277,
      "ias": 3278,
      "ators": 3279,
      "ptember": 3280,
      "ana": 3281,
      "Ġreader": 3282,
      "ĠAD": 3283,
      "ĠSP": 3284,
      "ĠBecause": 3285,
      "ĠWANKER": 3286,
      "ples": 3287,
      "ĠRf": 3288,
      "Ġknows": 3289,
      "Ġhighly": 3290,
      "Ġstudy": 3291,
      "Ġeduc": 3292,
      "\"==": 3293,
      "Your": 3294,
      "ium": 3295,
      "ĠArab": 3296,
      "Ġtotally": 3297,
      "Ġdead": 3298,
      "Ġputting": 3299,
      "Ġadvice": 3300,
      "Ġnamed": 3301,
      "ĠSy": 3302,
      "ĠOther": 3303,
      "ĠAnyway": 3304,
      "'.": 3305,
      "ĠEd": 3306,
      "Ġ;": 3307,
      "Ġvot": 3308,
      "ĠCent": 3309,
      "ĠNipple": 3310,
      "Ġbreak": 3311,
      "Ġmoment": 3312,
      "Ġreported": 3313,
      "Ġmen": 3314,
      "lled": 3315,
      "Ġstep": 3316,
      "ĠBest": 3317,
      "Ġsocial": 3318,
      "itting": 3319,
      "Ġpopular": 3320,
      "Qu": 3321,
      "mail": 3322,
      "Ġbody": 3323,
      "ĠJune": 3324,
      "Ġaltern": 3325,
      "duct": 3326,
      "40": 3327,
      "enced": 3328,
      "ĠFrom": 3329,
      "Ġwilling": 3330,
      "ĠMarch": 3331,
      "loy": 3332,
      "arty": 3333,
      "Ġsockpuppet": 3334,
      "reet": 3335,
      "ĠLook": 3336,
      "Ġrequesting": 3337,
      "Ġlost": 3338,
      "ider": 3339,
      "ips": 3340,
      "ĠPage": 3341,
      "ta": 3342,
      "Ġmine": 3343,
      "ERS": 3344,
      "arnstar": 3345,
      "ĠMich": 3346,
      "Ġblank": 3347,
      "ĠWikiProject": 3348,
      "ĠAfric": 3349,
      "IPED": 3350,
      "ĠWelcome": 3351,
      "ĠCar": 3352,
      "ĠNote": 3353,
      "Ġvol": 3354,
      "?)": 3355,
      "ha": 3356,
      "Ġmilitary": 3357,
      "ĠPR": 3358,
      "Ġprevent": 3359,
      "Ġappl": 3360,
      "spe": 3361,
      "Ġpot": 3362,
      "iam": 3363,
      "letion": 3364,
      "ovember": 3365,
      "Ġethnic": 3366,
      "rict": 3367,
      "uh": 3368,
      "Ġsubstant": 3369,
      "asc": 3370,
      "Ġ25": 3371,
      "Ġmatch": 3372,
      "Ġproperly": 3373,
      "Ġwik": 3374,
      "ĠBUT": 3375,
      "Ġposting": 3376,
      "Ġchildren": 3377,
      "Ġwarring": 3378,
      "Ġcool": 3379,
      "Ġ[[": 3380,
      "erring": 3381,
      "Ġmillion": 3382,
      "dom": 3383,
      "Ġsurpr": 3384,
      "Ġdemon": 3385,
      "opy": 3386,
      "ĠBar": 3387,
      "Ġbehind": 3388,
      "Ġeasy": 3389,
      "ert": 3390,
      "Ġdri": 3391,
      "Ġrecomm": 3392,
      "Ġfill": 3393,
      "illy": 3394,
      "ahah": 3395,
      "Ġexperience": 3396,
      "cise": 3397,
      "ĠWould": 3398,
      "Ġanymore": 3399,
      "ĠRegards": 3400,
      "\"\"|": 3401,
      "Ġeasily": 3402,
      "II": 3403,
      "Ġborder": 3404,
      "lege": 3405,
      "Ġinit": 3406,
      "ĠYork": 3407,
      "Ġimmedi": 3408,
      "Ġflag": 3409,
      "Ġbasis": 3410,
      "iles": 3411,
      "There": 3412,
      "Ġexamples": 3413,
      "ament": 3414,
      "oe": 3415,
      "off": 3416,
      "ĠAmerica": 3417,
      "Ġcomputer": 3418,
      "ĠWIKIPED": 3419,
      "ĠFAG": 3420,
      "book": 3421,
      "Ġborn": 3422,
      "Ġpay": 3423,
      "ĠTV": 3424,
      "Ġstra": 3425,
      "ĠOK": 3426,
      "ĠOFF": 3427,
      "ellow": 3428,
      "ica": 3429,
      "ask": 3430,
      "ols": 3431,
      "Ġrelations": 3432,
      "ographies": 3433,
      "zz": 3434,
      "Ġregards": 3435,
      "key": 3436,
      "estern": 3437,
      "Ġindependent": 3438,
      "Ġnoted": 3439,
      "Ġstub": 3440,
      "ĠJanuary": 3441,
      "Ġshown": 3442,
      "tick": 3443,
      "ĠMc": 3444,
      "iability": 3445,
      "Ġahead": 3446,
      "oud": 3447,
      "Ġcut": 3448,
      "Ġforce": 3449,
      "ĠCategory": 3450,
      "ĠHappy": 3451,
      "Ġdiscussions": 3452,
      "Ġtemplates": 3453,
      "ĠNorth": 3454,
      "augh": 3455,
      "BL": 3456,
      "ĠBE": 3457,
      "ellig": 3458,
      "Ġreasonable": 3459,
      "ried": 3460,
      "Why": 3461,
      "Ġverifiable": 3462,
      "ĠIran": 3463,
      "ald": 3464,
      "this": 3465,
      "Ġsometimes": 3466,
      "Ġ|-": 3467,
      "Ġinfobox": 3468,
      "Ġfaggots": 3469,
      "rite": 3470,
      "asing": 3471,
      "ĠSw": 3472,
      "Ġtotal": 3473,
      "Ġair": 3474,
      "Ġhes": 3475,
      "Ġliber": 3476,
      "Ġgone": 3477,
      "Ġformer": 3478,
      "ems": 3479,
      "Ġignor": 3480,
      "Ġignore": 3481,
      "Ġinvestig": 3482,
      "ĠRoman": 3483,
      "Ġsolid": 3484,
      "sequ": 3485,
      "clus": 3486,
      "ĠSecond": 3487,
      "sych": 3488,
      "Ġ(~~~~);": 3489,
      "bs": 3490,
      "ique": 3491,
      "Ġbast": 3492,
      "ĠIM": 3493,
      "ĠFurther": 3494,
      "ĠGAY": 3495,
      "Ġapparently": 3496,
      "dis": 3497,
      "Ġforward": 3498,
      "arding": 3499,
      "OTH": 3500,
      "Ġ50": 3501,
      "Ġweeks": 3502,
      "Ġsuspect": 3503,
      "cedon": 3504,
      "????": 3505,
      "Ġresults": 3506,
      "onymous": 3507,
      "ĠIr": 3508,
      "Ġadministrators": 3509,
      "30": 3510,
      "Ġbec": 3511,
      "roy": 3512,
      "ĠHistory": 3513,
      "irth": 3514,
      "Ġclub": 3515,
      "Article": 3516,
      "aign": 3517,
      "Ġargue": 3518,
      "elt": 3519,
      "Ġimpl": 3520,
      "Ġlists": 3521,
      "ĠApril": 3522,
      "IM": 3523,
      "ma": 3524,
      "Ġwide": 3525,
      "ruary": 3526,
      "Ġz": 3527,
      "Ġbott": 3528,
      "ĠMore": 3529,
      "ĠKe": 3530,
      "Ġasshole": 3531,
      "Ġlocal": 3532,
      "itude": 3533,
      "Ġmethod": 3534,
      "ĠFrench": 3535,
      "ĠTutorial": 3536,
      "Ġcentury": 3537,
      "Ġreligion": 3538,
      "Ġerr": 3539,
      "esus": 3540,
      "Ġ2011": 3541,
      "Ġexplained": 3542,
      "Ġaccounts": 3543,
      "Ġfund": 3544,
      "ĠWILL": 3545,
      "Ġmissing": 3546,
      "How": 3547,
      "ĠIm": 3548,
      "andom": 3549,
      "ĠJim": 3550,
      "Ġlear": 3551,
      "Ġpossibly": 3552,
      "Ġresol": 3553,
      "Ġrequired": 3554,
      "pir": 3555,
      "Ġbecom": 3556,
      "Ġspeedily": 3557,
      "gen": 3558,
      "Ġdefinitely": 3559,
      "Ġridic": 3560,
      "Ġencour": 3561,
      "Ġsuccess": 3562,
      "Ġarbit": 3563,
      "ĠHope": 3564,
      "Ġprior": 3565,
      "Ġapproach": 3566,
      "Ġmoney": 3567,
      "Ġassert": 3568,
      "ĠInst": 3569,
      "Ġfucksex": 3570,
      "Yes": 3571,
      "isf": 3572,
      "ĠUnder": 3573,
      "shit": 3574,
      "Ġdescribe": 3575,
      "time": 3576,
      "abag": 3577,
      "Ġreligious": 3578,
      "ming": 3579,
      "Ġwomen": 3580,
      "ĠGA": 3581,
      "Ġyourselfgo": 3582,
      "Ġexpert": 3583,
      "BC": 3584,
      "ouch": 3585,
      "Ġdog": 3586,
      "ĠNOES": 3587,
      "Ġidiot": 3588,
      "Ġnewsp": 3589,
      "Ġmap": 3590,
      "ource": 3591,
      "Ġground": 3592,
      "Ġfinal": 3593,
      "ĠCA": 3594,
      "Ġnature": 3595,
      "Ġselect": 3596,
      "Ġteabag": 3597,
      "Ġlicense": 3598,
      "Well": 3599,
      "rant": 3600,
      "ford": 3601,
      "ps": 3602,
      "Ġtre": 3603,
      "irt": 3604,
      "ĠYOUR": 3605,
      "ship": 3606,
      "He": 3607,
      "ael": 3608,
      "Ġluck": 3609,
      "ĠCOCKS": 3610,
      "Ġintention": 3611,
      "Ġplaces": 3612,
      "Ġ====": 3613,
      "receding": 3614,
      "edy": 3615,
      "Ġdrop": 3616,
      "ĠMost": 3617,
      "ĠCOCKSUCK": 3618,
      "?!": 3619,
      "Ġpick": 3620,
      "Ġtrouble": 3621,
      "Ġteach": 3622,
      "cret": 3623,
      "rief": 3624,
      "ĠOk": 3625,
      "Ġways": 3626,
      "ĠChurch": 3627,
      "uyuyuyuyuyuyuyuy": 3628,
      "ĠWIKIPEDIA": 3629,
      "fe": 3630,
      "iour": 3631,
      "nnnnnnnnnnnnnnnn": 3632,
      "ĠPeople": 3633,
      "anish": 3634,
      "ĠFl": 3635,
      "comp": 3636,
      "Ġdev": 3637,
      "ĠDavid": 3638,
      "lav": 3639,
      "ĠJews": 3640,
      "):": 3641,
      "Ġrad": 3642,
      "Ġcourt": 3643,
      "OB": 3644,
      "Ġmanner": 3645,
      "Ġperform": 3646,
      "Ġbelief": 3647,
      "iting": 3648,
      "rian": 3649,
      "Ġhear": 3650,
      "Ġdiscussing": 3651,
      "ĠDecember": 3652,
      "Ġoccur": 3653,
      "Ġnegative": 3654,
      ")\"": 3655,
      "Ġcoun": 3656,
      "Ġnomination": 3657,
      "Ġfavor": 3658,
      "ĠOctober": 3659,
      "TAB": 3660,
      "ec": 3661,
      "ĠMany": 3662,
      "Ġtrad": 3663,
      "atholic": 3664,
      "Ġjoin": 3665,
      "Ġcunt": 3666,
      "Ġfully": 3667,
      "ression": 3668,
      "ĠTHAT": 3669,
      "ĠAfD": 3670,
      "!!!!!!!!!!!!!!!!!!!!!!!!!!!!!!!!!!!!!!!!!!!!!!!!!!!!!!!!!!!!!!!!": 3671,
      "Ġtend": 3672,
      "Ġstick": 3673,
      "ops": 3674,
      "Ġprot": 3675,
      "Ġobser": 3676,
      "Ġguideline": 3677,
      "ĠMuslim": 3678,
      "Ġpropaganda": 3679,
      "ware": 3680,
      "Ġfat": 3681,
      "Ġkept": 3682,
      "Ġsuggestion": 3683,
      "ĠSeptember": 3684,
      "Ġwarnings": 3685,
      "ĠNovember": 3686,
      "Ġcock": 3687,
      "Ġvalue": 3688,
      "Ġsucks": 3689,
      "Sh": 3690,
      "ifies": 3691,
      "Ġmeets": 3692,
      "Ġexists": 3693,
      "ANN": 3694,
      "Ġbother": 3695,
      "ene": 3696,
      "ĠFin": 3697,
      "Ġvers": 3698,
      "Ġmovie": 3699,
      "Ġhesit": 3700,
      "CE": 3701,
      "yond": 3702,
      "Ġfall": 3703,
      "Ġusage": 3704,
      "KE": 3705,
      "Ġeconom": 3706,
      "ĠCal": 3707,
      "ume": 3708,
      "ured": 3709,
      "Ġcouldn": 3710,
      "Ġcontribution": 3711,
      "Ġreferring": 3712,
      "inese": 3713,
      "Ġbecame": 3714,
      "ham": 3715,
      "lear": 3716,
      "Ġeat": 3717,
      "ĠSUP": 3718,
      "chie": 3719,
      "Ġincident": 3720,
      "NN": 3721,
      "orth": 3722,
      "ays": 3723,
      "ilos": 3724,
      "Ġreferenced": 3725,
      "Ġtroll": 3726,
      "Ġfamiliar": 3727,
      "know": 3728,
      "ingu": 3729,
      "ĠMin": 3730,
      "'''": 3731,
      "ĠGetting": 3732,
      "Ġbastard": 3733,
      "hi": 3734,
      "len": 3735,
      "Ġpain": 3736,
      "ĠItal": 3737,
      "Ġwondering": 3738,
      "Cont": 3739,
      "Ġlik": 3740,
      "under": 3741,
      "Ġremark": 3742,
      "ĠShould": 3743,
      "Ġideas": 3744,
      "Ġbasic": 3745,
      "Ġappreciated": 3746,
      "Ġbot": 3747,
      "Ġpublish": 3748,
      "Ġsexual": 3749,
      "Ġlies": 3750,
      "Ġdesign": 3751,
      "Ġsmells": 3752,
      "Ġbottom": 3753,
      "iff": 3754,
      "ĠNews": 3755,
      "RAPCRAPCRAPCRAPC": 3756,
      "Ġhyp": 3757,
      "Ġlib": 3758,
      "Ġconcerned": 3759,
      "80": 3760,
      "point": 3761,
      "Ġcand": 3762,
      "Ġfit": 3763,
      "Ġbrought": 3764,
      "Ġhuge": 3765,
      "ĠEvery": 3766,
      "Ġepisode": 3767,
      "Ġpaper": 3768,
      "ources": 3769,
      "Ġcharacters": 3770,
      "Ġestablished": 3771,
      "Ġbar": 3772,
      "ceed": 3773,
      "As": 3774,
      "FC": 3775,
      "ko": 3776,
      "atory": 3777,
      "related": 3778,
      "Ġder": 3779,
      "Ġsuggested": 3780,
      "Ġreleased": 3781,
      "Ġwording": 3782,
      "My": 3783,
      "with": 3784,
      "ening": 3785,
      "ĠMo": 3786,
      "ĠState": 3787,
      "Ġgames": 3788,
      "ĠPar": 3789,
      "istan": 3790,
      "Ġremoval": 3791,
      "Ġtests": 3792,
      "Ġnominated": 3793,
      "Ġcapital": 3794,
      "ĠAnt": 3795,
      "ERE": 3796,
      "Ġsupported": 3797,
      "Ġbehaviour": 3798,
      "Ġquotes": 3799,
      "MM": 3800,
      "aff": 3801,
      "br": 3802,
      "Ġdiv": 3803,
      "ambiguation": 3804,
      "action": 3805,
      "ĠApp": 3806,
      "Ġalt": 3807,
      "ĠIts": 3808,
      "Ġactive": 3809,
      "Ġcontroversial": 3810,
      "45": 3811,
      "LY": 3812,
      "Ġapply": 3813,
      "ga": 3814,
      "estions": 3815,
      "Ġneither": 3816,
      "Com": 3817,
      "Ġ+": 3818,
      "uses": 3819,
      "Ġconduct": 3820,
      "Ġvict": 3821,
      "odes": 3822,
      "Ġimportance": 3823,
      "Ġsatisf": 3824,
      "do": 3825,
      "Ġforum": 3826,
      "Ġhor": 3827,
      "Ġce": 3828,
      "Ġclaimed": 3829,
      "bar": 3830,
      "cest": 3831,
      "ĠWas": 3832,
      "Ġtopics": 3833,
      "99": 3834,
      "enn": 3835,
      "Ġseeing": 3836,
      "Ġincre": 3837,
      "Ġfixed": 3838,
      "Ġconcern": 3839,
      "ka": 3840,
      "icit": 3841,
      "====": 3842,
      "Ġdemonstr": 3843,
      "Ġridiculous": 3844,
      "60": 3845,
      "Ġcontributors": 3846,
      "Ġaccusations": 3847,
      "Ġtypes": 3848,
      "KK": 3849,
      "ustr": 3850,
      "Ġnobody": 3851,
      "Ġpresented": 3852,
      "Ġpreviously": 3853,
      "Ġbase": 3854,
      "Ġweight": 3855,
      "itation": 3856,
      "ows": 3857,
      "ANS": 3858,
      "Ġyours": 3859,
      "rary": 3860,
      "Ġled": 3861,
      "Ġservice": 3862,
      "Ġokay": 3863,
      "Ġreceived": 3864,
      "ids": 3865,
      "Ġcell": 3866,
      "Ġmostly": 3867,
      "Ġjoke": 3868,
      "Ġadvertising": 3869,
      "27": 3870,
      "Ġlow": 3871,
      "Ġjournal": 3872,
      "Ġ{|": 3873,
      "ĠFebruary": 3874,
      "',": 3875,
      "Ġshare": 3876,
      "Ġcompan": 3877,
      "Ġprinc": 3878,
      "ĠMacedon": 3879,
      "emplate": 3880,
      "Ġnear": 3881,
      "Ġleaving": 3882,
      "Ġwebsites": 3883,
      "We": 3884,
      "Ġthous": 3885,
      "esis": 3886,
      "Ġage": 3887,
      "Be": 3888,
      "oll": 3889,
      "ifying": 3890,
      "adding": 3891,
      "Un": 3892,
      "light": 3893,
      "orge": 3894,
      "Ġimag": 3895,
      "Ġparts": 3896,
      "Ġinvolve": 3897,
      "Ġuploading": 3898,
      "1111111111111111": 3899,
      "ping": 3900,
      "Ġsomebody": 3901,
      "Ġtelling": 3902,
      "Ġmovement": 3903,
      "Ġnigger": 3904,
      "Ġcampaign": 3905,
      "Ġhesitate": 3906,
      "ĠPres": 3907,
      "ciety": 3908,
      "Ġinterview": 3909,
      "ĠIndian": 3910,
      "!)": 3911,
      "ĠBel": 3912,
      "ĠJe": 3913,
      "Ġagend": 3914,
      "Ġshowing": 3915,
      "leading": 3916,
      "Ġcomb": 3917,
      "Ġtrust": 3918,
      "Ġrealize": 3919,
      "Ġacademic": 3920,
      "Ġdie": 3921,
      "ECK": 3922,
      "ades": 3923,
      "Ġsounds": 3924,
      "ILL": 3925,
      "mi": 3926,
      "Ġseason": 3927,
      "Ġdeg": 3928,
      "ĠCanada": 3929,
      "ENT": 3930,
      "Ġsad": 3931,
      "Ġblat": 3932,
      "Ġmaintain": 3933,
      "ern": 3934,
      "Ġanim": 3935,
      "Ġhost": 3936,
      "Ġbroad": 3937,
      "Ġbeginning": 3938,
      "GA": 3939,
      "Ġsend": 3940,
      "ĠAcc": 3941,
      "ivility": 3942,
      "Ġreality": 3943,
      "Ġrepeatedly": 3944,
      "Ġlegitimate": 3945,
      "omb": 3946,
      "ho": 3947,
      "Ġachie": 3948,
      "isions": 3949,
      "ĠCount": 3950,
      "Ġrole": 3951,
      "ĠDICK": 3952,
      "Ġthread": 3953,
      "itable": 3954,
      "Ġsomewhere": 3955,
      "PS": 3956,
      "ĠDes": 3957,
      "Ġknew": 3958,
      "reedom": 3959,
      "Ġpractice": 3960,
      "ĠSchool": 3961,
      "Ġglad": 3962,
      "ĠCity": 3963,
      "Ġfactual": 3964,
      "Ġspam": 3965,
      "eared": 3966,
      "ya": 3967,
      "style": 3968,
      "Ġspelling": 3969,
      "Ġracist": 3970,
      "Ġlabel": 3971,
      "helpme": 3972,
      "De": 3973,
      "Ġlate": 3974,
      "Ġintended": 3975,
      "ript": 3976,
      "Ġwidth": 3977,
      "Ġdom": 3978,
      "Ġla": 3979,
      "ulations": 3980,
      "Ġguide": 3981,
      "Ġinstance": 3982,
      "inks": 3983,
      "ĠRussian": 3984,
      "Ġimmediately": 3985,
      "Hello": 3986,
      "ality": 3987,
      "ĠOR": 3988,
      "Ġassist": 3989,
      "Ġconfused": 3990,
      "erv": 3991,
      "ĠGreat": 3992,
      "ĠStop": 3993,
      "Ass": 3994,
      "BS": 3995,
      "Ġturn": 3996,
      "Ġhappens": 3997,
      "Ġdespite": 3998,
      "ĠTurk": 3999,
      "well": 4000,
      "cel": 4001,
      "Ġsuffic": 4002,
      "Ġchecking": 4003,
      "Ġauthority": 4004,
      "rap": 4005,
      "Ġlength": 4006,
      "ullshit": 4007,
      "Ġphrase": 4008,
      "///": 4009,
      "hib": 4010,
      "Ġoffer": 4011,
      "Ġlanguages": 4012,
      "ĠTw": 4013,
      "Ġaspect": 4014,
      "Ġcond": 4015,
      "ills": 4016,
      "HT": 4017,
      "Ġ>": 4018,
      "ened": 4019,
      "Ġpun": 4020,
      "Ġchalle": 4021,
      "67": 4022,
      "tr": 4023,
      "Ġcontroversy": 4024,
      "Ġcast": 4025,
      "stream": 4026,
      "ĠMOTH": 4027,
      "arded": 4028,
      "azine": 4029,
      "Ġadmit": 4030,
      "ĠRed": 4031,
      "Ġvertical": 4032,
      "/////": 4033,
      "ĠSerb": 4034,
      "lin": 4035,
      "Ġbrief": 4036,
      "ĠAng": 4037,
      "roat": 4038,
      "that": 4039,
      "ĠJesus": 4040,
      "ĠAlthough": 4041,
      "Ġrefrain": 4042,
      "Ġconstructive": 4043,
      "Ġpermission": 4044,
      "Ġbeyond": 4045,
      "entially": 4046,
      "Ġreverts": 4047,
      "Ġsyn": 4048,
      "Ġcommunic": 4049,
      "Request": 4050,
      "Ġreturn": 4051,
      "Ġcandid": 4052,
      "Ġbirth": 4053,
      "Ġancest": 4054,
      "Ġnet": 4055,
      "Ġnight": 4056,
      "Ġstruct": 4057,
      "urt": 4058,
      "Ġfront": 4059,
      "Ġunsourced": 4060,
      "Ġfeatured": 4061,
      "So": 4062,
      "Ġack": 4063,
      "Ġsla": 4064,
      "Ġ-)": 4065,
      "Ġclaiming": 4066,
      "ĠPort": 4067,
      "raft": 4068,
      "iously": 4069,
      "Ġincludes": 4070,
      "77": 4071,
      "Oh": 4072,
      "rep": 4073,
      "aging": 4074,
      "Ġexc": 4075,
      "Ġrecommend": 4076,
      "ĠSUPER": 4077,
      "Ġsal": 4078,
      "Ġpuppet": 4079,
      "egr": 4080,
      "ze": 4081,
      "inent": 4082,
      "erry": 4083,
      "ĠMon": 4084,
      "const": 4085,
      "Ġvisit": 4086,
      "ilosoph": 4087,
      "ĠFre": 4088,
      "Ġdisplay": 4089,
      "ĠGermany": 4090,
      "WP": 4091,
      "Ġvia": 4092,
      "Ġplayed": 4093,
      "\":": 4094,
      "Ġwhose": 4095,
      "Ġrefers": 4096,
      "Ġsecondary": 4097,
      "Ġboard": 4098,
      "ĠÐ": 4099,
      "Ġclicking": 4100,
      "Ġextremely": 4101,
      "Ġcompanies": 4102,
      "28": 4103,
      "Do": 4104,
      "rr": 4105,
      "Ġland": 4106,
      "Ġmerge": 4107,
      "Ġjudge": 4108,
      "apers": 4109,
      "Ġnumerous": 4110,
      "gar": 4111,
      "Ġstating": 4112,
      "ĠPaul": 4113,
      "Ġalleg": 4114,
      "class": 4115,
      "ocrat": 4116,
      "ECKS": 4117,
      "Ġacknow": 4118,
      "Ġpsych": 4119,
      "Ġprint": 4120,
      "TSECKS": 4121,
      "Ġkilled": 4122,
      "Ġstraight": 4123,
      "?\"\"": 4124,
      "cil": 4125,
      "ken": 4126,
      "anced": 4127,
      "Ġnat": 4128,
      "Ġge": 4129,
      "Ġrandom": 4130,
      "Ġstarting": 4131,
      "AME": 4132,
      "ĠBUTTSECKS": 4133,
      "ST": 4134,
      "Ġspl": 4135,
      "Ġfem": 4136,
      "ĠAR": 4137,
      "ĠKore": 4138,
      "Ġpersons": 4139,
      "Ad": 4140,
      "Ġredu": 4141,
      "ĠSam": 4142,
      "Ġmeas": 4143,
      "urg": 4144,
      "Ġpoop": 4145,
      "istics": 4146,
      "undred": 4147,
      "Ġwater": 4148,
      "Ġparent": 4149,
      "igher": 4150,
      "Ġvs": 4151,
      "Ġchoose": 4152,
      "Ġstudents": 4153,
      "Ġtrack": 4154,
      "WikiProject": 4155,
      "ih": 4156,
      "ius": 4157,
      "orrow": 4158,
      "Ġchurch": 4159,
      "ĠUs": 4160,
      "Ġ2013": 4161,
      "Ġsett": 4162,
      "Ġx": 4163,
      "ously": 4164,
      "Ġhomo": 4165,
      "tw": 4166,
      "esides": 4167,
      "Ġconnection": 4168,
      "Ġagenda": 4169,
      "rees": 4170,
      "itution": 4171,
      "ĠII": 4172,
      "FFFA": 4173,
      "Ġprotection": 4174,
      "Ġcategories": 4175,
      "apt": 4176,
      "ino": 4177,
      "Ġtown": 4178,
      "iven": 4179,
      "ersonal": 4180,
      "Ġreput": 4181,
      "Ġten": 4182,
      "ae": 4183,
      "zy": 4184,
      "ĠLike": 4185,
      "Ġ2014": 4186,
      "Sorry": 4187,
      "UM": 4188,
      "ĠSup": 4189,
      "ĠJames": 4190,
      "Ġimm": 4191,
      "Ġintent": 4192,
      "orship": 4193,
      "aut": 4194,
      "fortunately": 4195,
      "Ġcal": 4196,
      "Ġareas": 4197,
      "ĠBlack": 4198,
      "Ġupdated": 4199,
      "ĠEuropean": 4200,
      "Ġtouch": 4201,
      "Ġinput": 4202,
      "Ġlie": 4203,
      "Ġheav": 4204,
      "Ġchecked": 4205,
      "Ġcrap": 4206,
      "IV": 4207,
      "ience": 4208,
      "yl": 4209,
      "ĠHE": 4210,
      "Ġregist": 4211,
      "protect": 4212,
      "Ġphotos": 4213,
      "AW": 4214,
      "DY": 4215,
      "ilt": 4216,
      "ĠJack": 4217,
      "Ġencyclopedic": 4218,
      "2010": 4219,
      "Ġdistin": 4220,
      "Ġlimited": 4221,
      "Ġdestroy": 4222,
      "ĠDONT": 4223,
      "An": 4224,
      "wiki": 4225,
      "Ġinn": 4226,
      "ara": 4227,
      "Ġshared": 4228,
      "ĠEngland": 4229,
      "Ġfailed": 4230,
      "ĠFUCKER": 4231,
      "ĠCommun": 4232,
      "pen": 4233,
      "ĠFile": 4234,
      "Ġsuggestions": 4235,
      "Ġpure": 4236,
      "Ġdecl": 4237,
      "Ġintellig": 4238,
      "Ġcontrad": 4239,
      "onna": 4240,
      "Ġhouse": 4241,
      "Ġ27": 4242,
      "Ġfunny": 4243,
      "aa": 4244,
      "Ġgra": 4245,
      "ĠWest": 4246,
      "ĠHigh": 4247,
      "Ġblood": 4248,
      "ALK": 4249,
      "Ex": 4250,
      "iated": 4251,
      "Ġho": 4252,
      "ĠCour": 4253,
      "Ġthinks": 4254,
      "Ġgrow": 4255,
      "Ġfeed": 4256,
      "Welcome": 4257,
      "Ġfelt": 4258,
      "Ġhop": 4259,
      "idge": 4260,
      "ste": 4261,
      "Ġgod": 4262,
      "Ġpointed": 4263,
      "Ġinsist": 4264,
      "ushing": 4265,
      "Ġfinding": 4266,
      "Ġkeeping": 4267,
      "TWAT": 4268,
      "ray": 4269,
      "Ġson": 4270,
      "Ġsold": 4271,
      "Ġcompet": 4272,
      "ĠChinese": 4273,
      "Ġmisleading": 4274,
      "Ġfollowed": 4275,
      "Ġproposal": 4276,
      "Articles": 4277,
      "Ġtar": 4278,
      "Ġtone": 4279,
      "Ġhundred": 4280,
      "formation": 4281,
      "Ġresolution": 4282,
      "Ġcomprom": 4283,
      "Ġlogged": 4284,
      "Ġminutes": 4285,
      "Ġreferred": 4286,
      "Ġstrongly": 4287,
      "LD": 4288,
      "mon": 4289,
      "ĠHind": 4290,
      "accur": 4291,
      "Ġwatching": 4292,
      "Ġmoving": 4293,
      "fered": 4294,
      "ittee": 4295,
      "Ġaccused": 4296,
      "ĠHAVE": 4297,
      "Ġcant": 4298,
      "Ġsomewhat": 4299,
      "opyright": 4300,
      "bi": 4301,
      "iant": 4302,
      "Ġnotes": 4303,
      "Ġadditions": 4304,
      "Ġagreed": 4305,
      "Ġeye": 4306,
      "ky": 4307,
      "itional": 4308,
      "IST": 4309,
      "::::": 4310,
      "ĠArticles": 4311,
      "ĠJapanese": 4312,
      "gas": 4313,
      "ĠCy": 4314,
      "ĠFI": 4315,
      "Ġfairly": 4316,
      "ĠComp": 4317,
      "Ġslight": 4318,
      "For": 4319,
      "reland": 4320,
      "imedia": 4321,
      "ĠDem": 4322,
      "ĠTherefore": 4323,
      "alest": 4324,
      "oke": 4325,
      "owers": 4326,
      "ondon": 4327,
      "Ġelsewhere": 4328,
      "Ġconsidering": 4329,
      "ossible": 4330,
      "OUS": 4331,
      "AGE": 4332,
      "ises": 4333,
      "isation": 4334,
      "ĠMedia": 4335,
      "ube": 4336,
      "some": 4337,
      "quently": 4338,
      "Ġanywhere": 4339,
      "Ġchoice": 4340,
      "Ġapplic": 4341,
      "Ġexplicit": 4342,
      "Ġpositive": 4343,
      "Ġclosed": 4344,
      "Ġrelationship": 4345,
      "rog": 4346,
      "oper": 4347,
      "alled": 4348,
      "Ġseek": 4349,
      "Ġregion": 4350,
      "alent": 4351,
      "upport": 4352,
      "Ġeyes": 4353,
      "Ġperfectly": 4354,
      "tt": 4355,
      "Ġreject": 4356,
      "vey": 4357,
      "Ġgirl": 4358,
      "astered": 4359,
      "ĠRec": 4360,
      "Ġefforts": 4361,
      "atives": 4362,
      "Ġdates": 4363,
      "Ġwhom": 4364,
      "ĠPH": 4365,
      "ĠMet": 4366,
      "uman": 4367,
      "Ġattribut": 4368,
      "ysis": 4369,
      "Ġreplaced": 4370,
      "Ġraised": 4371,
      "36": 4372,
      "Ġkey": 4373,
      "Ġexperimenting": 4374,
      "ĠBad": 4375,
      "hetic": 4376,
      "Ġbasically": 4377,
      "Ġlocated": 4378,
      "29": 4379,
      "à¤": 4380,
      "Ġhigher": 4381,
      "Ġforgot": 4382,
      "lobal": 4383,
      "icken": 4384,
      "atively": 4385,
      "Ġanonymous": 4386,
      "Ġlos": 4387,
      "Ġgoogle": 4388,
      "ĠCatholic": 4389,
      "Ġheld": 4390,
      "Ġtrain": 4391,
      "Ġdefend": 4392,
      "Ġeasier": 4393,
      "TC": 4394,
      "Ġcompar": 4395,
      "Ġimproving": 4396,
      "Ġengine": 4397,
      "Ġut": 4398,
      "Ġwaste": 4399,
      "Ġtitles": 4400,
      "Ġlogic": 4401,
      "Ġlicens": 4402,
      "Ġparticipate": 4403,
      "ĠMichael": 4404,
      "21": 4405,
      "New": 4406,
      "Ġfather": 4407,
      "ĠBen": 4408,
      "Ġhealth": 4409,
      "âĢĵ": 4410,
      "Ġcopyrighted": 4411,
      "urb": 4412,
      "Ġreached": 4413,
      "Ġconform": 4414,
      "ĠCor": 4415,
      "Ġunlike": 4416,
      "anted": 4417,
      "Ġsubjects": 4418,
      "FFFF": 4419,
      "Don": 4420,
      "Ġil": 4421,
      "raid": 4422,
      "...\"\"": 4423,
      "Ġseemed": 4424,
      "Ġrock": 4425,
      "Ġthoughts": 4426,
      "See": 4427,
      "Ġsens": 4428,
      "ĠRel": 4429,
      "ĠRight": 4430,
      "Ġsoft": 4431,
      "Ġworse": 4432,
      "ĠChar": 4433,
      "Ġmix": 4434,
      "istor": 4435,
      "ĠMal": 4436,
      "Ġspeech": 4437,
      "Ġadditional": 4438,
      "Ġdetermin": 4439,
      "known": 4440,
      "%\"\"": 4441,
      "44": 4442,
      "cle": 4443,
      "ĠRo": 4444,
      "Ġrunning": 4445,
      "].": 4446,
      "mine": 4447,
      "ram": 4448,
      "width": 4449,
      "Ġ:": 4450,
      "Ġcorre": 4451,
      "Ġpush": 4452,
      "Ġang": 4453,
      "stood": 4454,
      "ift": 4455,
      "ĠFOR": 4456,
      "Ġ26": 4457,
      "Ġpolice": 4458,
      "Ġgramm": 4459,
      "Ġdig": 4460,
      "ĠWW": 4461,
      "olf": 4462,
      "Ġability": 4463,
      "Ġrequested": 4464,
      "199": 4465,
      "Ġlaws": 4466,
      "Ġprotected": 4467,
      "Ġbands": 4468,
      "Ġundo": 4469,
      "Ġemploy": 4470,
      "ĠIrish": 4471,
      "Ġ~": 4472,
      "Ġsn": 4473,
      "Ġforget": 4474,
      "artment": 4475,
      "Ġpromote": 4476,
      "Ġfinally": 4477,
      "Ġquickly": 4478,
      "Ġnormal": 4479,
      "Ġsize": 4480,
      "Ġdumb": 4481,
      "Ġyoung": 4482,
      "Ġrace": 4483,
      "ĠCOM": 4484,
      "force": 4485,
      "Ġacting": 4486,
      "Ġreviewed": 4487,
      "Ġupdate": 4488,
      "ĠGeorge": 4489,
      "Ġboy": 4490,
      "Ġens": 4491,
      "Ġspeaking": 4492,
      "ĠChina": 4493,
      "down": 4494,
      "ĠIreland": 4495,
      "Ġlines": 4496,
      "ĠTR": 4497,
      "Ġstalk": 4498,
      "osex": 4499,
      "Ġcode": 4500,
      "asion": 4501,
      "Ġhelping": 4502,
      "Ġbiographies": 4503,
      "ĠUSA": 4504,
      "Ġdraw": 4505,
      "ĠCons": 4506,
      "Ġintroduction": 4507,
      "Ġcovered": 4508,
      "ĠCong": 4509,
      "Ġexistence": 4510,
      "ĠCARE": 4511,
      "26": 4512,
      "Ġbold": 4513,
      "ĠRich": 4514,
      "ĠEast": 4515,
      "Ġthreats": 4516,
      "Questions": 4517,
      "RC": 4518,
      "fuck": 4519,
      "\"\")": 4520,
      "Ġestablish": 4521,
      "War": 4522,
      "Ġple": 4523,
      "ĠBlock": 4524,
      "pped": 4525,
      "Ġoffensive": 4526,
      "Ġcareful": 4527,
      "Ġinterpretation": 4528,
      "ĠKeep": 4529,
      "ĠMor": 4530,
      "Ġvill": 4531,
      "Ġtruly": 4532,
      "Ġprovides": 4533,
      "ruction": 4534,
      "Ġsentences": 4535,
      "Ġshortly": 4536,
      "Ġcounter": 4537,
      "osexual": 4538,
      "List": 4539,
      "oul": 4540,
      "astic": 4541,
      "ĠAlex": 4542,
      "ĠHer": 4543,
      "ĠHol": 4544,
      "Ġcontains": 4545,
      "ITH": 4546,
      "ITCH": 4547,
      "ĠDeletion": 4548,
      "Ġcollabor": 4549,
      "ued": 4550,
      "Ġaud": 4551,
      "IGHT": 4552,
      "ĠAc": 4553,
      "Ġdeep": 4554,
      "Ġrude": 4555,
      "law": 4556,
      "Ġmatters": 4557,
      "Ġrequires": 4558,
      "Ġcoverage": 4559,
      "PA": 4560,
      "Ġrepl": 4561,
      "ĠLat": 4562,
      "Ġfamous": 4563,
      "Ġafraid": 4564,
      "Ġerrors": 4565,
      "ergy": 4566,
      "Ġappeared": 4567,
      "Ġcolor": 4568,
      "Ġinternational": 4569,
      "Ġreve": 4570,
      "Ġconvers": 4571,
      "ception": 4572,
      "ĠBLOCK": 4573,
      "DIT": 4574,
      "Ġsan": 4575,
      "Ġdi": 4576,
      "Ġsomehow": 4577,
      "Ġworry": 4578,
      "ibal": 4579,
      "ĠAnother": 4580,
      "Ġplaying": 4581,
      "AMN": 4582,
      "Ġterrit": 4583,
      "Ġalternative": 4584,
      "48": 4585,
      "ĨĴ": 4586,
      "Ġdied": 4587,
      "ican": 4588,
      "Ġunne": 4589,
      "Ġpeer": 4590,
      "lands": 4591,
      "MIN": 4592,
      "Ġgain": 4593,
      "ĠBill": 4594,
      "ership": 4595,
      "Ġmath": 4596,
      "ĠArb": 4597,
      "etic": 4598,
      "uel": 4599,
      "Ġbul": 4600,
      "Ġinaccur": 4601,
      "ĠSan": 4602,
      "ĠDay": 4603,
      "pective": 4604,
      "Ġbiography": 4605,
      "Ġdevelopment": 4606,
      "Ġnewspaper": 4607,
      "fact": 4608,
      "Ġsca": 4609,
      "ĠTAB": 4610,
      "amer": 4611,
      "Ġrange": 4612,
      "Ġalle": 4613,
      "rack": 4614,
      "Ġspread": 4615,
      "Ġapologize": 4616,
      "ĠCOCKSUCKER": 4617,
      "35": 4618,
      "ria": 4619,
      "Ġ$": 4620,
      "Ġcross": 4621,
      "ĠAB": 4622,
      "ĠSun": 4623,
      "Ġindef": 4624,
      "Ġtagging": 4625,
      "Ġsuppose": 4626,
      "ĠArch": 4627,
      "OLE": 4628,
      "Ġoccup": 4629,
      "Ġfellow": 4630,
      "tice": 4631,
      "ander": 4632,
      "ĠLa": 4633,
      "ĠUnfortunately": 4634,
      "ĠRussia": 4635,
      "db": 4636,
      "ĠBITCH": 4637,
      "ĠLaw": 4638,
      "ĠSte": 4639,
      "ĠAccording": 4640,
      "Ġsolution": 4641,
      "Ġfire": 4642,
      "ĠParty": 4643,
      "lace": 4644,
      "ewish": 4645,
      "JER": 4646,
      "ining": 4647,
      "orough": 4648,
      "Ġmiddle": 4649,
      "Ġentries": 4650,
      "uppets": 4651,
      "Ġcriterion": 4652,
      "Ġrestored": 4653,
      "Ġfootball": 4654,
      "ONGO": 4655,
      "Ġhitler": 4656,
      "ĠMOTHJER": 4657,
      "Ġord": 4658,
      "Ġproviding": 4659,
      "Ġreports": 4660,
      "Ġcircum": 4661,
      "42": 4662,
      "Ġbunch": 4663,
      "ĠCr": 4664,
      "ĠMag": 4665,
      "ĠMark": 4666,
      "ĠDear": 4667,
      "Ġunre": 4668,
      "ĠRequest": 4669,
      "ĠArmen": 4670,
      "Ġharm": 4671,
      "ĠBLP": 4672,
      "Ġmentions": 4673,
      "PG": 4674,
      "UL": 4675,
      "ĠDAMN": 4676,
      "Ġcorrectly": 4677,
      "ALIS": 4678,
      "Ġpet": 4679,
      "ĠPers": 4680,
      "Ġappeal": 4681,
      "ĠWhich": 4682,
      "Ġmainstream": 4683,
      "Ġprofessional": 4684,
      "BO": 4685,
      "Ġfol": 4686,
      "ĠBo": 4687,
      "Ġ28": 4688,
      "ritten": 4689,
      "erman": 4690,
      "37": 4691,
      "Ġgonna": 4692,
      "orts": 4693,
      "Ġindust": 4694,
      "Ġproven": 4695,
      "Ġbattle": 4696,
      "ĠAL": 4697,
      "image": 4698,
      "ief": 4699,
      "Ġblocks": 4700,
      "ĠInc": 4701,
      "Ġpron": 4702,
      "OC": 4703,
      "Ġodd": 4704,
      "Ġancient": 4705,
      "ĠEv": 4706,
      "Ġ2003": 4707,
      "ĠReview": 4708,
      "Ġvictim": 4709,
      "Ġsick": 4710,
      "adian": 4711,
      "Ġconclusion": 4712,
      "ĠBarnstar": 4713,
      "oses": 4714,
      "ĠRead": 4715,
      "Ġsupporting": 4716,
      "Ġdisputed": 4717,
      "ruption": 4718,
      "ĠInternet": 4719,
      "\",": 4720,
      ".[": 4721,
      "68": 4722,
      "revert": 4723,
      "agon": 4724,
      "ctor": 4725,
      "Ġconspir": 4726,
      "Ġaddressed": 4727,
      "Ġoriginally": 4728,
      "38": 4729,
      "Cau": 4730,
      "TM": 4731,
      "Â´": 4732,
      "Ġtax": 4733,
      "Ġ(\"\"": 4734,
      "Ġrul": 4735,
      "Ġcontents": 4736,
      "Ġphilosoph": 4737,
      "Ġbelongs": 4738,
      "ĠPresident": 4739,
      "CauSe": 4740,
      "39": 4741,
      "Ġball": 4742,
      "Ġprogress": 4743,
      "GGT": 4744,
      "Ġbuilding": 4745,
      "08": 4746,
      "can": 4747,
      "pace": 4748,
      "ĠaRe": 4749,
      "rey": 4750,
      "ĠFGGT": 4751,
      "asty": 4752,
      "ĠSov": 4753,
      "ND": 4754,
      "cies": 4755,
      "ciation": 4756,
      "Ġhardly": 4757,
      "Ġunblocked": 4758,
      "hr": 4759,
      "iate": 4760,
      "irm": 4761,
      "ĠFran": 4762,
      "Ġattitude": 4763,
      "Ġmentioning": 4764,
      "Ġcitiz": 4765,
      "Ġlots": 4766,
      "Ġsufficient": 4767,
      "cast": 4768,
      "Ġsilly": 4769,
      "user": 4770,
      "Ġbegan": 4771,
      "ĠTimes": 4772,
      "ĠHouse": 4773,
      "Ġheil": 4774,
      "ĠJud": 4775,
      "Ġfigures": 4776,
      "Ġindividuals": 4777,
      "Ġtool": 4778,
      "Ġnation": 4779,
      "ĠCroat": 4780,
      "Ġcaused": 4781,
      "Ġinfluence": 4782,
      "ien": 4783,
      "Ġsix": 4784,
      "Ġren": 4785,
      "ĠCur": 4786,
      "izations": 4787,
      "Ġdouble": 4788,
      "Ġdealing": 4789,
      "ĠActually": 4790,
      "Ġassociated": 4791,
      "ORE": 4792,
      "Ġparties": 4793,
      "........": 4794,
      "ĠWikipedians": 4795,
      "ĠAfrican": 4796,
      "hh": 4797,
      "reh": 4798,
      "ĠWales": 4799,
      "irit": 4800,
      "Ġchicken": 4801,
      "ĠEmp": 4802,
      "Ġcontributor": 4803,
      "Ġcommer": 4804,
      "Ġletter": 4805,
      "Ġkeeps": 4806,
      "Ġbenefit": 4807,
      "Assad": 4808,
      "34": 4809,
      "PR": 4810,
      "Ġthats": 4811,
      "cluding": 4812,
      "Ġtwice": 4813,
      "Ġverify": 4814,
      "Ġtriv": 4815,
      "%;": 4816,
      "win": 4817,
      "Ġtheories": 4818,
      "ĠYeah": 4819,
      "ĠLondon": 4820,
      "iance": 4821,
      "ĠANI": 4822,
      "ĠSpanish": 4823,
      "Ġexperienced": 4824,
      "Ġconsistent": 4825,
      "oly": 4826,
      "Ġcat": 4827,
      "Ġlay": 4828,
      "Ġasser": 4829,
      "Ġ29": 4830,
      "Ġhelps": 4831,
      "Ġassess": 4832,
      "Ġinvolvement": 4833,
      "Americ": 4834,
      "Ġfreedom": 4835,
      "ĠWE": 4836,
      "chan": 4837,
      "ĠPolic": 4838,
      "Ġadop": 4839,
      "ĠVer": 4840,
      "ATION": 4841,
      "Ġwarned": 4842,
      "âĻ": 4843,
      "Ġanybody": 4844,
      "Ġsmart": 4845,
      "Ġtranslation": 4846,
      "uke": 4847,
      "ederal": 4848,
      "sec": 4849,
      "Ġintegr": 4850,
      "Ġuserpage": 4851,
      "Ġspend": 4852,
      "Ġdetailed": 4853,
      "iverse": 4854,
      "55": 4855,
      "SH": 4856,
      "yan": 4857,
      "Ġrom": 4858,
      "ĠBig": 4859,
      "Ġopposed": 4860,
      "Ġprivate": 4861,
      "Ġsurprised": 4862,
      "Ġdegree": 4863,
      "riv": 4864,
      "Ġfool": 4865,
      "ĠAlban": 4866,
      "OOOO": 4867,
      "Ġdeserve": 4868,
      "ĠADMIN": 4869,
      "Ġcontradict": 4870,
      "Sm": 4871,
      "iqu": 4872,
      "Ġtacos": 4873,
      "vere": 4874,
      "ĠBi": 4875,
      "ille": 4876,
      "Ġchart": 4877,
      "umn": 4878,
      "ĠWHAT": 4879,
      "Ġanalysis": 4880,
      "66": 4881,
      "Fair": 4882,
      "Han": 4883,
      "Preceding": 4884,
      "uous": 4885,
      "ĠID": 4886,
      "ĠSing": 4887,
      "Ġlisting": 4888,
      "ANT": 4889,
      "Ġthroughout": 4890,
      "ĠAmericans": 4891,
      "Ġstudies": 4892,
      "Ġattempts": 4893,
      "Ġmissed": 4894,
      "Ġclarify": 4895,
      "Ġcontinued": 4896,
      "Ġthousands": 4897,
      "Ġpaid": 4898,
      "ustice": 4899,
      "ĠTacos": 4900,
      "roll": 4901,
      "Ġpeace": 4902,
      "Ġilleg": 4903,
      "Ok": 4904,
      "inter": 4905,
      "itler": 4906,
      "ett": 4907,
      "ĠFound": 4908,
      "racy": 4909,
      "ords": 4910,
      "Ġcalls": 4911,
      "Ġsuggesting": 4912,
      "Ġciting": 4913,
      "Ġfunction": 4914,
      "Ġdeny": 4915,
      "Ġwidely": 4916,
      "Ġdomain": 4917,
      "Ġmal": 4918,
      "Ġlock": 4919,
      "ĠDep": 4920,
      "ĠDID": 4921,
      "othing": 4922,
      "Ġviewpoint": 4923,
      "ĠOnce": 4924,
      "Ġmodel": 4925,
      "ĠAustralia": 4926,
      "911": 4927,
      "Ġdisapp": 4928,
      "Ġfac": 4929,
      "Ġpointing": 4930,
      "Ġreasoning": 4931,
      "Ġspent": 4932,
      "Ġcareer": 4933,
      "Ġignored": 4934,
      "Ġmerged": 4935,
      "Ġnar": 4936,
      "ivity": 4937,
      "Ġvandalizing": 4938,
      "ĠOnly": 4939,
      "ĠFrank": 4940,
      "Ġaffect": 4941,
      "lenty": 4942,
      "Ġfundament": 4943,
      "Ġbeg": 4944,
      "ĠPat": 4945,
      "ĠBook": 4946,
      "Ġtalkpage": 4947,
      "osh": 4948,
      "standing": 4949,
      "background": 4950,
      "vir": 4951,
      "iny": 4952,
      "Ġwind": 4953,
      "Ġdisambiguation": 4954,
      "Ġwars": 4955,
      "Ġcost": 4956,
      "Ġcollect": 4957,
      "Ġdeliber": 4958,
      "47": 4959,
      "miss": 4960,
      "Ġevolution": 4961,
      "Ġsave": 4962,
      "Ġconfusing": 4963,
      "ICANS": 4964,
      "Ġconfirmed": 4965,
      "Ġpresident": 4966,
      "Ġannoy": 4967,
      "Ġlatter": 4968,
      "Ġharassment": 4969,
      "ault": 4970,
      ".....": 4971,
      "Ġfiles": 4972,
      "3333": 4973,
      "Ġunnecess": 4974,
      "har": 4975,
      "aker": 4976,
      "Ġpred": 4977,
      "ĠStar": 4978,
      "Ġspecified": 4979,
      "Ġconcerning": 4980,
      "reliable": 4981,
      "Ġblatant": 4982,
      "eg": 4983,
      "Ġpropose": 4984,
      "Ġmagazine": 4985,
      "Ġapplied": 4986,
      "ĠTemplate": 4987,
      "ĠNazi": 4988,
      "ressed": 4989,
      "Ġreviews": 4990,
      "Ġlocation": 4991,
      "ĠAtt": 4992,
      "ĠTrans": 4993,
      "Ġresponsible": 4994,
      "Ġsoftware": 4995,
      "56": 4996,
      "fess": 4997,
      "post": 4998,
      "Ð°": 4999,
      "erk": 5000,
      "Ġwoman": 5001,
      "Ġgun": 5002,
      "ĠPark": 5003,
      "Ġnearly": 5004,
      "Ġsymb": 5005,
      "Ġidentity": 5006,
      "oca": 5007,
      "ĠFair": 5008,
      "Ġhasn": 5009,
      "ptions": 5010,
      "Ġenergy": 5011,
      "Ġcrim": 5012,
      "Ġmedical": 5013,
      "Ġbusy": 5014,
      "ĠFurthermore": 5015,
      "Hanibal": 5016,
      "SS": 5017,
      "Ġsqu": 5018,
      "ictionary": 5019,
      "Some": 5020,
      "hood": 5021,
      "ĠTom": 5022,
      "ires": 5023,
      "Ġ70": 5024,
      "ĠMEX": 5025,
      "rass": 5026,
      "your": 5027,
      "Ġpushing": 5028,
      "Ġlol": 5029,
      "Ġlaugh": 5030,
      "Ġrank": 5031,
      "ISH": 5032,
      "annel": 5033,
      "________________": 5034,
      "stein": 5035,
      "46": 5036,
      "pic": 5037,
      "ĠDa": 5038,
      "Ġproced": 5039,
      "Ġreads": 5040,
      "while": 5041,
      "Ġobjective": 5042,
      "Ġdelay": 5043,
      "Ġcontrary": 5044,
      "ĠBro": 5045,
      "ĠDY": 5046,
      "rible": 5047,
      "leted": 5048,
      "viously": 5049,
      "Ġsignificance": 5050,
      "Ġarbitration": 5051,
      "Ġcompromise": 5052,
      "Ste": 5053,
      "krain": 5054,
      "ali": 5055,
      "Ġnik": 5056,
      "Ġsemi": 5057,
      "Ġjustify": 5058,
      "Ġlisten": 5059,
      "Ġplain": 5060,
      "Ġsummaries": 5061,
      "Ġwishes": 5062,
      "Ġquoted": 5063,
      "ĠOFFFUCK": 5064,
      "ACC": 5065,
      "HH": 5066,
      "phas": 5067,
      "ordin": 5068,
      "ĠRegarding": 5069,
      "Ġsplit": 5070,
      "Can": 5071,
      "Ġearth": 5072,
      "Ġsole": 5073,
      "Ġthrow": 5074,
      "Sex": 5075,
      "bl": 5076,
      "Ġplenty": 5077,
      "Ġda": 5078,
      "Ġlives": 5079,
      "ĠEr": 5080,
      "Ġcopied": 5081,
      "Ġwriter": 5082,
      "Ġstands": 5083,
      "Ġrevision": 5084,
      "Ġhonestly": 5085,
      "Ġversions": 5086,
      "ĠSoviet": 5087,
      "ĠMEXICANS": 5088,
      "54": 5089,
      "ape": 5090,
      "ĠSO": 5091,
      "Ġrice": 5092,
      "Ġaccom": 5093,
      "UST": 5094,
      "porary": 5095,
      "ĠAbout": 5096,
      "Ġlatest": 5097,
      "Ġpotential": 5098,
      "Ġtarget": 5099,
      "Ġ@": 5100,
      "ĠWITH": 5101,
      "ady": 5102,
      "Ġaccident": 5103,
      "Ġconfusion": 5104,
      "Ġdefined": 5105,
      "ĠPhil": 5106,
      "Ġmarket": 5107,
      "Ġdetermine": 5108,
      "Ġstructure": 5109,
      "Ġlower": 5110,
      "ĠWestern": 5111,
      "ĠThose": 5112,
      "ipp": 5113,
      "ĠMONGO": 5114,
      "Ġremains": 5115,
      "Ġspecify": 5116,
      "ĠANY": 5117,
      "ĠSomeone": 5118,
      "Ġignorant": 5119,
      "ux": 5120,
      "Ġsides": 5121,
      "urder": 5122,
      "Ġmisunder": 5123,
      "Ġextra": 5124,
      "Ġminority": 5125,
      "Ġparents": 5126,
      "Ġnikko": 5127,
      ";\"\"": 5128,
      "PIN": 5129,
      "une": 5130,
      "istent": 5131,
      "Ġworst": 5132,
      "Ġgoal": 5133,
      "Ġready": 5134,
      "ITY": 5135,
      "Ġ86": 5136,
      "Ġregardless": 5137,
      "ĠMed": 5138,
      "raw": 5139,
      "Ġauthors": 5140,
      "ENE": 5141,
      "going": 5142,
      "ĠCommons": 5143,
      "Also": 5144,
      "Just": 5145,
      "ĠÃ": 5146,
      "ĠCO": 5147,
      "Ġinstruct": 5148,
      "AAAA": 5149,
      "HOLE": 5150,
      "iers": 5151,
      "ĠPalest": 5152,
      "ĠBul": 5153,
      "Ġrap": 5154,
      "ĠRoy": 5155,
      "Ġprecise": 5156,
      "Ġoffice": 5157,
      "Ġplayers": 5158,
      "Ġarchive": 5159,
      "ĠObama": 5160,
      "Ġnetwork": 5161,
      "Ġcommercial": 5162,
      "ĠDYK": 5163,
      "wood": 5164,
      "za": 5165,
      "Ġbur": 5166,
      "Ġfans": 5167,
      "Ġcredit": 5168,
      "Ġplot": 5169,
      "Ġachieve": 5170,
      "Ġconspiracy": 5171,
      "58": 5172,
      "ĠPost": 5173,
      "Ġheart": 5174,
      "Edit": 5175,
      "Ġri": 5176,
      "Ġfasc": 5177,
      "Ġsuff": 5178,
      "Ġrare": 5179,
      "Ġnecessarily": 5180,
      "Ġcomplaint": 5181,
      "Ġexcuse": 5182,
      "59": 5183,
      "IR": 5184,
      "link": 5185,
      "Ġvoice": 5186,
      "Ġimpossible": 5187,
      "Ġviolate": 5188,
      "Ġretur": 5189,
      "Ġmistakes": 5190,
      "cellent": 5191,
      "itute": 5192,
      "imin": 5193,
      "Ġste": 5194,
      "Ġperspective": 5195,
      "note": 5196,
      "Ġcy": 5197,
      "anch": 5198,
      "Ġnaming": 5199,
      "ida": 5200,
      "Ġsociety": 5201,
      "Ġroom": 5202,
      "Ġdraft": 5203,
      "Ġturned": 5204,
      "Ġscholars": 5205,
      "Ġforeign": 5206,
      "van": 5207,
      "seud": 5208,
      "amil": 5209,
      "ĠPAGE": 5210,
      "ĠLAW": 5211,
      "cussion": 5212,
      "irection": 5213,
      "Ġcritical": 5214,
      "Ġattacking": 5215,
      "rd": 5216,
      "ari": 5217,
      "ĠAir": 5218,
      "rie": 5219,
      "Ġjump": 5220,
      "Ġ2015": 5221,
      "Ġcontinues": 5222,
      "Ġopening": 5223,
      "Ġrepeat": 5224,
      "Ġcriminal": 5225,
      "32": 5226,
      "Ġhair": 5227,
      "Ġregular": 5228,
      "Ġviole": 5229,
      "Ġhands": 5230,
      "41": 5231,
      "ALL": 5232,
      "isk": 5233,
      "Ġrein": 5234,
      "verage": 5235,
      "ĠDec": 5236,
      "Ġpolitics": 5237,
      "ounced": 5238,
      "Ġcrime": 5239,
      "Ġeducation": 5240,
      "ola": 5241,
      "Ġround": 5242,
      "Ġcurious": 5243,
      "Ġeventually": 5244,
      "53": 5245,
      "69": 5246,
      "bre": 5247,
      "Ġant": 5248,
      "ĠBY": 5249,
      "ĠBTW": 5250,
      "Ġrate": 5251,
      "ends": 5252,
      "Ġminim": 5253,
      "Ġaward": 5254,
      "anna": 5255,
      "Ġphotograph": 5256,
      "Ġniggas": 5257,
      "riminal": 5258,
      "Ġfeedback": 5259,
      "ĠEmpire": 5260,
      "ĠAnn": 5261,
      "verse": 5262,
      "ĠNE": 5263,
      "ĠKN": 5264,
      "Ġbrain": 5265,
      "Ġengage": 5266,
      "idden": 5267,
      "Ġequal": 5268,
      "ĠFrance": 5269,
      "Ġencourage": 5270,
      "ĠInstead": 5271,
      "ACCESS": 5272,
      "Ġaim": 5273,
      "ette": 5274,
      "ulated": 5275,
      "raq": 5276,
      "Ġinvent": 5277,
      "Ġ40": 5278,
      "amming": 5279,
      "ĠSpeedy": 5280,
      "Ġfighting": 5281,
      "orter": 5282,
      "ĠThus": 5283,
      "Ġcarefully": 5284,
      "ĠWHY": 5285,
      "ĠInternational": 5286,
      "57": 5287,
      "=)": 5288,
      "Pe": 5289,
      "Ð¾": 5290,
      "Ġwikiped": 5291,
      "lements": 5292,
      "ĠPS": 5293,
      "Ġcomplex": 5294,
      "Ġaltered": 5295,
      "Ġancestry": 5296,
      "Ġconversation": 5297,
      "90": 5298,
      "On": 5299,
      "bel": 5300,
      "ĠEDIT": 5301,
      "accept": 5302,
      "Ġ31": 5303,
      "ĠAnth": 5304,
      "Ġagreement": 5305,
      "ĠsexSex": 5306,
      "ĠWikimedia": 5307,
      "Ġmotiv": 5308,
      "Ed": 5309,
      "inn": 5310,
      "olit": 5311,
      "ĠDENE": 5312,
      "ĠFree": 5313,
      "ĠWhite": 5314,
      "earch": 5315,
      "Ġdisputes": 5316,
      "Ġstudent": 5317,
      "Ġgrammar": 5318,
      "ĠDENEID": 5319,
      "ĠÎ": 5320,
      "version": 5321,
      "ĠCON": 5322,
      "ĠMart": 5323,
      "Ġsurely": 5324,
      "Ġsignature": 5325,
      "Ġmetal": 5326,
      "Ġalleged": 5327,
      "AK": 5328,
      "arm": 5329,
      "iginal": 5330,
      "ĠBra": 5331,
      "ĠHitler": 5332,
      "ĠRock": 5333,
      "Ġgrand": 5334,
      "ĠOtherwise": 5335,
      "Ġshot": 5336,
      "Ġintro": 5337,
      "ribe": 5338,
      "Ġbrother": 5339,
      "rs": 5340,
      "Ġtom": 5341,
      "Ġmid": 5342,
      "utions": 5343,
      "ĠRober": 5344,
      "Ġknowing": 5345,
      "Ġ'''": 5346,
      "Ġlogo": 5347,
      "Ġâĺ": 5348,
      "Ġimprovement": 5349,
      "contribs": 5350,
      "yp": 5351,
      "ĠBush": 5352,
      "Ġremind": 5353,
      "Ġplayer": 5354,
      "ARD": 5355,
      "Ġdemand": 5356,
      "Ġenglish": 5357,
      "ĠKingdom": 5358,
      "Ġliterature": 5359,
      "ocratic": 5360,
      "UE": 5361,
      "ule": 5362,
      "ĠAT": 5363,
      "ĠSure": 5364,
      "ĠCoun": 5365,
      "ortion": 5366,
      "ĠâĢĺ": 5367,
      "Ġrequests": 5368,
      "Ġarguing": 5369,
      "AC": 5370,
      "face": 5371,
      "ĠMer": 5372,
      "ITE": 5373,
      "Ġeditorial": 5374,
      "ĠâĻ": 5375,
      "Ġ;)": 5376,
      "49": 5377,
      "she": 5378,
      "Ġshut": 5379,
      "los": 5380,
      "Ġdisg": 5381,
      "Ġopportun": 5382,
      "FDL": 5383,
      "ĠTurkish": 5384,
      "OD": 5385,
      "Ġcry": 5386,
      "uplic": 5387,
      "Ġamb": 5388,
      "Ġrestore": 5389,
      "Ġadvance": 5390,
      "Ġfilms": 5391,
      "Ġlargest": 5392,
      "ĠFinally": 5393,
      "31": 5394,
      "Jewish": 5395,
      "vo": 5396,
      "Ġpiss": 5397,
      "Ġelection": 5398,
      "ĠAh": 5399,
      "ĠCle": 5400,
      "abe": 5401,
      "Ġimpression": 5402,
      "Ġverified": 5403,
      "who": 5404,
      "Ġimproved": 5405,
      "Ġpathetic": 5406,
      "Ġidentify": 5407,
      "Ġholder": 5408,
      "curity": 5409,
      "Ġtechnical": 5410,
      "Ġ00": 5411,
      "onic": 5412,
      "onment": 5413,
      "Ġfra": 5414,
      "Ġstar": 5415,
      "Ġunable": 5416,
      "Ġstrange": 5417,
      "ĠConst": 5418,
      "Ġpassed": 5419,
      "ĠWilliam": 5420,
      "78": 5421,
      "Ġult": 5422,
      "onest": 5423,
      "olved": 5424,
      "Ġpoll": 5425,
      "Ġdifferences": 5426,
      "Ġsuggests": 5427,
      "Ġviolations": 5428,
      "Ġattempting": 5429,
      "Ġepisodes": 5430,
      "Ġrewrite": 5431,
      "ĠSmith": 5432,
      "Ġexplicitly": 5433,
      ")?": 5434,
      "85": 5435,
      "NPOV": 5436,
      "TER": 5437,
      "gn": 5438,
      "ses": 5439,
      "outhern": 5440,
      "ĠIF": 5441,
      "Ġforth": 5442,
      "ĠCanadian": 5443,
      "fficial": 5444,
      "Ġscholar": 5445,
      "Ġbecoming": 5446,
      "Ġprotest": 5447,
      "Ġbill": 5448,
      "uts": 5449,
      "Ġattacked": 5450,
      "Ġprojects": 5451,
      "Ġmediation": 5452,
      "Steve": 5453,
      "elete": 5454,
      "usive": 5455,
      "irgin": 5456,
      "Ġuniversity": 5457,
      "Ġreporting": 5458,
      "Ġslow": 5459,
      "ĠCheck": 5460,
      "Ġunclear": 5461,
      "Ġprincip": 5462,
      "ĠCourt": 5463,
      "lation": 5464,
      "rad": 5465,
      "Ġpaged": 5466,
      "ston": 5467,
      "ĠBoth": 5468,
      "Ġsuitable": 5469,
      "aby": 5470,
      "Ġperman": 5471,
      "clude": 5472,
      "Ġroll": 5473,
      "istrators": 5474,
      "Ġbecomes": 5475,
      "OK": 5476,
      "Ġdro": 5477,
      "iforn": 5478,
      "Ġnoticeboard": 5479,
      "ĠSUCKS": 5480,
      "Ġschools": 5481,
      "Ġsongs": 5482,
      "ULL": 5483,
      "ios": 5484,
      "net": 5485,
      "oted": 5486,
      "ager": 5487,
      "!!'": 5488,
      "ĠNY": 5489,
      "rior": 5490,
      "ula": 5491,
      "Ġhey": 5492,
      "Ġcompreh": 5493,
      "ocracy": 5494,
      "Ġneutrality": 5495,
      "ĠItalian": 5496,
      "Ġreveal": 5497,
      "Cl": 5498,
      "ĠThom": 5499,
      "ĠMat": 5500,
      "Ġpeoples": 5501,
      "Ġformal": 5502,
      "ĠQue": 5503,
      "Ġcarry": 5504,
      "ĠLAWDY": 5505,
      "Ġpagedelete": 5506,
      "Ġincomp": 5507,
      "imately": 5508,
      "ĠCriminal": 5509,
      "Ġmyth": 5510,
      "Ġsourcing": 5511,
      "aste": 5512,
      "ĠKh": 5513,
      "Ġconserv": 5514,
      "OULD": 5515,
      "ugs": 5516,
      "Ġhopefully": 5517,
      "Ġlarger": 5518,
      "Ġtrolling": 5519,
      "76": 5520,
      "SD": 5521,
      "bor": 5522,
      "alt": 5523,
      "ĠPak": 5524,
      "Ġrout": 5525,
      "Ġevil": 5526,
      "Ġ71": 5527,
      "Ġpublication": 5528,
      "Ġassuming": 5529,
      "Ġlearning": 5530,
      "Ġhundreds": 5531,
      "Con": 5532,
      "field": 5533,
      "Ġhat": 5534,
      "Ġrevers": 5535,
      "Ġlived": 5536,
      "berg": 5537,
      "Ġspirit": 5538,
      "Ġdecla": 5539,
      "Ġobjections": 5540,
      "Ġdamn": 5541,
      "Ġexpanded": 5542,
      "Ġapplies": 5543,
      "Ġimagine": 5544,
      "ĠFIRE": 5545,
      "gg": 5546,
      "Ġstation": 5547,
      "ĠPI": 5548,
      "soever": 5549,
      "Ġcorrected": 5550,
      "Ġconstruct": 5551,
      "Ġinaccurate": 5552,
      "Ġunnecessary": 5553,
      "?\"": 5554,
      "cious": 5555,
      "ĠIraq": 5556,
      "Ġhot": 5557,
      "Ġhide": 5558,
      "article": 5559,
      "ĠTALK": 5560,
      "rovers": 5561,
      "ĠSk": 5562,
      "ĠSoc": 5563,
      "ellect": 5564,
      "ĠJones": 5565,
      "ĠUP": 5566,
      "ĠUp": 5567,
      "Ġcontributed": 5568,
      "Ġbio": 5569,
      "levision": 5570,
      "esterday": 5571,
      "Ġactivity": 5572,
      "ĠRfA": 5573,
      "ĠRfC": 5574,
      "represent": 5575,
      "Good": 5576,
      "thew": 5577,
      "Ġunivers": 5578,
      "ĠLOS": 5579,
      "ĠKen": 5580,
      "Ġshowed": 5581,
      "ampions": 5582,
      "Ġparagraphs": 5583,
      "Ġartist": 5584,
      "Ġhomosexual": 5585,
      "ĠPolish": 5586,
      "uyuyuyuyuyuyuyuyuyuyuyuyuyuyuyuy": 5587,
      "nnnnnnnnnnnnnnnnnnnnnnnnnnnnnnnn": 5588,
      "09": 5589,
      "lan": 5590,
      "zen": 5591,
      "itled": 5592,
      "Ġonto": 5593,
      "ikh": 5594,
      "Ġking": 5595,
      "Ġcollege": 5596,
      "Ġunfair": 5597,
      "gypt": 5598,
      "Ġfavour": 5599,
      "Ġnatural": 5600,
      "li": 5601,
      "ĠCopyright": 5602,
      "ĠMil": 5603,
      "ĠRS": 5604,
      "Ġunderstood": 5605,
      "ĠArt": 5606,
      "Ġtreated": 5607,
      "constructive": 5608,
      "Ġindefin": 5609,
      "But": 5610,
      "mit": 5611,
      "pre": 5612,
      "Ġlying": 5613,
      "Ġtoler": 5614,
      "Ġloss": 5615,
      "ĠSat": 5616,
      "Ġvirt": 5617,
      "ĠUkrain": 5618,
      "Ġuseless": 5619,
      "Ġcompared": 5620,
      "ĠVandalism": 5621,
      "Ġviolating": 5622,
      "Ġcredible": 5623,
      "ĠAustralian": 5624,
      "Ġremarks": 5625,
      "Ġindustry": 5626,
      "64": 5627,
      "orse": 5628,
      "Ġproceed": 5629,
      "Ġ99": 5630,
      "Ġretarded": 5631,
      "Ġsurv": 5632,
      "ĠCollege": 5633,
      "Ġwaiting": 5634,
      "Ġdamage": 5635,
      "Ġallegations": 5636,
      "Ġsake": 5637,
      "pled": 5638,
      "hington": 5639,
      "ĠUnion": 5640,
      "atured": 5641,
      "Ġstrict": 5642,
      "Ġlogical": 5643,
      "ĠCommittee": 5644,
      "AHAHAHAH": 5645,
      "Dis": 5646,
      "Page": 5647,
      "pan": 5648,
      "ico": 5649,
      "adu": 5650,
      "Ġkid": 5651,
      "ographical": 5652,
      "Ġadvoc": 5653,
      "ASE": 5654,
      "Ġresponded": 5655,
      "ĠJimbo": 5656,
      "Ġensure": 5657,
      "YM": 5658,
      "Ġtim": 5659,
      "ĠTry": 5660,
      "ĠPen": 5661,
      "emat": 5662,
      "Ġweren": 5663,
      "ĠArmy": 5664,
      "Ġ01": 5665,
      "Ġcentral": 5666,
      "ronic": 5667,
      "Ġbeliefs": 5668,
      "Ġchalleng": 5669,
      "Fe": 5670,
      "ij": 5671,
      "Ã¼": 5672,
      "Ġduplic": 5673,
      "Ġusual": 5674,
      "letter": 5675,
      "Ġwhatsoever": 5676,
      "osen": 5677,
      "Ġimpact": 5678,
      "eek": 5679,
      "ĠScott": 5680,
      "Ġinitial": 5681,
      "ifornia": 5682,
      "01": 5683,
      "AP": 5684,
      "MY": 5685,
      "mo": 5686,
      "Ġpowers": 5687,
      "sey": 5688,
      "ads": 5689,
      "ilities": 5690,
      "ĠGFDL": 5691,
      "Ġresources": 5692,
      "Ġserve": 5693,
      "ESE": 5694,
      "anguage": 5695,
      "Ġconvin": 5696,
      "Ġhypoc": 5697,
      "FOR": 5698,
      "To": 5699,
      "even": 5700,
      "xy": 5701,
      "Ġought": 5702,
      "Ġpull": 5703,
      "Ġnative": 5704,
      "ĠAFD": 5705,
      "ĠPeter": 5706,
      "Ġimplement": 5707,
      "cluded": 5708,
      "EST": 5709,
      "Ġblue": 5710,
      "Ġexisted": 5711,
      "Ġsystems": 5712,
      "ĠConf": 5713,
      "Ġbroken": 5714,
      "Ġliberal": 5715,
      "ĠCounty": 5716,
      "Ind": 5717,
      "Ġaverage": 5718,
      "eng": 5719,
      "Ġya": 5720,
      "izes": 5721,
      "ifications": 5722,
      "ĠUnless": 5723,
      "Ġorganizations": 5724,
      "Arch": 5725,
      "ĠNorthern": 5726,
      "zero": 5727,
      "Ġtreatment": 5728,
      "American": 5729,
      "ghan": 5730,
      "ĠNAME": 5731,
      "ustom": 5732,
      "emit": 5733,
      "ĠEs": 5734,
      "ounds": 5735,
      "serv": 5736,
      "Ġmainly": 5737,
      "Ġhistorians": 5738,
      "Ġdeserves": 5739,
      "Ġslightly": 5740,
      "One": 5741,
      "gment": 5742,
      "vention": 5743,
      "Ġped": 5744,
      "icro": 5745,
      "ĠYet": 5746,
      "Ġaccusing": 5747,
      "ĠTechn": 5748,
      "Ġphysical": 5749,
      "Ġlikes": 5750,
      "52": 5751,
      "Ġmach": 5752,
      "âĢ¢": 5753,
      "Ġolder": 5754,
      "RAPCRAPCRAPCRAPCRAPCRAPCRAPCRAPC": 5755,
      "orpor": 5756,
      "ancial": 5757,
      "ams": 5758,
      "ĠDoc": 5759,
      "ulate": 5760,
      "Ġ90": 5761,
      "GGOT": 5762,
      "vironment": 5763,
      "Man": 5764,
      "bury": 5765,
      "lig": 5766,
      "non": 5767,
      "ingly": 5768,
      "ĠSign": 5769,
      "ĠJer": 5770,
      "izard": 5771,
      "bert": 5772,
      "Ġobtain": 5773,
      "Ġowner": 5774,
      "Ġemphas": 5775,
      "Ġheading": 5776,
      "ĠBritain": 5777,
      "Ġredirects": 5778,
      "Ġcensorship": 5779,
      "Ġfear": 5780,
      "arb": 5781,
      "arc": 5782,
      "asy": 5783,
      "ĠTod": 5784,
      "ĠLove": 5785,
      "Ġ2000": 5786,
      "Ġsafe": 5787,
      "Ġaccuse": 5788,
      "Ġrecall": 5789,
      "ught": 5790,
      "Ġsupports": 5791,
      "Ġfriendly": 5792,
      "Ġaspects": 5793,
      "Ġinnoc": 5794,
      "88": 5795,
      "cific": 5796,
      "sing": 5797,
      "Ġthorough": 5798,
      "unte": 5799,
      "Ġsecret": 5800,
      "ĠFR": 5801,
      "Ġunique": 5802,
      "ĠLib": 5803,
      "Ġnewcom": 5804,
      "Ġappearance": 5805,
      "Ġcele": 5806,
      "acceptable": 5807,
      "vis": 5808,
      "rol": 5809,
      "tics": 5810,
      "ĠBible": 5811,
      "ĠHOM": 5812,
      "ĠOff": 5813,
      "Ġspecies": 5814,
      "Ġsigned": 5815,
      "Ġfeeling": 5816,
      "ĠDef": 5817,
      "Ġ80": 5818,
      "Ġsummar": 5819,
      "roduction": 5820,
      "Ġexpected": 5821,
      "Ġbalance": 5822,
      "Ġinvestigation": 5823,
      "Ġfemale": 5824,
      "Ġillegal": 5825,
      "mas": 5826,
      "Ġwalk": 5827,
      "Ġwife": 5828,
      "itz": 5829,
      "ĠBas": 5830,
      "Ġkn": 5831,
      "Ġfault": 5832,
      "Ġscreen": 5833,
      "Ġinside": 5834,
      "ĠGOD": 5835,
      "Ġmeasure": 5836,
      "uz": 5837,
      "Ġyeah": 5838,
      "Ġcommentary": 5839,
      "ĠBeCauSe": 5840,
      "ĠSTOP": 5841,
      "Ġrecognized": 5842,
      "Ġillustr": 5843,
      "43": 5844,
      "75": 5845,
      "GE": 5846,
      "ww": 5847,
      "Â·": 5848,
      "Ġdict": 5849,
      "ĠBunk": 5850,
      "ores": 5851,
      "ĠGreen": 5852,
      "theless": 5853,
      "Ġforms": 5854,
      "06": 5855,
      "IOT": 5856,
      "boy": 5857,
      "uu": 5858,
      "there": 5859,
      "ĠUse": 5860,
      "aves": 5861,
      "Ġgreater": 5862,
      "Ġcharge": 5863,
      "ĠAsso": 5864,
      "UUUU": 5865,
      "à®": 5866,
      "Ġfood": 5867,
      "Ġoil": 5868,
      "Ġoption": 5869,
      "Ġforces": 5870,
      "Ġweak": 5871,
      "ĠLast": 5872,
      "ounding": 5873,
      "ĠStud": 5874,
      "Ġgenre": 5875,
      "Ġscript": 5876,
      "Ġended": 5877,
      "Ġ60": 5878,
      "Ġlargely": 5879,
      "Ġpurposes": 5880,
      "Ġlearned": 5881,
      "NA": 5882,
      "del": 5883,
      "Ġhence": 5884,
      "icism": 5885,
      "ĠAp": 5886,
      "Ġshame": 5887,
      "ĠYear": 5888,
      "anger": 5889,
      "ubb": 5890,
      "Ġcreator": 5891,
      "aha": 5892,
      "Ġdiscour": 5893,
      "Or": 5894,
      "equ": 5895,
      "ua": 5896,
      "Ã¡": 5897,
      "Ð¸": 5898,
      "ĠPerson": 5899,
      "ĠGET": 5900,
      "ĠTurkey": 5901,
      "Ġuncivil": 5902,
      "Ġcitizens": 5903,
      "All": 5904,
      "vices": 5905,
      "ĠBet": 5906,
      "ĠNov": 5907,
      "iety": 5908,
      "ĠLIVE": 5909,
      "ĠCriminalWar": 5910,
      "IVE": 5911,
      "NOT": 5912,
      "aur": 5913,
      "hand": 5914,
      "Ġzero": 5915,
      "ĠAzer": 5916,
      "ĠPet": 5917,
      "Ġbutton": 5918,
      "ĠGl": 5919,
      "Ġstopped": 5920,
      "Ġ55": 5921,
      "Ġcities": 5922,
      "Ġrestrict": 5923,
      "Ġobjection": 5924,
      "Ġcultural": 5925,
      "Ġdocuments": 5926,
      "Ġterrorist": 5927,
      "Ġconstitutes": 5928,
      "ĠJeff": 5929,
      "jud": 5930,
      "Ġpseud": 5931,
      "Ġforced": 5932,
      "ĠMel": 5933,
      "irty": 5934,
      "Ġamaz": 5935,
      "OUT": 5936,
      "ributions": 5937,
      "ĠVAND": 5938,
      "coming": 5939,
      "Ġblind": 5940,
      "Ġleading": 5941,
      "ĠBrad": 5942,
      "Ġunfortunately": 5943,
      "Ġregistered": 5944,
      "ĠLatin": 5945,
      "ĠBunkSteve": 5946,
      "03": 5947,
      "51": 5948,
      "band": 5949,
      "Ġdirection": 5950,
      "Ġyesterday": 5951,
      "Ġitem": 5952,
      "ĠSub": 5953,
      "Ġshoot": 5954,
      "aked": 5955,
      "ĠLiber": 5956,
      "Ġprep": 5957,
      "Ġattract": 5958,
      "ĠChester": 5959,
      "Ġconstantly": 5960,
      "Ġallows": 5961,
      "Ġassertion": 5962,
      "ĠLOSER": 5963,
      "ners": 5964,
      "Ðµ": 5965,
      "itor": 5966,
      "Ġmale": 5967,
      "Ġhol": 5968,
      "aint": 5969,
      "Ġexclus": 5970,
      "ĠRob": 5971,
      "ĠEarth": 5972,
      "âĢİ": 5973,
      "icted": 5974,
      "Ġ2001": 5975,
      "cyclopedia": 5976,
      "ĠWashington": 5977,
      "Small": 5978,
      "ĠFoundation": 5979,
      "86": 5980,
      "bn": 5981,
      "Ġbarnstar": 5982,
      "Ġmouth": 5983,
      "Ġrelev": 5984,
      "opp": 5985,
      "Ġclue": 5986,
      "Ġinterests": 5987,
      "Ġattempted": 5988,
      "ĠRemember": 5989,
      "ĠSwed": 5990,
      "70": 5991,
      "fa": 5992,
      "fo": 5993,
      "hic": 5994,
      "padding": 5995,
      "ĠPress": 5996,
      "ĠMex": 5997,
      "ĠFo": 5998,
      "Ġnovel": 5999,
      "Ġlinking": 6000,
      "ĠANON": 6001,
      "IDIOT": 6002,
      "ircraft": 6003,
      "Ġpromotional": 6004,
      "Ġimplies": 6005,
      "Yeah": 6006,
      "names": 6007,
      "ror": 6008,
      "Ġbuy": 6009,
      "astern": 6010,
      "ĠFil": 6011,
      "ĠKo": 6012,
      "Ġsubsequ": 6013,
      "Ġexception": 6014,
      "ĠGeneral": 6015,
      "Ġopposite": 6016,
      "ĠCalifornia": 6017,
      "ĠPHIL": 6018,
      "Main": 6019,
      "erd": 6020,
      "inge": 6021,
      "Ġmurder": 6022,
      "ĠTim": 6023,
      "ĠBBC": 6024,
      "ĠOld": 6025,
      "lah": 6026,
      "ival": 6027,
      "Ġobs": 6028,
      "Ġfreely": 6029,
      "Ġmaterials": 6030,
      "ĠGeorg": 6031,
      "Ġactivities": 6032,
      "ĠCentral": 6033,
      "Ġsubstantial": 6034,
      "Ġobserv": 6035,
      "date": 6036,
      "hy": 6037,
      "Ġtour": 6038,
      "Ġdia": 6039,
      "utch": 6040,
      "Ġarrog": 6041,
      "ĠNever": 6042,
      "ĠRFC": 6043,
      "Ġdesigned": 6044,
      "itionally": 6045,
      "Ġproduction": 6046,
      "ĠProject": 6047,
      "Ġbuilt": 6048,
      "aught": 6049,
      "thodox": 6050,
      "ĠIsraeli": 6051,
      ")\"\"": 6052,
      "oon": 6053,
      "vin": 6054,
      "ancy": 6055,
      "Ġdomin": 6056,
      "Ġaggress": 6057,
      "!!!!!!": 6058,
      "ĠAnyone": 6059,
      "oken": 6060,
      "incerely": 6061,
      "Ġtermin": 6062,
      "Ġvotes": 6063,
      "Ġcocks": 6064,
      "11111111111111111111111111111111": 6065,
      "Ġassistance": 6066,
      "Ag": 6067,
      "itness": 6068,
      "Ġtools": 6069,
      "cture": 6070,
      "elf": 6071,
      "Ġprohib": 6072,
      "ĠOVER": 6073,
      "osp": 6074,
      "Ġspell": 6075,
      "apter": 6076,
      "Ġvandalized": 6077,
      "Ġplus": 6078,
      "Ġadminist": 6079,
      "Ġgenetic": 6080,
      "Ġrecords": 6081,
      "Ġdeveloped": 6082,
      "Ġrecognize": 6083,
      "Ġresolved": 6084,
      "ĠPHILIP": 6085,
      "born": 6086,
      "mark": 6087,
      "wide": 6088,
      "Ġcatch": 6089,
      "icated": 6090,
      "Ġlif": 6091,
      "ĠPre": 6092,
      "Ġmechan": 6093,
      "estion": 6094,
      "alling": 6095,
      "hether": 6096,
      "Ġenforce": 6097,
      "China": 6098,
      "Ġskills": 6099,
      "Ġcoupled": 6100,
      "00000000": 6101,
      ".âĢĿ": 6102,
      "MA": 6103,
      "ease": 6104,
      "ii": 6105,
      "Ġdedic": 6106,
      "Ġglobal": 6107,
      "igger": 6108,
      "ĠMad": 6109,
      "eline": 6110,
      "anging": 6111,
      "Ġletting": 6112,
      "Ġfollows": 6113,
      "ĠLeague": 6114,
      "ĠChristians": 6115,
      "Ġmistaken": 6116,
      "Ġresponding": 6117,
      "ĠLICK": 6118,
      "ĠIslamic": 6119,
      "orthy": 6120,
      "Requests": 6121,
      "Ġtomorrow": 6122,
      "YMOUS": 6123,
      "ĠANONYMOUS": 6124,
      "ĠPHILIPPIN": 6125,
      "PP": 6126,
      "pages": 6127,
      "Ġswe": 6128,
      "Ġbullshit": 6129,
      "ĠAGA": 6130,
      "Ġunw": 6131,
      "ĠEVER": 6132,
      "Ġenem": 6133,
      "Ġinsulting": 6134,
      "ĠRichard": 6135,
      "ĠAGAIN": 6136,
      "BI": 6137,
      "LONG": 6138,
      "Ġtact": 6139,
      "ifiability": 6140,
      "ĠPoint": 6141,
      "iling": 6142,
      "Ġdismiss": 6143,
      "artial": 6144,
      "ounce": 6145,
      "Ġcommonly": 6146,
      "Ġworthy": 6147,
      "ĠObviously": 6148,
      "ĠPHILIPPINES": 6149,
      "LA": 6150,
      "sub": 6151,
      "Ġtask": 6152,
      "Ġfart": 6153,
      "Ġdyn": 6154,
      "section": 6155,
      "Ġstre": 6156,
      "Ġstage": 6157,
      "Ġsup": 6158,
      "Ġvague": 6159,
      "ĠOur": 6160,
      "ĠEAT": 6161,
      "Ġintellect": 6162,
      "acc": 6163,
      "ĠVol": 6164,
      "Ġadvise": 6165,
      "Ġfinished": 6166,
      "Ġclosely": 6167,
      "Ġterrorists": 6168,
      "ĠChristianity": 6169,
      "ĠMuslims": 6170,
      "Sp": 6171,
      "cis": 6172,
      "uine": 6173,
      "Ġsle": 6174,
      "Ġcru": 6175,
      "Ġtoward": 6176,
      "alm": 6177,
      "ĠBer": 6178,
      "andy": 6179,
      "ĠEither": 6180,
      "ritish": 6181,
      "ounded": 6182,
      "Ġmanip": 6183,
      "others": 6184,
      "Ġcapt": 6185,
      "Ġprominent": 6186,
      "181": 6187,
      "Ġdescribing": 6188,
      "ĠMarcol": 6189,
      "ventions": 6190,
      "aniel": 6191,
      "Ġfolks": 6192,
      "!\"\"": 6193,
      "89": 6194,
      "Eng": 6195,
      "fort": 6196,
      "ument": 6197,
      "Ġongoing": 6198,
      "Ġgreen": 6199,
      "Ġchose": 6200,
      "ĠAfrica": 6201,
      "ĠKorean": 6202,
      "Ġphilosophy": 6203,
      "from": 6204,
      "Ġchat": 6205,
      "ĠLord": 6206,
      "cap": 6207,
      "ictional": 6208,
      "uthor": 6209,
      "Ġredund": 6210,
      "Ġwatchlist": 6211,
      "bitration": 6212,
      "ĠPHILIPPINESLONG": 6213,
      "ĠMarcolFuck": 6214,
      "fD": 6215,
      "ĠSA": 6216,
      "Ġconsequ": 6217,
      "ĠPo": 6218,
      "ĠMain": 6219,
      "ĠDel": 6220,
      "Ġkick": 6221,
      "Ġvan": 6222,
      "ĠEgypt": 6223,
      "race": 6224,
      "umm": 6225,
      "Ġapparent": 6226,
      "Ġhelped": 6227,
      "Ġrelation": 6228,
      "Ġexplains": 6229,
      "Ġaccusation": 6230,
      "Ġapologies": 6231,
      "Ġconvention": 6232,
      "Ġcellpadding": 6233,
      "Ġacknowled": 6234,
      "Ġcomparison": 6235,
      "kins": 6236,
      "Ġaside": 6237,
      "ĠJose": 6238,
      "ection": 6239,
      "Ġ2002": 6240,
      "Ġspeculation": 6241,
      "ĠBefore": 6242,
      "Ġviolates": 6243,
      "Ġpolitic": 6244,
      "Ġaccuracy": 6245,
      "Ġignorance": 6246,
      "Ġgrounds": 6247,
      "Ġradio": 6248,
      "Ġstalking": 6249,
      "Ġinstructions": 6250,
      "ĠAnthony": 6251,
      "],": 6252,
      "called": 6253,
      "Ġhurt": 6254,
      "Ġreact": 6255,
      "ĠSEC": 6256,
      "Ġseven": 6257,
      "ĠBC": 6258,
      "Ġunacceptable": 6259,
      "ĠRaj": 6260,
      "ĠOut": 6261,
      "Ġjustification": 6262,
      "reek": 6263,
      "acity": 6264,
      "INK": 6265,
      "Ġeverybody": 6266,
      "ristian": 6267,
      "UPID": 6268,
      "!!!!!!!!!!!!!!!!!!!!!!!!!!!!!!!!!!!!!!!!!!!!!!!!!!!!!!!!!!!!!!!!!!!!!!!!!!!!!!!!!!!!!!!!!!!!!!!!!!!!!!!!!!!!!!!!!!!!!!!!!!!!!!!!": 6269,
      "ĠHindu": 6270,
      "tions": 6271,
      "Ġsouth": 6272,
      "state": 6273,
      "Ġarse": 6274,
      "riage": 6275,
      "Ġintend": 6276,
      "Ġamer": 6277,
      "osition": 6278,
      "Ġelimin": 6279,
      "Ġdirected": 6280,
      "ointed": 6281,
      "Ġformatting": 6282,
      "Ġutter": 6283,
      "word": 6284,
      "Ġcas": 6285,
      "Ġmut": 6286,
      "Ġhack": 6287,
      "ĠLou": 6288,
      "Ġwarrant": 6289,
      "Ġproduced": 6290,
      "spond": 6291,
      "Ġpattern": 6292,
      "Ġlacking": 6293,
      "Ġbenefits": 6294,
      "Ġsatisfy": 6295,
      "ĠRobert": 6296,
      "07": 6297,
      "ãģ": 6298,
      "Ġconvert": 6299,
      "ĠHa": 6300,
      "ĠDan": 6301,
      "ĠFY": 6302,
      "Ġvast": 6303,
      "riting": 6304,
      "ĠKn": 6305,
      "Ġvandals": 6306,
      "ONE": 6307,
      "Ġ02": 6308,
      "ditions": 6309,
      "ĠGreece": 6310,
      "Ġdetermined": 6311,
      "fl": 6312,
      "look": 6313,
      "Ġton": 6314,
      "Ġoffered": 6315,
      "aded": 6316,
      "ipl": 6317,
      "Ġprose": 6318,
      "acing": 6319,
      "obby": 6320,
      "Ġpurs": 6321,
      "OWN": 6322,
      "Ġdrive": 6323,
      "Ġresolve": 6324,
      "Ġaccompl": 6325,
      "65": 6326,
      "uable": 6327,
      "Ġip": 6328,
      "ĠScience": 6329,
      "change": 6330,
      "uns": 6331,
      "ilty": 6332,
      "Ġedition": 6333,
      "Ġexec": 6334,
      "Ġacts": 6335,
      "ĠStill": 6336,
      "ĠRev": 6337,
      "Ġentitled": 6338,
      "azis": 6339,
      "ocaust": 6340,
      "-)": 6341,
      "cre": 6342,
      "ties": 6343,
      "yes": 6344,
      "Ġfast": 6345,
      "alin": 6346,
      "Ġbeat": 6347,
      "ample": 6348,
      "Ġsum": 6349,
      "ĠNob": 6350,
      "ERT": 6351,
      "Ġgenuine": 6352,
      "ĠGrand": 6353,
      "May": 6354,
      "brew": 6355,
      "such": 6356,
      "Ġtired": 6357,
      "ala": 6358,
      "Ġlose": 6359,
      "Ġlingu": 6360,
      "iful": 6361,
      "Ġmanage": 6362,
      "Ġfails": 6363,
      "Ġraise": 6364,
      "LEASE": 6365,
      "Ġvillage": 6366,
      "Ġopportunity": 6367,
      "ients": 6368,
      "nge": 6369,
      "pet": 6370,
      "inary": 6371,
      "Ġmaps": 6372,
      "Ġdare": 6373,
      "ĠUnt": 6374,
      "Ġreviewing": 6375,
      "ĠIPs": 6376,
      "Ġproducts": 6377,
      "Ġfrequently": 6378,
      "Ġphysics": 6379,
      "Ġcandidates": 6380,
      "Ġnewcomers": 6381,
      "ees": 6382,
      "ja": 6383,
      "puppets": 6384,
      "Ġreaction": 6385,
      "ĠPERS": 6386,
      "ĠLE": 6387,
      "Ġperce": 6388,
      "ĠVery": 6389,
      "Ġletters": 6390,
      "Ġapology": 6391,
      "Ġlimit": 6392,
      "ĠCouncil": 6393,
      "ki": 6394,
      "Ġhits": 6395,
      "istry": 6396,
      "ĠBell": 6397,
      "ĠStr": 6398,
      "idents": 6399,
      "notable": 6400,
      "Ġexperts": 6401,
      "Ġhappening": 6402,
      "Ġfrustr": 6403,
      "Ġreceive": 6404,
      "Ġdocumented": 6405,
      "Ġessentially": 6406,
      "BLP": 6407,
      "Ġterritory": 6408,
      "HS": 6409,
      "TV": 6410,
      "cal": 6411,
      "oved": 6412,
      "inger": 6413,
      "Ġdark": 6414,
      "\"\").": 6415,
      "Ġconclus": 6416,
      "ĠBULL": 6417,
      "aks": 6418,
      "Ġunreliable": 6419,
      "Ġcovers": 6420,
      "they": 6421,
      "Ġpossibility": 6422,
      "ĠFAGGOT": 6423,
      "Ġequiv": 6424,
      "Ġopposition": 6425,
      "Ġsuccessful": 6426,
      "Ph": 6427,
      "Tr": 6428,
      "des": 6429,
      "jan": 6430,
      "uit": 6431,
      "Ġdub": 6432,
      "aly": 6433,
      "Ġarmy": 6434,
      "ĠBur": 6435,
      "ĠHaving": 6436,
      "ĠDar": 6437,
      "Ġexcellent": 6438,
      "Ġdesk": 6439,
      "Ġengaged": 6440,
      "Ġrecorded": 6441,
      "ĠIranian": 6442,
      "ĠPersian": 6443,
      "Are": 6444,
      "BN": 6445,
      "auc": 6446,
      "bably": 6447,
      "ĠBesides": 6448,
      "illa": 6449,
      "Ġabusing": 6450,
      "Ġupset": 6451,
      "Ġoverall": 6452,
      "Ġspecifies": 6453,
      "Ġincorpor": 6454,
      "Ġ68": 6455,
      "Ġmarked": 6456,
      "Admin": 6457,
      ".'": 6458,
      "92": 6459,
      "Ab": 6460,
      "Spe": 6461,
      "vi": 6462,
      "Ġ).": 6463,
      "Ġbare": 6464,
      "Ġbudd": 6465,
      "Ġarri": 6466,
      "ĠHistor": 6467,
      "ĠRet": 6468,
      "ĠGiven": 6469,
      "ĠEm": 6470,
      "ĠKurd": 6471,
      "Ġpercent": 6472,
      "Ġabsurd": 6473,
      "Ġunlikely": 6474,
      "02": 6475,
      "core": 6476,
      "{{": 6477,
      "Ġfake": 6478,
      "Ġequally": 6479,
      "Ġarchives": 6480,
      "Ġterrorism": 6481,
      "ĠTwo": 6482,
      "By": 6483,
      "wing": 6484,
      "Ġcustom": 6485,
      "ĠSar": 6486,
      "ĠHall": 6487,
      "Ġmeat": 6488,
      "iled": 6489,
      "ĠKnow": 6490,
      "Ġ76": 6491,
      "Ġofficially": 6492,
      "ĠâĨĴ": 6493,
      "ĠExternal": 6494,
      "Ġlede": 6495,
      "Ġfundamental": 6496,
      "vandalism": 6497,
      "ĠWork": 6498,
      "ĠYTM": 6499,
      "Ġrum": 6500,
      "eme": 6501,
      "osn": 6502,
      "Ġaccord": 6503,
      "Ġphone": 6504,
      "Ġhandle": 6505,
      "ĠWHO": 6506,
      "Ġscientists": 6507,
      "Ġinserted": 6508,
      "Ġcircumst": 6509,
      "ĠDepartment": 6510,
      "ĠYTMND": 6511,
      "72": 6512,
      "Vandalism": 6513,
      "iest": 6514,
      "itar": 6515,
      "eder": 6516,
      "Ġbull": 6517,
      "ago": 6518,
      "Ġelement": 6519,
      "Ġrisk": 6520,
      "ĠGold": 6521,
      "Ġchosen": 6522,
      "ratulations": 6523,
      "Ġaddresses": 6524,
      "Ġdistribut": 6525,
      "Ġindicates": 6526,
      "Ġpaste": 6527,
      "ophob": 6528,
      "Ġreputation": 6529,
      "98": 6530,
      "ACK": 6531,
      "Ã¶": 6532,
      "Ġtab": 6533,
      "ĠWAS": 6534,
      "amily": 6535,
      "Ġalter": 6536,
      "ĠEX": 6537,
      "Ġdidnt": 6538,
      "Ġpointless": 6539,
      "Ġ06": 6540,
      "Ġextent": 6541,
      "airs": 6542,
      "Ġheads": 6543,
      "ammad": 6544,
      "Ġvehic": 6545,
      "Ġeconomic": 6546,
      "ĠSuper": 6547,
      "hold": 6548,
      "personal": 6549,
      "yer": 6550,
      "Ġathe": 6551,
      "itle": 6552,
      "ĠTOM": 6553,
      "Ġelements": 6554,
      "Ġstories": 6555,
      "Ġweird": 6556,
      "Ġdisruption": 6557,
      "Ġobsc": 6558,
      "Ġrefs": 6559,
      "Ġemot": 6560,
      "Ġcares": 6561,
      "ographic": 6562,
      "Ġ04": 6563,
      "Ġleader": 6564,
      "Ġdistingu": 6565,
      "Ġnotices": 6566,
      "Ġartists": 6567,
      "Ġclarification": 6568,
      "Ġdistinction": 6569,
      "Ġreplied": 6570,
      "Ġdeliberately": 6571,
      "Archive": 6572,
      "kj": 6573,
      "vio": 6574,
      "onents": 6575,
      "Ġnav": 6576,
      "ĠCEN": 6577,
      "ipe": 6578,
      "Ġjew": 6579,
      "Ġgovern": 6580,
      "ĠKar": 6581,
      "perate": 6582,
      "Ġcompare": 6583,
      "Ġimply": 6584,
      "phere": 6585,
      "Ġbelieved": 6586,
      "Ġpromise": 6587,
      "Ġfrank": 6588,
      "Ġcredibility": 6589,
      "Ġforever": 6590,
      "Ġmatches": 6591,
      "Ġprinciple": 6592,
      "Ġhoax": 6593,
      "Ġangry": 6594,
      "ĠPERSON": 6595,
      "bed": 6596,
      "burg": 6597,
      "anc": 6598,
      "eness": 6599,
      "Ġpapers": 6600,
      "Ġom": 6601,
      "ĠWil": 6602,
      "pping": 6603,
      "Ġquit": 6604,
      "phan": 6605,
      "ached": 6606,
      "Ġconsideration": 6607,
      "Ġ03": 6608,
      "Ġ05": 6609,
      "Ġcollection": 6610,
      "Ġtrial": 6611,
      "ashion": 6612,
      "Ġignoring": 6613,
      "Ġidentified": 6614,
      "Ġpromotion": 6615,
      "Ġaffil": 6616,
      "Ġacknowledge": 6617,
      "SHIT": 6618,
      "BAG": 6619,
      "SE": 6620,
      "TIC": 6621,
      "Ġwall": 6622,
      "Ġoh": 6623,
      "ĠSen": 6624,
      "ĠPreceding": 6625,
      "ĠBu": 6626,
      "Ġdesire": 6627,
      "Ġgreatly": 6628,
      "Ġ72": 6629,
      "Ġvaluable": 6630,
      "Ġfringe": 6631,
      "ĠAfghan": 6632,
      "Ġcriticisms": 6633,
      "\"::::": 6634,
      "ĠSpecial": 6635,
      "Ġviolence": 6636,
      "ĠSocial": 6637,
      "gal": 6638,
      "ication": 6639,
      "Ġitems": 6640,
      "ĠThree": 6641,
      "ĠDE": 6642,
      "Ġunconstructive": 6643,
      "ĠLife": 6644,
      "ogue": 6645,
      "ocide": 6646,
      "Ġencyclopa": 6647,
      "Ġpositions": 6648,
      "Ġfinancial": 6649,
      "ĠMoreover": 6650,
      "Ġreputable": 6651,
      "ĠCommunity": 6652,
      "ĠArbCom": 6653,
      "Ġobsess": 6654,
      "based": 6655,
      "rh": 6656,
      "iday": 6657,
      "ĠCrit": 6658,
      "Ġabusive": 6659,
      "anged": 6660,
      "Ġenvironment": 6661,
      "ublished": 6662,
      "Ġinvited": 6663,
      "Ġtells": 6664,
      "Ġbiggest": 6665,
      "Ġintroduced": 6666,
      "herent": 6667,
      "========": 6668,
      "ĠPolicy": 6669,
      "ĠThomas": 6670,
      "Im": 6671,
      "bot": 6672,
      "cation": 6673,
      "nes": 6674,
      "ront": 6675,
      "review": 6676,
      "Ġmad": 6677,
      "roject": 6678,
      "Ġstuck": 6679,
      "ĠBullshit": 6680,
      "Ġcommented": 6681,
      "Ġuserbox": 6682,
      "Ġcooper": 6683,
      "ĠFACK": 6684,
      "Ġoppose": 6685,
      "Ġqualify": 6686,
      "ĠBrown": 6687,
      "ĠMusic": 6688,
      "Ġbalanced": 6689,
      "Act": 6690,
      "VD": 6691,
      "Ġug": 6692,
      "Ġaircraft": 6693,
      "inian": 6694,
      "oto": 6695,
      "agged": 6696,
      "ĠWOR": 6697,
      "ĠSuch": 6698,
      "Ġ\"\"...": 6699,
      "ĠMary": 6700,
      "ĠNice": 6701,
      "Ġdish": 6702,
      "Ġjustified": 6703,
      "Ġdefine": 6704,
      "lessly": 6705,
      "LLOCKS": 6706,
      "Ġmisrepresent": 6707,
      "Ġtemper": 6708,
      "Ġ69": 6709,
      "Ġmorning": 6710,
      "ringe": 6711,
      "ELAND": 6712,
      "''''''": 6713,
      "Ġnormally": 6714,
      "Ġsockpuppetry": 6715,
      "ĠOkay": 6716,
      "Bot": 6717,
      "Ø§": 6718,
      "real": 6719,
      "Ġmail": 6720,
      "Ġdictionary": 6721,
      "Ġinser": 6722,
      "agiar": 6723,
      "uru": 6724,
      "ĠRam": 6725,
      "ĠJo": 6726,
      "anges": 6727,
      "URITY": 6728,
      "Ġ||": 6729,
      "comm": 6730,
      "Ġfeelings": 6731,
      "Ġmassive": 6732,
      "ĠCHE": 6733,
      "Ġcategor": 6734,
      "Ġintelligence": 6735,
      "ĠHOMELAND": 6736,
      "zil": 6737,
      "âĺ": 6738,
      "ãĥ": 6739,
      "Ġsile": 6740,
      "eds": 6741,
      "Ġmang": 6742,
      "ĠBre": 6743,
      "ĠMac": 6744,
      "ĠNothing": 6745,
      "Ġprev": 6746,
      "Ġcommitted": 6747,
      "Ġgotten": 6748,
      "ELESS": 6749,
      "Ġnationality": 6750,
      "2006": 6751,
      "ĠNeutral": 6752,
      "Ġsubmission": 6753,
      "ĠCharles": 6754,
      "Ġcorrespond": 6755,
      "87": 6756,
      "DD": 6757,
      "wan": 6758,
      "including": 6759,
      "Ġmere": 6760,
      "omy": 6761,
      "ĠTime": 6762,
      "Ġgraph": 6763,
      "ĠCap": 6764,
      "ppose": 6765,
      "Ġkids": 6766,
      "ohn": 6767,
      "Reg": 6768,
      "Ġapart": 6769,
      "check": 6770,
      "Ġmovies": 6771,
      "ĠTOMMY": 6772,
      "URITYFUCK": 6773,
      "CO": 6774,
      "Category": 6775,
      "Ġtill": 6776,
      "atter": 6777,
      "import": 6778,
      "ĠThink": 6779,
      "ĠSal": 6780,
      "ĠSur": 6781,
      "Ġarm": 6782,
      "Ġweap": 6783,
      "emporary": 6784,
      "!!!!!!!": 6785,
      "Ġrefuse": 6786,
      "Ġenter": 6787,
      "Ġtelevision": 6788,
      "Ġbothered": 6789,
      "ĠShow": 6790,
      "Ġviolated": 6791,
      "Ġswitch": 6792,
      "Ġvolunte": 6793,
      "Ġlibel": 6794,
      "Ġhoping": 6795,
      "ĠSECURITYFUCK": 6796,
      "ICK": 6797,
      "ras": 6798,
      "ĠWikip": 6799,
      "ĠWizard": 6800,
      "igr": 6801,
      "Ġsec": 6802,
      "ĠRIGHT": 6803,
      "ĠJay": 6804,
      "ĠSock": 6805,
      "ĠIsland": 6806,
      "Ġ75": 6807,
      "ĠUSELESS": 6808,
      "Ġstatistics": 6809,
      "OST": 6810,
      "ĠPoland": 6811,
      "Ġessay": 6812,
      "MMMM": 6813,
      "protected": 6814,
      "Ġfraud": 6815,
      ".-": 6816,
      "61": 6817,
      "gent": 6818,
      "tes": 6819,
      "va": 6820,
      "ÑĢ": 6821,
      "Ġpic": 6822,
      "ĠSol": 6823,
      "iano": 6824,
      "Ġsales": 6825,
      "ologies": 6826,
      "Ġnorth": 6827,
      "ĠFAC": 6828,
      "Ġdescribes": 6829,
      "Ġdiscovered": 6830,
      "Ġmerit": 6831,
      "Ġalbums": 6832,
      "BLOCK": 6833,
      "Ġcandidate": 6834,
      "ville": 6835,
      "year": 6836,
      "Ġfirm": 6837,
      "Ġrender": 6838,
      "ĠBOT": 6839,
      "ĠBudd": 6840,
      "ĠHas": 6841,
      "ĠFind": 6842,
      "ĠFox": 6843,
      "ĠNet": 6844,
      "ĠUr": 6845,
      "!!!!!": 6846,
      "Ġmemory": 6847,
      "Ġanswered": 6848,
      "Ġfinish": 6849,
      "Ġadmitted": 6850,
      "Ġpresum": 6851,
      "Ġsuspic": 6852,
      "Ġplanet": 6853,
      "Ġrewritten": 6854,
      "Ġliterally": 6855,
      "Ġmethods": 6856,
      "ĠBULLSHIT": 6857,
      "++": 6858,
      "81": 6859,
      "Go": 6860,
      "HE": 6861,
      "Rep": 6862,
      "don": 6863,
      "uan": 6864,
      "ying": 6865,
      "Ġast": 6866,
      "itter": 6867,
      "Ġinj": 6868,
      "ĠPop": 6869,
      "Ġrat": 6870,
      "ĠRyan": 6871,
      "Ġconsult": 6872,
      "Ġtrick": 6873,
      "ANI": 6874,
      "Ġstanding": 6875,
      "Ġdirectory": 6876,
      "Ġpublications": 6877,
      "Ġanswers": 6878,
      "ĠCOI": 6879,
      "Ġambig": 6880,
      "BG": 6881,
      "YOU": 6882,
      "[[": 6883,
      "Ġfant": 6884,
      "icious": 6885,
      "ĠMiddle": 6886,
      "Ġship": 6887,
      "uries": 6888,
      "ĠVal": 6889,
      "aven": 6890,
      "Ġthreatening": 6891,
      "ĠHopefully": 6892,
      "Ġloser": 6893,
      "BOLLOCKS": 6894,
      "bai": 6895,
      "mar": 6896,
      "Ġ//": 6897,
      "Ġbomb": 6898,
      "Ġbesides": 6899,
      "Ġcow": 6900,
      "Ġhur": 6901,
      "ctr": 6902,
      "ĠWANT": 6903,
      "ĠHung": 6904,
      "ĠFoot": 6905,
      "ĠNone": 6906,
      "Ġexer": 6907,
      "Ġchannel": 6908,
      "Ġproud": 6909,
      "Ġbrand": 6910,
      "ĠWeb": 6911,
      "ĠNotability": 6912,
      "Ġfixing": 6913,
      "Ġprimarily": 6914,
      "ĠONE": 6915,
      "Ġcorpor": 6916,
      "Ġselecting": 6917,
      "Ġlicensed": 6918,
      "Ġannoying": 6919,
      "ampionship": 6920,
      "aning": 6921,
      "ĠTy": 6922,
      "ĠTex": 6923,
      "Ġstaff": 6924,
      "ested": 6925,
      "Ġtalks": 6926,
      "Ġoffended": 6927,
      "ologist": 6928,
      "Who": 6929,
      "Ġrequirements": 6930,
      "Ġassumed": 6931,
      "Ġrape": 6932,
      "Ġtypical": 6933,
      "Ġsubmitted": 6934,
      "ĠSerbian": 6935,
      "71": 6936,
      "82": 6937,
      "Bastered": 6938,
      "oving": 6939,
      "Ġbreed": 6940,
      "Ġporn": 6941,
      "Ġfiction": 6942,
      "ĠTor": 6943,
      "Ġconventions": 6944,
      "iler": 6945,
      "ulf": 6946,
      "orted": 6947,
      "Ġinformed": 6948,
      "Ġdefending": 6949,
      "Ġcritics": 6950,
      "Where": 6951,
      "ĠSHOULD": 6952,
      "Ġscholarly": 6953,
      "Ġpoorly": 6954,
      "Ġpunish": 6955,
      "Ġchallenge": 6956,
      "biased": 6957,
      "ĠMartin": 6958,
      "05": 6959,
      "JPG": 6960,
      "please": 6961,
      "sourced": 6962,
      "ona": 6963,
      "Ġbound": 6964,
      "Ġpath": 6965,
      "Ġflaw": 6966,
      "Ġanon": 6967,
      "ĠCre": 6968,
      "ĠBastered": 6969,
      "Ġchem": 6970,
      "acre": 6971,
      "ĠYOUBOLLOCKS": 6972,
      "===": 6973,
      "Ġdecent": 6974,
      "Ġexpan": 6975,
      "Ġfailure": 6976,
      "Ġeffects": 6977,
      "ĠCenter": 6978,
      "although": 6979,
      "Ġliar": 6980,
      "Ġconditions": 6981,
      "ĠMah": 6982,
      "Ġdiss": 6983,
      "eph": 6984,
      "ulture": 6985,
      "ĠChris": 6986,
      "REE": 6987,
      "They": 6988,
      "Ġcaught": 6989,
      "Ġcloser": 6990,
      "Ġdistrict": 6991,
      "Ġprofile": 6992,
      "\"::::::": 6993,
      "Ġpublisher": 6994,
      "ĠMacedonia": 6995,
      "94": 6996,
      "Che": 6997,
      "FR": 6998,
      "IES": 6999,
      "king": 7000,
      "Ġcore": 7001,
      "Ġdat": 7002,
      "\"\";": 7003,
      "ros": 7004,
      "ĠCD": 7005,
      "ĠPLEASE": 7006,
      "Ġwee": 7007,
      "useum": 7008,
      "Ġminute": 7009,
      "Ġpresence": 7010,
      "ĠFrancis": 7011,
      "Ġrelevance": 7012,
      "04": 7013,
      "cision": 7014,
      "Ð½": 7015,
      "ĠWind": 7016,
      "Ġdoesnt": 7017,
      "Ġgreatest": 7018,
      "ĠGovernment": 7019,
      "Ġ1990": 7020,
      "Ġcrazy": 7021,
      "Ġanimals": 7022,
      "ĠCHEESE": 7023,
      "84": 7024,
      "gers": 7025,
      "sm": 7026,
      "icial": 7027,
      "Ġincons": 7028,
      "\"\"\"": 7029,
      "ĠHam": 7030,
      "ĠDist": 7031,
      "Ġneigh": 7032,
      "ĠJul": 7033,
      "Ġgold": 7034,
      "Ġinformative": 7035,
      "Ġgranted": 7036,
      "Ġregarded": 7037,
      "Ġadvertise": 7038,
      "Ġfacilit": 7039,
      "Ġsymbol": 7040,
      "MainPage": 7041,
      "62": 7042,
      "inder": 7043,
      "Ġbeaut": 7044,
      "ĠCast": 7045,
      "ĠCamp": 7046,
      "aka": 7047,
      "ĠFact": 7048,
      "ĠInf": 7049,
      "OVE": 7050,
      "Ġroad": 7051,
      "Ġkindly": 7052,
      "Ġprivile": 7053,
      "Ġmixed": 7054,
      "Ġdiag": 7055,
      "Ġredundant": 7056,
      "Ġgang": 7057,
      "ilst": 7058,
      "ĠName": 7059,
      "abs": 7060,
      "ĠRon": 7061,
      "ĠRad": 7062,
      "Ġguilty": 7063,
      "Ġspoken": 7064,
      "Ġconstant": 7065,
      "Ġjudgement": 7066,
      "Ġheavy": 7067,
      "ĠUntil": 7068,
      "Ġequivalent": 7069,
      "Ġexpansion": 7070,
      "MainPageBG": 7071,
      "Me": 7072,
      "Per": 7073,
      "Rem": 7074,
      "YY": 7075,
      "sch": 7076,
      "uing": 7077,
      "Ġ..": 7078,
      "ena": 7079,
      "ĠTer": 7080,
      "ifiable": 7081,
      "Ġsell": 7082,
      "ĠPart": 7083,
      "lets": 7084,
      "Ġquant": 7085,
      "Ġevident": 7086,
      "Ġreasonably": 7087,
      "Ġdefe": 7088,
      "Ġproves": 7089,
      "Ġcauses": 7090,
      "Ġcontinuing": 7091,
      "Ġsubstantially": 7092,
      "Ġlaunch": 7093,
      "ĠARTIC": 7094,
      "Ġrejected": 7095,
      "ĠPakistan": 7096,
      "Ne": 7097,
      "inv": 7098,
      "Ġcivility": 7099,
      "Ġdude": 7100,
      "ĠWal": 7101,
      "ado": 7102,
      "ĠMont": 7103,
      "ĠHen": 7104,
      "ĠHuman": 7105,
      "illing": 7106,
      "Ġbelieves": 7107,
      "Ġextensive": 7108,
      "ĠProfess": 7109,
      "Ġteams": 7110,
      "Ġera": 7111,
      "ĠCongress": 7112,
      "bys": 7113,
      "png": 7114,
      "Ġsun": 7115,
      "Ġwont": 7116,
      "Ġmurd": 7117,
      "ours": 7118,
      "ĠDiv": 7119,
      "umber": 7120,
      "Ġpreced": 7121,
      "Ġwhereas": 7122,
      "ĠAsia": 7123,
      "Ġwriters": 7124,
      "keep": 7125,
      "Ġoccasion": 7126,
      "\":::": 7127,
      "Ġfeatures": 7128,
      "Ġmillions": 7129,
      "Ġresponses": 7130,
      "Ġpurely": 7131,
      "Ġscale": 7132,
      "ĠancestryFuck": 7133,
      "Did": 7134,
      "Le": 7135,
      "ini": 7136,
      "Ġnick": 7137,
      "thesis": 7138,
      "ĠBob": 7139,
      "ĠDR": 7140,
      "ĠFore": 7141,
      "ĠLin": 7142,
      "whel": 7143,
      "Ġtitled": 7144,
      "Ġproperty": 7145,
      "ossibly": 7146,
      "dden": 7147,
      "Ġpreferred": 7148,
      "reetings": 7149,
      "uhammad": 7150,
      "Ġtraditional": 7151,
      "ĠHELL": 7152,
      "Ġdistinct": 7153,
      "ĠCroatian": 7154,
      "BT": 7155,
      "lor": 7156,
      "was": 7157,
      "Ġtutorial": 7158,
      "information": 7159,
      "Ġwestern": 7160,
      "Ġmaster": 7161,
      "Ġsometime": 7162,
      "âĢ¦": 7163,
      "Ġdeletions": 7164,
      "Ġtrip": 7165,
      "Ġwhenever": 7166,
      "Ġbigger": 7167,
      "ussian": 7168,
      "Ġarchived": 7169,
      "ĠEditing": 7170,
      "ĠSecondly": 7171,
      "ĠRoyal": 7172,
      "Ġdisgust": 7173,
      "IF": 7174,
      "Sc": 7175,
      "crip": 7176,
      "ÃŃ": 7177,
      "Ä±": 7178,
      "Ġretain": 7179,
      "uty": 7180,
      "ĠWT": 7181,
      "iments": 7182,
      "ĠSir": 7183,
      "ĠHERE": 7184,
      "Ġrail": 7185,
      "Ġchapter": 7186,
      "dern": 7187,
      "oslav": 7188,
      "Ġmanaged": 7189,
      "Ġscene": 7190,
      "Ġcolon": 7191,
      "Ġcrimes": 7192,
      "Ġharassing": 7193,
      "ĠAdditionally": 7194,
      "Ġcircumstances": 7195,
      "Ġly": 7196,
      "ita": 7197,
      "Ġwithd": 7198,
      "ĠProp": 7199,
      "ĠBus": 7200,
      "Ġwasting": 7201,
      "Ġproved": 7202,
      "ĠEastern": 7203,
      "Ġwhoever": 7204,
      "Ġrelatively": 7205,
      "Ġsimpl": 7206,
      "why": 7207,
      "Ġwrites": 7208,
      "Ġphen": 7209,
      "Ġ08": 7210,
      "Ġestim": 7211,
      "Ġeffective": 7212,
      "Ġrepresented": 7213,
      "Ġracism": 7214,
      "Ġnewspapers": 7215,
      "ĠCurrent": 7216,
      "Ġprocedure": 7217,
      "97": 7218,
      "NG": 7219,
      "atty": 7220,
      "Ġcensus": 7221,
      "asp": 7222,
      "Ġarrest": 7223,
      "ĠCIA": 7224,
      "ĠOver": 7225,
      "Ġdisease": 7226,
      "Ġque": 7227,
      "Ġprison": 7228,
      "Ġserved": 7229,
      "because": 7230,
      "athy": 7231,
      "Ġhistorian": 7232,
      "Ġtravel": 7233,
      "Ġquoting": 7234,
      "ĠSeriously": 7235,
      "Ġtechnically": 7236,
      "Ġbringing": 7237,
      "Ġinsults": 7238,
      "Ġlibrary": 7239,
      "Ġmathemat": 7240,
      "ĠABOUT": 7241,
      "Ġdedicated": 7242,
      "SP": 7243,
      "lt": 7244,
      "ĠÅ": 7245,
      "itarian": 7246,
      "oms": 7247,
      "Ġsudden": 7248,
      "Ġunknown": 7249,
      "Ġcontract": 7250,
      "ĠInter": 7251,
      "ĠStreet": 7252,
      "Ġsports": 7253,
      "Ġorganisation": 7254,
      "ĠHarry": 7255,
      "ECE": 7256,
      "ĠKorea": 7257,
      "Ġcalc": 7258,
      "Ġprinciples": 7259,
      "AKE": 7260,
      "FL": 7261,
      "Pr": 7262,
      "dated": 7263,
      "jo": 7264,
      "eries": 7265,
      "Ġarms": 7266,
      "ĠDEL": 7267,
      "inking": 7268,
      "ĠEth": 7269,
      "Ġhero": 7270,
      "Ġdefinitions": 7271,
      "Ġhighest": 7272,
      "Ġconstitution": 7273,
      "ĠCOCKSUCKING": 7274,
      "ĠArmenian": 7275,
      "HR": 7276,
      "den": 7277,
      "Ġcook": 7278,
      "ĠSa": 7279,
      "ĠSource": 7280,
      "ĠCare": 7281,
      "abb": 7282,
      "ĠReal": 7283,
      "Ġspot": 7284,
      "Ġharrass": 7285,
      "Ġopened": 7286,
      "Ġrespected": 7287,
      "Ġdenial": 7288,
      "Ġintroduce": 7289,
      "ahahahah": 7290,
      "ALISM": 7291,
      "Ġinnocent": 7292,
      "ĠAssociation": 7293,
      "96": 7294,
      "border": 7295,
      "onent": 7296,
      "ano": 7297,
      "Ġpack": 7298,
      "ĠMike": 7299,
      "Ġsuit": 7300,
      "Ġexcess": 7301,
      "Ġunrelated": 7302,
      "ĠGra": 7303,
      "ĠOx": 7304,
      "ĠJon": 7305,
      "Ġprem": 7306,
      "Ġresist": 7307,
      "ferenced": 7308,
      "Ġcheese": 7309,
      "Ġquestionable": 7310,
      "Ġblame": 7311,
      "Ġcites": 7312,
      "Ġstrateg": 7313,
      "space": 7314,
      "Ġassumption": 7315,
      "ĠASSHOLE": 7316,
      "Ġoccurred": 7317,
      "ĠAnti": 7318,
      "Ġincrease": 7319,
      "Ġdemonstrate": 7320,
      "ĠPortug": 7321,
      "ĠQueen": 7322,
      "English": 7323,
      "SR": 7324,
      "Ġfashion": 7325,
      "ima": 7326,
      "ĠSant": 7327,
      "ĠBack": 7328,
      "ĠMove": 7329,
      "ĠDC": 7330,
      "ĠEdu": 7331,
      "ĠUR": 7332,
      "cape": 7333,
      "ĠKind": 7334,
      "neutral": 7335,
      "Ġsubjective": 7336,
      "Ġflow": 7337,
      "Stop": 7338,
      "ĠAcadem": 7339,
      "Ġconvinced": 7340,
      "Ġintellectual": 7341,
      "give": 7342,
      "may": 7343,
      "itage": 7344,
      "Ġnotification": 7345,
      "ĠSay": 7346,
      "iah": 7347,
      "unblock": 7348,
      "urally": 7349,
      "ĠROB": 7350,
      "Ġadds": 7351,
      "Ġpreser": 7352,
      "Ġformed": 7353,
      "Ġincred": 7354,
      "When": 7355,
      "144": 7356,
      "Ġinvolving": 7357,
      "Ġadministrative": 7358,
      "Ġpassage": 7359,
      "Ġhonor": 7360,
      "NNNN": 7361,
      "ĠApparently": 7362,
      "Ġanimal": 7363,
      "Ġintelligent": 7364,
      "Ġpleas": 7365,
      "Ġoccupation": 7366,
      "ĠSteve": 7367,
      "((": 7368,
      "73": 7369,
      "ye": 7370,
      "Ġ\\": 7371,
      "isan": 7372,
      "Ġbush": 7373,
      "Ġreb": 7374,
      "olly": 7375,
      "ĠPublic": 7376,
      "ĠBattle": 7377,
      "elly": 7378,
      "ĠDaniel": 7379,
      "Ġoverwhel": 7380,
      "Ġplat": 7381,
      "ĠSociety": 7382,
      "Ġservices": 7383,
      "Ġ09": 7384,
      "Ġleads": 7385,
      "Ġhighlight": 7386,
      "Ġimprovements": 7387,
      "Ġhorse": 7388,
      "Ġlocked": 7389,
      "))": 7390,
      "83": 7391,
      "History": 7392,
      "bon": 7393,
      "mind": 7394,
      "ĠTre": 7395,
      "ĠCivil": 7396,
      "ĠMatt": 7397,
      "ĠMiss": 7398,
      "ĠFL": 7399,
      "urs": 7400,
      "ĠNick": 7401,
      "Ġadult": 7402,
      "ĠJoe": 7403,
      "ĠKhan": 7404,
      "Ġ''": 7405,
      "ĠReferences": 7406,
      "Ġherself": 7407,
      "Ġstarts": 7408,
      "ĠChristmas": 7409,
      "Ġspeakers": 7410,
      "ĠScot": 7411,
      "ĠEncyclopedia": 7412,
      "Ġmarried": 7413,
      "ĠToday": 7414,
      "Ġconclusions": 7415,
      "IAN": 7416,
      "official": 7417,
      "iced": 7418,
      "Ġear": 7419,
      "ĠThough": 7420,
      "Ġash": 7421,
      "Ġdeem": 7422,
      "Ġbutt": 7423,
      "Ġrot": 7424,
      "ĠLar": 7425,
      "Ġoffense": 7426,
      "Ġownership": 7427,
      "Ġlets": 7428,
      "Ġfeels": 7429,
      "Ġembar": 7430,
      "Ġdownload": 7431,
      "Ġtesting": 7432,
      "Ġjoined": 7433,
      "ĠGreeks": 7434,
      "Ġpressure": 7435,
      "Ġcensor": 7436,
      "Ġincreasing": 7437,
      "Ġtraining": 7438,
      "Ġaudio": 7439,
      "ĠLouis": 7440,
      "Ġugly": 7441,
      "Ġwing": 7442,
      "anoy": 7443,
      "ĠAv": 7444,
      "ĠSC": 7445,
      "Ġstreet": 7446,
      "Ġsequ": 7447,
      "ĠPut": 7448,
      "ĠBab": 7449,
      "ĠMass": 7450,
      "iring": 7451,
      "ĠNeed": 7452,
      "Ġven": 7453,
      "ĠTheir": 7454,
      "Ġjustice": 7455,
      "ĠOs": 7456,
      "Ġnowhere": 7457,
      "icket": 7458,
      "ANISH": 7459,
      "Ġargued": 7460,
      "Ġâľ": 7461,
      "okes": 7462,
      "Ġkilling": 7463,
      "Ġtechnology": 7464,
      "Ġtables": 7465,
      "Ġcleanup": 7466,
      "warring": 7467,
      "Ġethnicity": 7468,
      "ĠSerbia": 7469,
      "Ġdialect": 7470,
      "Ġdubious": 7471,
      "File": 7472,
      "Look": 7473,
      "iot": 7474,
      "ato": 7475,
      "icide": 7476,
      "Ġnut": 7477,
      "admin": 7478,
      "ĠMem": 7479,
      "ardless": 7480,
      "ideo": 7481,
      "Ġprejud": 7482,
      "Ġcoordin": 7483,
      "ugoslav": 7484,
      "ĠIsn": 7485,
      "ĠWithout": 7486,
      "Ġverifiability": 7487,
      "restling": 7488,
      "Ġcondition": 7489,
      "Ġprecisely": 7490,
      "WH": 7491,
      "Ġsister": 7492,
      "organ": 7493,
      "Ġcard": 7494,
      "Ġreform": 7495,
      "Ġ()": 7496,
      "ĠBay": 7497,
      "ights": 7498,
      "Ġspamming": 7499,
      "Ġrefused": 7500,
      "uggest": 7501,
      "avy": 7502,
      "Ġinvite": 7503,
      "Ġmission": 7504,
      "ĠSeems": 7505,
      "Ġ07": 7506,
      "ĠLeg": 7507,
      "ĠColl": 7508,
      "ĠResearch": 7509,
      "ĠIntroduction": 7510,
      "Ġvoted": 7511,
      "Ġcommunication": 7512,
      "ALLY": 7513,
      "Ġfacilitate": 7514,
      "garian": 7515,
      "esome": 7516,
      "omer": 7517,
      "Ġisnt": 7518,
      "ĠWR": 7519,
      "ĠWatch": 7520,
      "ĠSl": 7521,
      "ĠSu": 7522,
      "igan": 7523,
      "ĠCome": 7524,
      "ipped": 7525,
      "iller": 7526,
      "oooo": 7527,
      "Ġalot": 7528,
      "ogether": 7529,
      "Ġcommand": 7530,
      "Ġverb": 7531,
      "rence": 7532,
      "ĠSpain": 7533,
      "Ġexplanations": 7534,
      "Ġsmaller": 7535,
      "ĠDisney": 7536,
      "ĠUNBLOCK": 7537,
      "aughter": 7538,
      "Ġdropdown": 7539,
      "ĠMacedonian": 7540,
      "Ġmachine": 7541,
      "Ġweezer": 7542,
      "British": 7543,
      "NT": 7544,
      "Res": 7545,
      "WW": 7546,
      "aism": 7547,
      "iently": 7548,
      "Ġsir": 7549,
      "iger": 7550,
      "ela": 7551,
      "ilarly": 7552,
      "Ġmanual": 7553,
      "Ġhadn": 7554,
      "Ġsport": 7555,
      "ĠHead": 7556,
      "Ġproblematic": 7557,
      "Ġ[]": 7558,
      "Ġ48": 7559,
      "ĠBeing": 7560,
      "Ġbehalf": 7561,
      "Ġauthorities": 7562,
      "Ġsurr": 7563,
      "oking": 7564,
      "Ġcenter": 7565,
      "Ġhypoth": 7566,
      "Ġprinted": 7567,
      "Ġapplication": 7568,
      "Ġadministration": 7569,
      "Ġcasual": 7570,
      "79": 7571,
      "Love": 7572,
      "MANN": 7573,
      "het": 7574,
      "iat": 7575,
      "published": 7576,
      "ito": 7577,
      "Ġmum": 7578,
      "Ġhidden": 7579,
      "ĠTa": 7580,
      "Ġconcent": 7581,
      "Ġrational": 7582,
      "plain": 7583,
      "Ġrelating": 7584,
      "ĠViet": 7585,
      "Ġoblig": 7586,
      "ocal": 7587,
      "ugh": 7588,
      "ruit": 7589,
      "Ġrealise": 7590,
      "Ġrealized": 7591,
      "ighter": 7592,
      "Ġscrew": 7593,
      "Ġexpressed": 7594,
      "ĠSPANISH": 7595,
      "specific": 7596,
      "Ġpotentially": 7597,
      "Ġfrankly": 7598,
      "Here": 7599,
      "lines": 7600,
      "nam": 7601,
      "Ġcert": 7602,
      "Ġmount": 7603,
      "esh": 7604,
      "ĠBal": 7605,
      "ĠMS": 7606,
      "ĠEU": 7607,
      "arted": 7608,
      "iley": 7609,
      "ensed": 7610,
      "Ġpolite": 7611,
      "Ġdecisions": 7612,
      "azy": 7613,
      "Ġscope": 7614,
      "Ġuntr": 7615,
      "Ġcharges": 7616,
      "Ġseconds": 7617,
      "Ġframe": 7618,
      "Ġskin": 7619,
      "Ġracial": 7620,
      "Ġconnected": 7621,
      "Ġdogs": 7622,
      "Ġgirls": 7623,
      "Ġconservative": 7624,
      "ĠBradbury": 7625,
      "Ġphenomen": 7626,
      "claim": 7627,
      "Ġpig": 7628,
      "ota": 7629,
      "Ġsecurity": 7630,
      "ĠBosn": 7631,
      "Ġunits": 7632,
      "ĠRiver": 7633,
      "ĠLog": 7634,
      "Ġmoves": 7635,
      "ĠAndrew": 7636,
      "Ġplagiar": 7637,
      "Ġfounded": 7638,
      "outhban": 7639,
      "Ġtyping": 7640,
      "Ġarchite": 7641,
      "Ġpuppetry": 7642,
      "ĠMetal": 7643,
      "ĠConstitution": 7644,
      "Ġaccordance": 7645,
      "ĠCENTR": 7646,
      "rhbys": 7647,
      "Actually": 7648,
      "ĠTexas": 7649,
      "outhbanof": 7650,
      "rhbysouthbanof": 7651,
      "63": 7652,
      "Mar": 7653,
      "good": 7654,
      "Ã³": 7655,
      "Ġwikip": 7656,
      "ĠAG": 7657,
      "ĠWay": 7658,
      "ĠMuhammad": 7659,
      "Ġdoll": 7660,
      "ĠHill": 7661,
      "ĠHaw": 7662,
      "ĠDark": 7663,
      "ĠULL": 7664,
      "ATOR": 7665,
      "ĠHebrew": 7666,
      "Ġgender": 7667,
      "Ġspecul": 7668,
      "Ġkinds": 7669,
      "Ġmedic": 7670,
      "TST": 7671,
      "Ġrecognition": 7672,
      "ĠPlus": 7673,
      "Ġidiots": 7674,
      "ĠArabic": 7675,
      "ĠJackson": 7676,
      "Ġtrivia": 7677,
      "Ġreturned": 7678,
      "Ġindefinitely": 7679,
      "ĠROBERT": 7680,
      "ĠULLMANN": 7681,
      "rid": 7682,
      "uis": 7683,
      "Ñģ": 7684,
      "Ġdial": 7685,
      "Ġgross": 7686,
      "ĠSE": 7687,
      "igation": 7688,
      "iament": 7689,
      "ĠDuke": 7690,
      "ĠFederal": 7691,
      "Ġeval": 7692,
      "conf": 7693,
      "Ġvandalising": 7694,
      "notes": 7695,
      "Ġsupporters": 7696,
      "Ġcolumn": 7697,
      "Ġtransfer": 7698,
      "cientific": 7699,
      "ASS": 7700,
      "Ġindicated": 7701,
      "Ġsockpuppets": 7702,
      "Ġvariety": 7703,
      "ĠLeban": 7704,
      "Ġrepresents": 7705,
      "ĠContribs": 7706,
      "Ġpromoting": 7707,
      "Ġmeeting": 7708,
      "ĠPolit": 7709,
      "Ġmental": 7710,
      "ĠIMO": 7711,
      "ĠItaly": 7712,
      "ĠBelow": 7713,
      "ĠPortal": 7714,
      "Ġsanction": 7715,
      "Ġrenamed": 7716,
      "Ġtrivial": 7717,
      "Ġacknowledged": 7718,
      "ĠDELET": 7719,
      ".âĢĶ": 7720,
      "kin": 7721,
      "ker": 7722,
      "ĠThird": 7723,
      "ĠBan": 7724,
      "Ġdoor": 7725,
      "akh": 7726,
      "ĠDVD": 7727,
      "rive": 7728,
      "Ġran": 7729,
      "Ġalph": 7730,
      "ĠGib": 7731,
      "ĠOp": 7732,
      "ribes": 7733,
      "Ġtrade": 7734,
      "Ġresource": 7735,
      "Ġ''''": 7736,
      "Ġparam": 7737,
      "Ġfuckin": 7738,
      "Ġowned": 7739,
      "Ġissued": 7740,
      "ologists": 7741,
      "Ġviewed": 7742,
      "mmm": 7743,
      "Ġtexts": 7744,
      "ĠComment": 7745,
      "uclear": 7746,
      "Ġaccurately": 7747,
      "Ġspeaks": 7748,
      "Ġholding": 7749,
      "ĠAmaz": 7750,
      "ĠKNOW": 7751,
      "91": 7752,
      "DS": 7753,
      "Now": 7754,
      "uations": 7755,
      "ufact": 7756,
      "only": 7757,
      "encies": 7758,
      "Ġopt": 7759,
      "ĠId": 7760,
      "Ġdream": 7761,
      "Ġgarb": 7762,
      "ĠWow": 7763,
      "ĠWTC": 7764,
      "idel": 7765,
      "semb": 7766,
      "ĠCa": 7767,
      "ĠPM": 7768,
      "ĠPower": 7769,
      "ĠMess": 7770,
      "andon": 7771,
      "ĠFar": 7772,
      "ĠshitFuck": 7773,
      "Ġpowerful": 7774,
      "ĠPrince": 7775,
      "ĠONLY": 7776,
      "Ġcontained": 7777,
      "Ġreduce": 7778,
      "Ġvictims": 7779,
      "Ġdeclared": 7780,
      "ĠPIECE": 7781,
      "delanoy": 7782,
      "ĠJoseph": 7783,
      "hab": 7784,
      "zech": 7785,
      "ĠIRC": 7786,
      "Ġnasty": 7787,
      "ĠDave": 7788,
      "ĠDutch": 7789,
      "ĠNext": 7790,
      "ĠRFA": 7791,
      "ĠEp": 7792,
      "Ġtalked": 7793,
      "OUR": 7794,
      "123": 7795,
      "Ġcommunist": 7796,
      "Ġallowing": 7797,
      "ĠIndeed": 7798,
      "Ġoccas": 7799,
      "Ġconflicts": 7800,
      "ĠTurks": 7801,
      "ĠREAD": 7802,
      "Ġ1980": 7803,
      "Ġwikipedians": 7804,
      "dy": 7805,
      "party": 7806,
      "Ġsen": 7807,
      "Ġanarch": 7808,
      "asht": 7809,
      "Ġbear": 7810,
      "lla": 7811,
      "ĠTell": 7812,
      "agina": 7813,
      "ĠMake": 7814,
      "Ġshock": 7815,
      "ĠFace": 7816,
      "ĠJUST": 7817,
      "Ġrepublic": 7818,
      "Ġdiffer": 7819,
      "ĠAsian": 7820,
      "Ġdefense": 7821,
      "USE": 7822,
      "Ġdealt": 7823,
      "Ġquotation": 7824,
      "Ġinternal": 7825,
      "Ġremaining": 7826,
      "Ġelections": 7827,
      "Ġromney": 7828,
      "Ġminimum": 7829,
      "Ġchallenged": 7830,
      "ĠKoso": 7831,
      "Ġdistinguish": 7832,
      "AIDS": 7833,
      "John": 7834,
      "tle": 7835,
      "Ġtree": 7836,
      "ati": 7837,
      "Ġpra": 7838,
      "Ġtoe": 7839,
      "ĠWhether": 7840,
      "Ġadequ": 7841,
      "Ġuniverse": 7842,
      "Ġjack": 7843,
      "ĠLong": 7844,
      "Ġacqu": 7845,
      "aren": 7846,
      "arer": 7847,
      "formed": 7848,
      "itty": 7849,
      "ĠAsh": 7850,
      "Ġregret": 7851,
      "ĠForce": 7852,
      "Ġvalues": 7853,
      "OME": 7854,
      "Ġapproved": 7855,
      "ĠClub": 7856,
      "Ġcomplaints": 7857,
      "ĠGroup": 7858,
      "Ġdeclined": 7859,
      "Ġconformance": 7860,
      "ALISTST": 7861,
      "Ġsolely": 7862,
      "Ġcelebr": 7863,
      "ĠCENTRALISTST": 7864,
      "ĠCENTRALISTSTUPID": 7865,
      "ÙĦ": 7866,
      "âĨĴ": 7867,
      "Ġ....": 7868,
      "Ġmitt": 7869,
      "Ġdang": 7870,
      "otes": 7871,
      "agan": 7872,
      "Ġeast": 7873,
      "ĠCat": 7874,
      "ĠFire": 7875,
      "Ġjerk": 7876,
      "ĠOper": 7877,
      "ĠJournal": 7878,
      "odies": 7879,
      "Ġbranch": 7880,
      "ĠNotrhbysouthbanof": 7881,
      "Ġnominate": 7882,
      "Ġplanning": 7883,
      "Ġportion": 7884,
      "Ġheavily": 7885,
      "33333333": 7886,
      "ĠConflict": 7887,
      "life": 7888,
      "rough": 7889,
      "reens": 7890,
      "Ġwanna": 7891,
      "Ġmate": 7892,
      "Ġfictional": 7893,
      "Ġnations": 7894,
      "Ġemer": 7895,
      "ami": 7896,
      "ĠPri": 7897,
      "ĠBang": 7898,
      "ĠHy": 7899,
      "Ġunit": 7900,
      "Ġreser": 7901,
      "Ġguitar": 7902,
      "Ġreferencing": 7903,
      "Ġorigins": 7904,
      "Ġcaption": 7905,
      "Ġpolitically": 7906,
      "ĠGermans": 7907,
      "Ġtranslated": 7908,
      "Ġcontrast": 7909,
      "Ġvideos": 7910,
      "Ġproductive": 7911,
      "ĠFrequently": 7912,
      "Ġdestroyed": 7913,
      "Ġinvented": 7914,
      "95": 7915,
      "pedia": 7916,
      "rate": 7917,
      "wikipedia": 7918,
      "Ġ}}": 7919,
      "Ġbank": 7920,
      "Ġcart": 7921,
      "Ġcorn": 7922,
      "Ġmir": 7923,
      "Ġanth": 7924,
      "Ġnom": 7925,
      "Ġhaz": 7926,
      "vertical": 7927,
      "ĠHo": 7928,
      "abal": 7929,
      "Ġhearing": 7930,
      "assing": 7931,
      "Ġdecades": 7932,
      "ĠTHEY": 7933,
      "ĠCommon": 7934,
      "Ġpassing": 7935,
      "Ġannounced": 7936,
      "Ġpersist": 7937,
      "Ġfootnote": 7938,
      "Ġwikil": 7939,
      "ĠInstitute": 7940,
      "Ġmisunderstanding": 7941,
      "Ġvirtually": 7942,
      "FORM": 7943,
      "ĠOxford": 7944,
      "ls": 7945,
      "rich": 7946,
      "Ġwp": 7947,
      "ĠAC": 7948,
      "imal": 7949,
      "road": 7950,
      "cell": 7951,
      "Ġarr": 7952,
      "Ġdear": 7953,
      "Ġsoci": 7954,
      "ĠOtt": 7955,
      "ĠLee": 7956,
      "ĠVirgin": 7957,
      "ibl": 7958,
      "azz": 7959,
      "Ġsymp": 7960,
      "Ġadvant": 7961,
      "ĠPlay": 7962,
      "Ġ;-)": 7963,
      "Ġassessment": 7964,
      "Ġdaily": 7965,
      "Ġrollback": 7966,
      "Ġarrogant": 7967,
      "Of": 7968,
      "ds": 7969,
      "Ġwise": 7970,
      "Ġfederal": 7971,
      "ĠIll": 7972,
      "ĠAward": 7973,
      "igious": 7974,
      "Ġconven": 7975,
      "ĠPOW": 7976,
      "ĠNight": 7977,
      "perial": 7978,
      "Ġcommenting": 7979,
      "ĠVict": 7980,
      "Ġelabor": 7981,
      "101": 7982,
      "Ġbadly": 7983,
      "Ġcontrolled": 7984,
      "222": 7985,
      "Ġsolve": 7986,
      "Ġmeaningful": 7987,
      "Ġundue": 7988,
      "Ġmarriage": 7989,
      "ĠSystem": 7990,
      "Ġtradition": 7991,
      "Ġintentions": 7992,
      "Ġsoldiers": 7993,
      "ĠWWE": 7994,
      "Ġnarrow": 7995,
      "ĠClearly": 7996,
      "ĠPersonally": 7997,
      "!\"": 7998,
      "En": 7999,
      "UD": 8000,
      "host": 8001,
      "Ġpil": 8002,
      "aman": 8003,
      "cher": 8004,
      "ĠPE": 8005,
      "ĠDick": 8006,
      "ustration": 8007,
      "Ġleague": 8008,
      "Ġinval": 8009,
      "group": 8010,
      "Ġcorrections": 8011,
      "Ġ98": 8012,
      "ĠISBN": 8013,
      "Ġsurvey": 8014,
      "Ġhistoric": 8015,
      "Ġsorts": 8016,
      "Ġparticipation": 8017,
      "Ġfrequ": 8018,
      "Ġvoting": 8019,
      "Ġsteps": 8020,
      "ennis": 8021,
      "Ġintegrity": 8022,
      "ĠBrazil": 8023,
      "ĠAzerbai": 8024,
      "eth": 8025,
      "Ġtheore": 8026,
      "ĠTE": 8027,
      "ĠPicture": 8028,
      "ĠDen": 8029,
      "...)": 8030,
      "ĠVan": 8031,
      "ĠAltern": 8032,
      "orders": 8033,
      "rats": 8034,
      "Ġgotta": 8035,
      "Ġinteract": 8036,
      "Ġintervention": 8037,
      "Ġrequirement": 8038,
      "Ġchildish": 8039,
      "Ġtranslate": 8040,
      "Ġobtained": 8041,
      "Ġsleep": 8042,
      "74": 8043,
      "93": 8044,
      "||": 8045,
      "Ġtips": 8046,
      "Ġwitness": 8047,
      "Ġbully": 8048,
      "ender": 8049,
      "Ġfab": 8050,
      "Ġfell": 8051,
      "lymp": 8052,
      "uting": 8053,
      "opher": 8054,
      "ĠFat": 8055,
      "Ġunjust": 8056,
      "Ġchron": 8057,
      "allery": 8058,
      "Ġcompleted": 8059,
      "Ġrelative": 8060,
      "Ġrecre": 8061,
      "REAT": 8062,
      "eeee": 8063,
      "Ġcausing": 8064,
      "Ġawards": 8065,
      "Ġdisturb": 8066,
      "Ġmerging": 8067,
      "bye": 8068,
      "uropean": 8069,
      "Ġdenied": 8070,
      "iably": 8071,
      "Ġsubmit": 8072,
      "Ġassociation": 8073,
      "ANNON": 8074,
      "ĠUsing": 8075,
      "Ġsettled": 8076,
      "Ġballs": 8077,
      "Ġrarely": 8078,
      "ĠFIRED": 8079,
      "Add": 8080,
      "rong": 8081,
      "Ġbaby": 8082,
      "icago": 8083,
      "ario": 8084,
      "ĠAut": 8085,
      "ĠWood": 8086,
      "ĠBh": 8087,
      "Ġunbiased": 8088,
      "Ġoverview": 8089,
      "Ġaddressing": 8090,
      "ĠSHANNON": 8091,
      "Ġmerits": 8092,
      "AHAHAH": 8093,
      "Ġfilled": 8094,
      "Ġencouraged": 8095,
      "ĠCompany": 8096,
      "ĠCOMP": 8097,
      "ĠBYE": 8098,
      "ĠARTICLE": 8099,
      "Ġgarbage": 8100,
      "Note": 8101,
      "iy": 8102,
      "yr": 8103,
      "Ġ~~~~": 8104,
      "ref": 8105,
      "Ġwild": 8106,
      "again": 8107,
      "ĠSon": 8108,
      "Ġcontemporary": 8109,
      "ĠOpen": 8110,
      "uming": 8111,
      "ureauc": 8112,
      "ables": 8113,
      "Ġbacked": 8114,
      "ĠReally": 8115,
      "Ġeverywhere": 8116,
      "alem": 8117,
      "Ġextrem": 8118,
      "ĠOrthodox": 8119,
      "atted": 8120,
      "Inc": 8121,
      "ĠExp": 8122,
      "Ġapprox": 8123,
      "ournals": 8124,
      "Ġprograms": 8125,
      "Ġblanking": 8126,
      "iques": 8127,
      "Ġaggressive": 8128,
      "Ġstrength": 8129,
      "Ge": 8130,
      "SI": 8131,
      "def": 8132,
      "ni": 8133,
      "ãĤ": 8134,
      "Ġoptions": 8135,
      "otic": 8136,
      "Ġisland": 8137,
      "ika": 8138,
      "ĠBoy": 8139,
      "ĠMur": 8140,
      "ĠMilitary": 8141,
      "acks": 8142,
      "inton": 8143,
      "Ġ300": 8144,
      "ategories": 8145,
      "ĠProv": 8146,
      "Ġfiled": 8147,
      "Ġautom": 8148,
      "Ġdiffs": 8149,
      "Ġapologise": 8150,
      "Ġconstitute": 8151,
      "ĠRecogn": 8152,
      "Ġoverwhelming": 8153,
      "GO": 8154,
      "Ġbtw": 8155,
      "Ġcla": 8156,
      "Ġpadding": 8157,
      "ĠImp": 8158,
      "Ġnazi": 8159,
      "ĠDirect": 8160,
      "ĠGE": 8161,
      "ĠEnd": 8162,
      "Ġgoals": 8163,
      "aph": 8164,
      "Ġprompt": 8165,
      "Ġthreaten": 8166,
      "CCC": 8167,
      "Ġredirected": 8168,
      "ĠbitchM": 8169,
      "ĠDiscussion": 8170,
      "ĠInterest": 8171,
      "Ġthousand": 8172,
      "Ġdropped": 8173,
      "ĠFROM": 8174,
      "ĠVANDALISM": 8175,
      "Ġobscure": 8176,
      "phaned": 8177,
      "bra": 8178,
      "uzz": 8179,
      "ÑĤ": 8180,
      "Ġic": 8181,
      "aters": 8182,
      "atically": 8183,
      "also": 8184,
      "Ġreversion": 8185,
      "Ġnotion": 8186,
      "ĠSection": 8187,
      "aya": 8188,
      "Ġcong": 8189,
      "unction": 8190,
      "ĠHome": 8191,
      "editing": 8192,
      "ĠDie": 8193,
      "ĠFamily": 8194,
      "ĠOl": 8195,
      "ĠElect": 8196,
      "Ġfactor": 8197,
      "Ġprice": 8198,
      "Ġcommons": 8199,
      "ĠAsk": 8200,
      "ava": 8201,
      "Ġends": 8202,
      "141": 8203,
      "respect": 8204,
      "ĠProt": 8205,
      "Ġnigga": 8206,
      "ĠLIKE": 8207,
      "Ġpromoted": 8208,
      "Ġterrible": 8209,
      "Ġoperation": 8210,
      "consider": 8211,
      "Ġselected": 8212,
      "Ġtrolls": 8213,
      "FFFFFF": 8214,
      "ĠFYI": 8215,
      "Ġvehicle": 8216,
      "ym": 8217,
      "Ġsland": 8218,
      "atri": 8219,
      "alo": 8220,
      "oting": 8221,
      "ĠSikh": 8222,
      "Ġsupply": 8223,
      "Ġinstitution": 8224,
      "Ġcorrecting": 8225,
      "Ġlegis": 8226,
      "ELF": 8227,
      "Ġhumans": 8228,
      "Ġfigured": 8229,
      "ĠColumb": 8230,
      "ĠWIKI": 8231,
      "Ġexpression": 8232,
      "Ġclosing": 8233,
      "ĠBlue": 8234,
      "????????": 8235,
      "Ġgrav": 8236,
      "Ġattributed": 8237,
      "Ġlicensing": 8238,
      "Red": 8239,
      "friend": 8240,
      "hist": 8241,
      "Ġ!!!": 8242,
      "ĠTag": 8243,
      "rov": 8244,
      "Ġdozen": 8245,
      "ĠDun": 8246,
      "Ġju": 8247,
      "ĠEV": 8248,
      "ĠUTC": 8249,
      "soft": 8250,
      "ogy": 8251,
      "Ġplant": 8252,
      "Ġdefam": 8253,
      "Ġroy": 8254,
      "Ġexplo": 8255,
      "ĠOriginal": 8256,
      "Ġdiscrim": 8257,
      "USH": 8258,
      "Ġbreaking": 8259,
      "ĠContribut": 8260,
      "ĠClass": 8261,
      "Ġreceiving": 8262,
      "Ġresponsibility": 8263,
      "Ġexpertise": 8264,
      "Ġinterviews": 8265,
      "Ġdisplayed": 8266,
      "Ġsubsequent": 8267,
      "Ġperceived": 8268,
      "Int": 8269,
      "ba": 8270,
      "ora": 8271,
      "orum": 8272,
      "enth": 8273,
      "Ġeg": 8274,
      "rove": 8275,
      "unny": 8276,
      "ĠMs": 8277,
      "ieve": 8278,
      "aphr": 8279,
      "INT": 8280,
      "Ġspin": 8281,
      "Ġentity": 8282,
      "Ġ500": 8283,
      "Ġblow": 8284,
      "Ġscr": 8285,
      "Ġstring": 8286,
      "Ġflu": 8287,
      "ĠLeave": 8288,
      "ĠNOW": 8289,
      "Ġpieces": 8290,
      "Ġcarried": 8291,
      "Ġjudgment": 8292,
      "Ġpermitted": 8293,
      "Ġconcepts": 8294,
      "Ġprofession": 8295,
      "ski": 8296,
      "Ġopposing": 8297,
      "Ġgrowing": 8298,
      "Ġseeking": 8299,
      "Okay": 8300,
      "Ġamazing": 8301,
      "ĠAfghanistan": 8302,
      "Regarding": 8303,
      "bour": 8304,
      "eff": 8305,
      "hot": 8306,
      "last": 8307,
      "wik": 8308,
      "Äĩ": 8309,
      "iser": 8310,
      "Ġwel": 8311,
      "Ġwest": 8312,
      "Ġbog": 8313,
      "Ġbreat": 8314,
      "ĠWars": 8315,
      "igg": 8316,
      "ĠCup": 8317,
      "ĠPC": 8318,
      "ĠBa": 8319,
      "ils": 8320,
      "ĠRom": 8321,
      "ĠLink": 8322,
      "ĠExt": 8323,
      "Ġpov": 8324,
      "Ġwanting": 8325,
      "Ġgradu": 8326,
      "Ġcold": 8327,
      "Ġgenocide": 8328,
      "Ġentertain": 8329,
      "ahoo": 8330,
      "ysop": 8331,
      "Ġstrike": 8332,
      "spacing": 8333,
      "nson": 8334,
      "Ġautob": 8335,
      "Ġcenturies": 8336,
      "Ġprotecting": 8337,
      "Ġdrug": 8338,
      "Ġboxes": 8339,
      "Ġreflects": 8340,
      "Ġstubs": 8341,
      "Ġdemonstrated": 8342,
      "roversial": 8343,
      "Ġemphasis": 8344,
      "Help": 8345,
      "cat": 8346,
      "pop": 8347,
      "rage": 8348,
      "itative": 8349,
      "Ġdaughter": 8350,
      "ĠTra": 8351,
      "Ġeight": 8352,
      "ikes": 8353,
      "Ġsect": 8354,
      "ĠPan": 8355,
      "ĠBR": 8356,
      "raction": 8357,
      "hey": 8358,
      "ĠAndy": 8359,
      "Ġfeet": 8360,
      "Ġbiographical": 8361,
      "ISTR": 8362,
      "Ġdiscred": 8363,
      "168": 8364,
      "Ġmuslim": 8365,
      "Ġthreatened": 8366,
      "Ġrepresentative": 8367,
      "Ġcalm": 8368,
      "Edgar": 8369,
      "Ġdishonest": 8370,
      "Br": 8371,
      "First": 8372,
      "Let": 8373,
      "bag": 8374,
      "his": 8375,
      "ero": 8376,
      "Ġbag": 8377,
      "Ġgoo": 8378,
      "thur": 8379,
      "ĠMen": 8380,
      "ĠHence": 8381,
      "ĠHoly": 8382,
      "ĠFal": 8383,
      "abled": 8384,
      "Ġjournals": 8385,
      "Ġfactually": 8386,
      "ĠVe": 8387,
      "ĠDeath": 8388,
      "ALI": 8389,
      "ashed": 8390,
      "Ġindication": 8391,
      "Ġcomplicated": 8392,
      "Ġmodified": 8393,
      "Ġsucceed": 8394,
      "Ġforums": 8395,
      "Ġwindow": 8396,
      "Ð¾Ð": 8397,
      "emitic": 8398,
      "Ġtactics": 8399,
      "Ġencyclopaedia": 8400,
      "Block": 8401,
      "ECT": 8402,
      "Jan": 8403,
      "rated": 8404,
      "uate": 8405,
      "Ġ!!": 8406,
      "isc": 8407,
      "ĠIss": 8408,
      "Ġinline": 8409,
      "ĠCSD": 8410,
      "akers": 8411,
      "ĠYugoslav": 8412,
      "ĠGame": 8413,
      "Ġdisreg": 8414,
      "Ġoutcome": 8415,
      "pty": 8416,
      "isms": 8417,
      "acific": 8418,
      "ĠChicago": 8419,
      "ĠVER": 8420,
      "Ġdirector": 8421,
      "Ġsearching": 8422,
      "Ġcapacity": 8423,
      "Ġconvince": 8424,
      "Ġadopted": 8425,
      "Ġpermanently": 8426,
      "Ġcomprehensive": 8427,
      "Ġprepared": 8428,
      "ĠMexico": 8429,
      "Administrators": 8430,
      "Mer": 8431,
      "SC": 8432,
      "bie": 8433,
      "nel": 8434,
      "wen": 8435,
      "ension": 8436,
      "Ġpan": 8437,
      "ilater": 8438,
      "Ġrough": 8439,
      "Ġmanufact": 8440,
      "acob": 8441,
      "Ġplans": 8442,
      "ĠArbitration": 8443,
      "Ġserves": 8444,
      "Ġcounty": 8445,
      "prus": 8446,
      "Ġsched": 8447,
      "ĠBeat": 8448,
      "ĠComments": 8449,
      "Ġworldwide": 8450,
      "Ġmoral": 8451,
      "ĠFeatured": 8452,
      "2007": 8453,
      "Ġcrack": 8454,
      "Ġreplacement": 8455,
      "ĠRepublican": 8456,
      "books": 8457,
      "OOOOOOOO": 8458,
      "ĠEVERY": 8459,
      "MC": 8460,
      "cript": 8461,
      "uer": 8462,
      "onder": 8463,
      "Ġsight": 8464,
      "asel": 8465,
      "assion": 8466,
      "Ġgather": 8467,
      "ĠSep": 8468,
      "abase": 8469,
      "Ġunus": 8470,
      "ĠRome": 8471,
      "Ġalive": 8472,
      "Ġ1000": 8473,
      "Ġregularly": 8474,
      "ĠDev": 8475,
      "Ġpublicly": 8476,
      "issions": 8477,
      "ussy": 8478,
      "Ġnewsletter": 8479,
      "Ġnationalist": 8480,
      "Ġfalls": 8481,
      "Ġhorrible": 8482,
      "Ġunreason": 8483,
      "ubbish": 8484,
      "ĠNobody": 8485,
      "ĠHenry": 8486,
      "Ġinvalid": 8487,
      "National": 8488,
      "language": 8489,
      "Ġtiny": 8490,
      "Ġwhore": 8491,
      "ador": 8492,
      "olar": 8493,
      "ĠMax": 8494,
      "Ġrise": 8495,
      "Ġassure": 8496,
      "avis": 8497,
      "Ġheritage": 8498,
      "Ġdescent": 8499,
      "129": 8500,
      "Ġ82": 8501,
      "Ġextended": 8502,
      "Ġtries": 8503,
      "Ġnominations": 8504,
      "Ġblogs": 8505,
      "ĠMcC": 8506,
      "Ġerrone": 8507,
      "ĠMinister": 8508,
      "ĠHolocaust": 8509,
      "Ġaccomplish": 8510,
      "Ġmedicine": 8511,
      "Gr": 8512,
      "ded": 8513,
      "mir": 8514,
      "met": 8515,
      "Ġsin": 8516,
      "icient": 8517,
      "ĠTony": 8518,
      "Ġforb": 8519,
      "ĠCNN": 8520,
      "ĠCzech": 8521,
      "ĠMos": 8522,
      "rial": 8523,
      "ĠRick": 8524,
      "ĠGuy": 8525,
      "cuss": 8526,
      "Ġcoinc": 8527,
      "Ġcontentious": 8528,
      "Ġserver": 8529,
      "ĠDoing": 8530,
      "ĠSecret": 8531,
      "Ġ9000": 8532,
      "Ġcolour": 8533,
      "Ġofficer": 8534,
      "Ġdiscover": 8535,
      "AST": 8536,
      "Ġmusical": 8537,
      "Ġdescriptions": 8538,
      "Ġmeaningless": 8539,
      "Ġcapable": 8540,
      "Ġhyper": 8541,
      "ĠQuestion": 8542,
      "Ġturns": 8543,
      "Ġprofessor": 8544,
      "Ġempire": 8545,
      "Ġreduced": 8546,
      "ĠDemocratic": 8547,
      "Ġpetty": 8548,
      "ĠCroatia": 8549,
      "ĠBulgarian": 8550,
      "ĠLibrary": 8551,
      "ji": 8552,
      "ridge": 8553,
      "oral": 8554,
      "Ġble": 8555,
      "ĠTown": 8556,
      "ĠSah": 8557,
      "char": 8558,
      "Ġsevere": 8559,
      "ĠBish": 8560,
      "ilver": 8561,
      "Ġabst": 8562,
      "ĠFa": 8563,
      "ĠFred": 8564,
      "ura": 8565,
      "ĠRay": 8566,
      "pelled": 8567,
      "ĠGot": 8568,
      "!!!!!!!!!": 8569,
      "Ġbrown": 8570,
      "Ġfounder": 8571,
      "Ġendorse": 8572,
      "Ġinsp": 8573,
      "Ġbanning": 8574,
      "Ġpretend": 8575,
      "Ġheader": 8576,
      "Ġruns": 8577,
      "Ġfavorite": 8578,
      "iveness": 8579,
      "Any": 8580,
      "MP": 8581,
      "main": 8582,
      "part": 8583,
      "rome": 8584,
      "sa": 8585,
      "Ġmast": 8586,
      "arre": 8587,
      "Ġglo": 8588,
      "ĠAk": 8589,
      "imp": 8590,
      "Ġstress": 8591,
      "ĠHell": 8592,
      "Ġrich": 8593,
      "ĠOUT": 8594,
      "lov": 8595,
      "ummer": 8596,
      "Ġperpet": 8597,
      "active": 8598,
      "ĠStand": 8599,
      "rative": 8600,
      "istrator": 8601,
      "Ġkinda": 8602,
      "Ġtypically": 8603,
      "Ġrevisions": 8604,
      "EEP": 8605,
      "Ġliked": 8606,
      "Ġaltogether": 8607,
      "Ġcommunicate": 8608,
      "Ġdeeply": 8609,
      "ĠJudaism": 8610,
      "Ġroman": 8611,
      "ĠADMINS": 8612,
      "Ġreversions": 8613,
      "ĠUkraine": 8614,
      "ĠURL": 8615,
      "Ah": 8616,
      "At": 8617,
      "MS": 8618,
      "och": 8619,
      "rics": 8620,
      "ĠIQ": 8621,
      "ications": 8622,
      "usic": 8623,
      "Ġlazy": 8624,
      "Ġseperate": 8625,
      "ĠPD": 8626,
      "ĠPot": 8627,
      "elle": 8628,
      "Ġproxy": 8629,
      "ĠRather": 8630,
      "leting": 8631,
      "aching": 8632,
      "Ġposter": 8633,
      "certain": 8634,
      "uese": 8635,
      "mann": 8636,
      "ĠNotice": 8637,
      "ĠINFORM": 8638,
      "Ġpatent": 8639,
      "Ġeffectively": 8640,
      "Ġapproval": 8641,
      "Ġbroke": 8642,
      "Ġportray": 8643,
      "Ġpicked": 8644,
      "ĠParis": 8645,
      "Ġcease": 8646,
      "ĠReliable": 8647,
      "ĠPolicies": 8648,
      "uyuyuyuyuyuyuyuyuyuyuyuyuyuyuyuyuyuyuyuyuyuyuyuyuyuyuyuyuyuyuyuy": 8649,
      "nnnnnnnnnnnnnnnnnnnnnnnnnnnnnnnnnnnnnnnnnnnnnnnnnnnnnnnnnnnnnnnn": 8650,
      "Ġhypothesis": 8651,
      "BA": 8652,
      "Ġtort": 8653,
      "inf": 8654,
      "Ġmax": 8655,
      "Ġovert": 8656,
      "erer": 8657,
      "Ġneo": 8658,
      "ĠGN": 8659,
      "Ġheat": 8660,
      "ritical": 8661,
      "ucks": 8662,
      "ĠInformation": 8663,
      "Ġattend": 8664,
      "acter": 8665,
      "ressive": 8666,
      "athan": 8667,
      "Ġdescend": 8668,
      "Ġdifferently": 8669,
      "Ġideology": 8670,
      "upper": 8671,
      "146": 8672,
      "anny": 8673,
      "ĠSomething": 8674,
      "ĠReport": 8675,
      "***": 8676,
      "ĠLooking": 8677,
      "Ġconducted": 8678,
      "Ġruled": 8679,
      "ĠADMINISTR": 8680,
      "ĠGeorgia": 8681,
      "Template": 8682,
      "Ġax": 8683,
      "Ġsom": 8684,
      "Ġsending": 8685,
      "Ġcos": 8686,
      "Ġhint": 8687,
      "Ġdirty": 8688,
      "arant": 8689,
      "Ġfort": 8690,
      "ĠHard": 8691,
      "Ġexhib": 8692,
      "eman": 8693,
      "iva": 8694,
      "Ġenfor": 8695,
      "Ġactor": 8696,
      "ails": 8697,
      "Ġspoke": 8698,
      "Ġcommittee": 8699,
      "Ġclimate": 8700,
      "Ġdefault": 8701,
      "Ġawesome": 8702,
      "Ġdemocracy": 8703,
      "Ġqualified": 8704,
      "Ġdisagreement": 8705,
      "Ġidentical": 8706,
      "Ġboys": 8707,
      "Ġconsistently": 8708,
      "ĠSyria": 8709,
      "Ġbroadcast": 8710,
      "________________________________": 8711,
      "ĠDaily": 8712,
      "Ġterminology": 8713,
      "Ġenemy": 8714,
      "Ġplatform": 8715,
      "Dear": 8716,
      "Rel": 8717,
      "SA": 8718,
      "WN": 8719,
      "las": 8720,
      "oided": 8721,
      "idering": 8722,
      "ĠSU": 8723,
      "ĠSand": 8724,
      "unciation": 8725,
      "Ġsees": 8726,
      "olk": 8727,
      "ila": 8728,
      "ĠDam": 8729,
      "about": 8730,
      "ĠTheory": 8731,
      "Ġcomfort": 8732,
      "ĠEconom": 8733,
      "Ġplacing": 8734,
      "Ġclassic": 8735,
      "ĠTruth": 8736,
      "ĠSTILL": 8737,
      "ĠNeither": 8738,
      "Ġessential": 8739,
      "ĠFlor": 8740,
      "Ġperformance": 8741,
      "Ġsalute": 8742,
      "ĠEspecially": 8743,
      "ĠFollow": 8744,
      "HRHS": 8745,
      "ĠADMINISTRATOR": 8746,
      ".(": 8747,
      "cuse": 8748,
      "ules": 8749,
      "Ġbiz": 8750,
      "Ġfly": 8751,
      "ionist": 8752,
      "ĠTable": 8753,
      "Ġwhilst": 8754,
      "roc": 8755,
      "ĠMicro": 8756,
      "Ġorient": 8757,
      "quette": 8758,
      "Ġvac": 8759,
      "Ġmob": 8760,
      "Ġparaphr": 8761,
      "192": 8762,
      "Ġleaders": 8763,
      "ĠOrder": 8764,
      "Ġdouche": 8765,
      "ĠRegardless": 8766,
      "Ġquotations": 8767,
      "Ġfresh": 8768,
      "Ġcensored": 8769,
      "Ġfocused": 8770,
      "Ġinitially": 8771,
      "trans": 8772,
      "Ġfemin": 8773,
      "ĠCyprus": 8774,
      "ĠAlbanian": 8775,
      "ĠSignpost": 8776,
      "oppy": 8777,
      "Ġbeautiful": 8778,
      "Ġfabric": 8779,
      "210": 8780,
      "aed": 8781,
      "dog": 8782,
      "tarian": 8783,
      "uct": 8784,
      "written": 8785,
      "inite": 8786,
      "Ġpending": 8787,
      "Ġhang": 8788,
      "estic": 8789,
      "urday": 8790,
      "alker": 8791,
      "ĠGreetings": 8792,
      "Ġpreference": 8793,
      "Ġcopies": 8794,
      "Ġgeneration": 8795,
      "ĠAdam": 8796,
      "Ġlogging": 8797,
      "Ġsocks": 8798,
      "oked": 8799,
      "Ġlawyer": 8800,
      "Ġengaging": 8801,
      "oval": 8802,
      "Ġpatience": 8803,
      "Ġvisible": 8804,
      "Ġrepresentation": 8805,
      "Ġlevels": 8806,
      "Ġcomplaining": 8807,
      "Ġmeantime": 8808,
      "Ġsignificantly": 8809,
      "Ġamounts": 8810,
      "Ġrecommended": 8811,
      "UMB": 8812,
      "ĠBoard": 8813,
      "Ġutterly": 8814,
      "Ġbuddy": 8815,
      "Ġinserting": 8816,
      "Am": 8817,
      "Sock": 8818,
      "mology": 8819,
      "àº": 8820,
      "inct": 8821,
      "Ġpump": 8822,
      "Ġgas": 8823,
      "ĠWolf": 8824,
      "ĠSupport": 8825,
      "ĠCreat": 8826,
      "illage": 8827,
      "Ġcomic": 8828,
      "ĠGal": 8829,
      "Ġdisambig": 8830,
      "iana": 8831,
      "Ġspelled": 8832,
      "Ġpertain": 8833,
      "Ġbridge": 8834,
      "Ġtempor": 8835,
      "Ġweekend": 8836,
      "AHH": 8837,
      "Ġobjects": 8838,
      "Ġcontacted": 8839,
      "Ġpractices": 8840,
      "ĠAIDSAIDS": 8841,
      "Ġmotives": 8842,
      "Ġurge": 8843,
      "Ġconsistency": 8844,
      "ĠGener": 8845,
      "EEEE": 8846,
      "Ġwinning": 8847,
      "ĠArabs": 8848,
      "Ġapplicable": 8849,
      "Ġexclusively": 8850,
      "ĠFacebook": 8851,
      "Pl": 8852,
      "Ser": 8853,
      "Te": 8854,
      "Wow": 8855,
      "gor": 8856,
      "parent": 8857,
      "rus": 8858,
      "west": 8859,
      "Ġsouthern": 8860,
      "itors": 8861,
      "Ġbug": 8862,
      "Ġbureauc": 8863,
      "Ġcir": 8864,
      "Ġpunk": 8865,
      "ĠIII": 8866,
      "especially": 8867,
      "Ġrely": 8868,
      "ĠSW": 8869,
      "ĠBank": 8870,
      "ĠMOS": 8871,
      "ĠNigger": 8872,
      "people": 8873,
      "ĠLinks": 8874,
      "alls": 8875,
      "Ġadminship": 8876,
      "Ġcontinually": 8877,
      "venue": 8878,
      "Ġpresenting": 8879,
      "Ġdistance": 8880,
      "Ġupdating": 8881,
      "Ġfields": 8882,
      "Ġanaly": 8883,
      "Ġcorrupt": 8884,
      "Ġsurprising": 8885,
      "ILLION": 8886,
      "Ġdegrees": 8887,
      "Ġdecline": 8888,
      "ĠRights": 8889,
      "Ġundoing": 8890,
      "ĠPalestinian": 8891,
      "Ġpermanent": 8892,
      "Ġstrictly": 8893,
      "RAPCRAPCRAPCRAPCRAPCRAPCRAPCRAPCRAPCRAPCRAPCRAPCRAPCRAPCRAPCRAPC": 8894,
      "Will": 8895,
      "^^": 8896,
      "hite": 8897,
      "iel": 8898,
      "power": 8899,
      "rot": 8900,
      "Ðº": 8901,
      "Ġborrow": 8902,
      "esy": 8903,
      "ĠSom": 8904,
      "ĠSlav": 8905,
      "ĠCertain": 8906,
      "Ġsea": 8907,
      "ĠMount": 8908,
      "etch": 8909,
      "ĠDuring": 8910,
      "ĠNic": 8911,
      "Ġdislike": 8912,
      "ĠYoung": 8913,
      "Ġremote": 8914,
      "archy": 8915,
      "white": 8916,
      "Ġcopyvio": 8917,
      "ropriately": 8918,
      "Ġplays": 8919,
      "Ġauthent": 8920,
      "159": 8921,
      "177": 8922,
      "aiwan": 8923,
      "Ġlimits": 8924,
      "Ġbuildings": 8925,
      "sky": 8926,
      "Ġsuperior": 8927,
      "ĠNEVER": 8928,
      "ĠKosovo": 8929,
      "ĠINFORMATION": 8930,
      "po": 8931,
      "tar": 8932,
      "Ã¤": 8933,
      "Ġsitting": 8934,
      "Ġboo": 8935,
      "Ġpuppets": 8936,
      "Ġhomin": 8937,
      "ĠAW": 8938,
      "ĠMuch": 8939,
      "ĠFC": 8940,
      "ĠNon": 8941,
      "ĠNat": 8942,
      "ĠNazis": 8943,
      "Ġrant": 8944,
      "Ġheight": 8945,
      "ĠLead": 8946,
      "ĠLady": 8947,
      "ultural": 8948,
      "ictions": 8949,
      "Ġfinds": 8950,
      "Ġclearer": 8951,
      "Ġentered": 8952,
      "Ġmiscon": 8953,
      "Ġscen": 8954,
      "Ġending": 8955,
      "Ġnorthern": 8956,
      "Ġsurface": 8957,
      "226": 8958,
      "Ġhumor": 8959,
      "idding": 8960,
      "Ġclasses": 8961,
      "ĠService": 8962,
      "ĠJohnson": 8963,
      "Ġ1999": 8964,
      "Ġmembership": 8965,
      "Ġparticipants": 8966,
      "Ġcleaning": 8967,
      "Notability": 8968,
      "Ġsuspected": 8969,
      "thewhite": 8970,
      "attythewhite": 8971,
      "?).": 8972,
      "Comm": 8973,
      "IE": 8974,
      "LC": 8975,
      "Support": 8976,
      "da": 8977,
      "sim": 8978,
      "rec": 8979,
      "Ġbatt": 8980,
      "Ġfought": 8981,
      "ĠCross": 8982,
      "Ġdevice": 8983,
      "ĠBat": 8984,
      "Ġshop": 8985,
      "Ġadjust": 8986,
      "anti": 8987,
      "ĠRy": 8988,
      "ĠRog": 8989,
      "ĠRod": 8990,
      "ĠLittle": 8991,
      "Ġintim": 8992,
      "icks": 8993,
      "Ġassass": 8994,
      "Ġregions": 8995,
      "Ġstrug": 8996,
      "Ġguidance": 8997,
      "Ġavoided": 8998,
      "ampion": 8999,
      "ĠFACT": 9000,
      "Ġholds": 9001,
      "Ġdocumentation": 9002,
      "OPLE": 9003,
      "Ġderived": 9004,
      "ĠAlexander": 9005,
      "ĠVerifiability": 9006,
      "Ġthoroughly": 9007,
      "ĠSwedish": 9008,
      "ĠDistrict": 9009,
      "Ġuntrue": 9010,
      "Ġdangerous": 9011,
      "ĠRecognise": 9012,
      "Ma": 9013,
      "low": 9014,
      "era": 9015,
      "atus": 9016,
      "Ġcamer": 9017,
      "Ġfals": 9018,
      "asm": 9019,
      "iams": 9020,
      "ĠFour": 9021,
      "ardian": 9022,
      "Ġintr": 9023,
      "Ġmole": 9024,
      "Ġrepost": 9025,
      "ĠView": 9026,
      "Ġpark": 9027,
      "oston": 9028,
      "Ġcolors": 9029,
      "Ġretired": 9030,
      "Ġhandled": 9031,
      "Ġstats": 9032,
      "Ġorganized": 9033,
      "AAA": 9034,
      "ortunate": 9035,
      "ĠClinton": 9036,
      "Ġpromotes": 9037,
      "Ġmassacre": 9038,
      "Ġproposing": 9039,
      "Ġassertions": 9040,
      "Contribs": 9041,
      "Ġpublishing": 9042,
      "ĠEverything": 9043,
      "Ġsynthesis": 9044,
      "Ġenforcement": 9045,
      "Ġdynam": 9046,
      "Ġtemperature": 9047,
      "OG": 9048,
      "Tube": 9049,
      "Ve": 9050,
      "full": 9051,
      "gh": 9052,
      "prom": 9053,
      "Ġbed": 9054,
      "Ġcodes": 9055,
      "Ġfont": 9056,
      "aron": 9057,
      "arter": 9058,
      "usalem": 9059,
      "ĠAge": 9060,
      "erent": 9061,
      "ĠSouthern": 9062,
      "Ġarb": 9063,
      "ĠCla": 9064,
      "Ġstable": 9065,
      "ĠPir": 9066,
      "isted": 9067,
      "iry": 9068,
      "Ġshape": 9069,
      "ĠDoug": 9070,
      "ĠDOWN": 9071,
      "Ġsovere": 9072,
      "ograp": 9073,
      "ĠKKK": 9074,
      "ĠKILL": 9075,
      "ears": 9076,
      "Ġreliability": 9077,
      "Ġfactors": 9078,
      "Ġpartisan": 9079,
      "licensed": 9080,
      "Ġinfringe": 9081,
      "wealth": 9082,
      "Ġbits": 9083,
      "Ġscan": 9084,
      "Ġcrow": 9085,
      "ĠSometimes": 9086,
      "Ġamongst": 9087,
      "ĠAssy": 9088,
      "Ġjoining": 9089,
      "Ġblatantly": 9090,
      "Ġbriefly": 9091,
      "rrrr": 9092,
      "Ġcorrection": 9093,
      "Ġrevealed": 9094,
      "Ġbarely": 9095,
      "ĠPOWER": 9096,
      "Ke": 9097,
      "Prop": 9098,
      "house": 9099,
      "lar": 9100,
      "lad": 9101,
      "nos": 9102,
      "rish": 9103,
      "uf": 9104,
      "ws": 9105,
      "Ġ]": 9106,
      "ĠØ": 9107,
      "Ġtherap": 9108,
      "Ġsarc": 9109,
      "Ġfif": 9110,
      "Ġhiding": 9111,
      "Ġwhe": 9112,
      "ĠWin": 9113,
      "ĠThought": 9114,
      "adow": 9115,
      "una": 9116,
      "ĠCR": 9117,
      "ĠMong": 9118,
      "ĠHan": 9119,
      "ĠInv": 9120,
      "ĠCham": 9121,
      "Ġsaved": 9122,
      "ĠAli": 9123,
      "Ġcounts": 9124,
      "Ġflight": 9125,
      "Ġminds": 9126,
      "Ġqualifies": 9127,
      "Christian": 9128,
      "Ġreligions": 9129,
      "Ġaccordingly": 9130,
      "ĠPlan": 9131,
      "THING": 9132,
      "Ġforgotten": 9133,
      "ĠCongratulations": 9134,
      "Ġruling": 9135,
      "Ġviewpoints": 9136,
      "ĠSurely": 9137,
      "ĠOffice": 9138,
      "ĠDarwin": 9139,
      "Images": 9140,
      "ĠbitchMattythewhite": 9141,
      "HING": 9142,
      "count": 9143,
      "dr": 9144,
      "links": 9145,
      "oices": 9146,
      "Ġ_": 9147,
      "Ġain": 9148,
      "inating": 9149,
      "edge": 9150,
      "ancing": 9151,
      "Ġincl": 9152,
      "otion": 9153,
      "utive": 9154,
      "ĠSame": 9155,
      "ĠSincerely": 9156,
      "ĠCC": 9157,
      "ĠCorn": 9158,
      "Ġstance": 9159,
      "Ġstamp": 9160,
      "ĠPal": 9161,
      "ĠMIN": 9162,
      "ĠMajor": 9163,
      "ests": 9164,
      "Ġrubbish": 9165,
      "Ġunif": 9166,
      "ĠRus": 9167,
      "emp": 9168,
      "ums": 9169,
      "Ġagrees": 9170,
      "ĠWhatever": 9171,
      "ache": 9172,
      "Ġvandalise": 9173,
      "Ġregister": 9174,
      "Ġputs": 9175,
      "Ġbrow": 9176,
      "Ġrestoring": 9177,
      "Ġdepend": 9178,
      "Ġspeaker": 9179,
      "Ġclarified": 9180,
      "Ġsupposedly": 9181,
      "ĠQuestions": 9182,
      "Ġ1970": 9183,
      "consensus": 9184,
      "Ġteacher": 9185,
      "Ġeconomy": 9186,
      "Ġachieved": 9187,
      "Ġbullying": 9188,
      "Ġadvertisement": 9189,
      "Ġsuddenly": 9190,
      "Sch": 9191,
      "TE": 9192,
      "world": 9193,
      "Ġnerd": 9194,
      "otal": 9195,
      "Ġreconsider": 9196,
      "Ġloose": 9197,
      "ĠSources": 9198,
      "Ġconce": 9199,
      "Ġdece": 9200,
      "Ġdoctor": 9201,
      "ĠDi": 9202,
      "ĠGive": 9203,
      "ĠOlymp": 9204,
      "ĠLic": 9205,
      "Ġleaves": 9206,
      "Ġcomply": 9207,
      "Ġpersec": 9208,
      "Ġindex": 9209,
      "Ġwritings": 9210,
      "Ġinfer": 9211,
      "Ġrob": 9212,
      "195": 9213,
      "Ġpossess": 9214,
      "Ġsituations": 9215,
      "ĠProf": 9216,
      "Ġretard": 9217,
      "ĠMarx": 9218,
      "227": 9219,
      "Ġdoub": 9220,
      "Ġwatched": 9221,
      "Ġmedi": 9222,
      "Ġabsence": 9223,
      "ĠPhys": 9224,
      "Ġdrama": 9225,
      "251": 9226,
      "ĠCUNTS": 9227,
      "Israel": 9228,
      "ĠBEEN": 9229,
      "rieved": 9230,
      "ĠFootball": 9231,
      "ĠEducation": 9232,
      "Ġdeemed": 9233,
      "Ġadvantage": 9234,
      "Dr": 9235,
      "Great": 9236,
      "Ver": 9237,
      "XX": 9238,
      "bian": 9239,
      "master": 9240,
      "took": 9241,
      "vy": 9242,
      "Äģ": 9243,
      "Ġtaught": 9244,
      "Ġpics": 9245,
      "Ġhook": 9246,
      "Ġna": 9247,
      "Ġnoun": 9248,
      "\"\":": 9249,
      "ĠWel": 9250,
      "room": 9251,
      "ĠSBS": 9252,
      "Ġneut": 9253,
      "udes": 9254,
      "Ġfucker": 9255,
      "LLLL": 9256,
      "Ġconfuse": 9257,
      "Ġinstances": 9258,
      "onto": 9259,
      "aware": 9260,
      "Ġempty": 9261,
      "Ġscreens": 9262,
      "139": 9263,
      "Ġflat": 9264,
      "Ġharsh": 9265,
      "Ġpersistent": 9266,
      "Ġreplaceable": 9267,
      "Ġphrases": 9268,
      "Ġfamilies": 9269,
      "Ġperformed": 9270,
      "Ġthreads": 9271,
      "Ġlabeled": 9272,
      "ĠBiographies": 9273,
      "Ġsquare": 9274,
      "ĠBasically": 9275,
      "Ġamerican": 9276,
      "ĠNetwork": 9277,
      "involved": 9278,
      "ĠGEOR": 9279,
      "Ġunreasonable": 9280,
      "ographer": 9281,
      "SO": 9282,
      "after": 9283,
      "iography": 9284,
      "oration": 9285,
      "Ġbra": 9286,
      "ĠSqu": 9287,
      "ĠPOST": 9288,
[...]
