{
  "version": "1.0",
  "truncation": null,
  "padding": null,
  "added_tokens": [
    {
      "id": 0,
      "content": "<PAD>",
      "single_word": false,
      "lstrip": false,
      "rstrip": false,
      "normalized": false,
      "special": true
    },
    {
      "id": 1,
      "content": "<UNK>",
      "single_word": false,
      "lstrip": false,
      "rstrip": false,
      "normalized": false,
      "special": true
    },
    {
      "id": 2,
      "content": "<URL>",
      "single_word": false,
      "lstrip": false,
      "rstrip": false,
      "normalized": false,
      "special": true
    }
  ],
  "normalizer": null,
  "pre_tokenizer": {
    "type": "ByteLevel",
    "add_prefix_space": false,
    "trim_offsets": true,
    "use_regex": true
  },
  "post_processor": {
    "type": "ByteLevel",
    "add_prefix_space": true,
    "trim_offsets": false,
    "use_regex": true
  },
  "decoder": {
    "type": "ByteLevel",
    "add_prefix_space": true,
    "trim_offsets": true,
    "use_regex": true
  },
  "model": {
    "type": "BPE",
    "dropout": null,
    "unk_token": null,
    "continuing_subword_prefix": null,
    "end_of_word_suffix": null,
    "fuse_unk": false,
    "byte_fallback": false,
    "ignore_merges": false,
    "vocab": {
      "<PAD>": 0,
      "<UNK>": 1,
      "<URL>": 2,
      "!": 3,
      "\"": 4,
      "#": 5,
      "$": 6,
      "%": 7,
      "&": 8,
      "'": 9,
      "(": 10,
      ")": 11,
      "*": 12,
      "+": 13,
      ",": 14,
      "-": 15,
      ".": 16,
      "/": 17,
      "0": 18,
      "1": 19,
      "2": 20,
      "3": 21,
      "4": 22,
      "5": 23,
      "6": 24,
      "7": 25,
      "8": 26,
      "9": 27,
      ":": 28,
      ";": 29,
      "<": 30,
      "=": 31,
      ">": 32,
      "?": 33,
      "@": 34,
      "A": 35,
      "B": 36,
      "C": 37,
      "D": 38,
      "E": 39,
      "F": 40,
      "G": 41,
      "H": 42,
      "I": 43,
      "J": 44,
      "K": 45,
      "L": 46,
      "M": 47,
      "N": 48,
      "O": 49,
      "P": 50,
      "Q": 51,
      "R": 52,
      "S": 53,
      "T": 54,
      "U": 55,
      "V": 56,
      "W": 57,
      "X": 58,
      "Y": 59,
      "Z": 60,
      "[": 61,
      "\\": 62,
      "]": 63,
      "^": 64,
      "_": 65,
      "`": 66,
      "a": 67,
      "b": 68,
      "c": 69,
      "d": 70,
      "e": 71,
      "f": 72,
      "g": 73,
      "h": 74,
      "i": 75,
      "j": 76,
      "k": 77,
      "l": 78,
      "m": 79,
      "n": 80,
      "o": 81,
      "p": 82,
      "q": 83,
      "r": 84,
      "s": 85,
      "t": 86,
      "u": 87,
      "v": 88,
      "w": 89,
      "x": 90,
      "y": 91,
      "z": 92,
      "{": 93,
      "|": 94,
      "}": 95,
      "~": 96,
      "¡": 97,
      "¢": 98,
      "£": 99,
      "¤": 100,
      "¥": 101,
      "¦": 102,
      "§": 103,
      "¨": 104,
      "©": 105,
      "ª": 106,
      "«": 107,
      "¬": 108,
      "®": 109,
      "¯": 110,
      "°": 111,
      "±": 112,
      "²": 113,
      "³": 114,
      "´": 115,
      "µ": 116,
      "¶": 117,
      "·": 118,
      "¸": 119,
      "¹": 120,
      "º": 121,
      "»": 122,
      "¼": 123,
      "½": 124,
      "¾": 125,
      "¿": 126,
      "À": 127,
      "Á": 128,
      "Â": 129,
      "Ã": 130,
      "Ä": 131,
      "Å": 132,
      "Æ": 133,
      "Ç": 134,
      "È": 135,
      "É": 136,
      "Ê": 137,
      "Ë": 138,
      "Ì": 139,
      "Í": 140,
      "Î": 141,
      "Ï": 142,
      "Ð": 143,
      "Ñ": 144,
      "Ò": 145,
      "Ó": 146,
      "Ô": 147,
      "Õ": 148,
      "Ö": 149,
      "×": 150,
      "Ø": 151,
      "Ù": 152,
      "Ú": 153,
      "Û": 154,
      "Ü": 155,
      "Ý": 156,
      "Þ": 157,
      "ß": 158,
      "à": 159,
      "á": 160,
      "â": 161,
      "ã": 162,
      "ä": 163,
      "å": 164,
      "æ": 165,
      "ç": 166,
      "è": 167,
      "é": 168,
      "ê": 169,
      "ë": 170,
      "ì": 171,
      "í": 172,
      "î": 173,
      "ï": 174,
      "ð": 175,
      "ñ": 176,
      "ò": 177,
      "ó": 178,
      "ô": 179,
      "õ": 180,
      "ö": 181,
      "÷": 182,
      "ø": 183,
      "ù": 184,
      "ú": 185,
      "û": 186,
      "ü": 187,
      "ý": 188,
      "þ": 189,
      "ÿ": 190,
      "Ā": 191,
      "ā": 192,
      "Ă": 193,
      "ă": 194,
      "Ą": 195,
      "ą": 196,
      "Ć": 197,
      "ć": 198,
      "Ĉ": 199,
      "ĉ": 200,
      "Ċ": 201,
      "ċ": 202,
      "Č": 203,
      "č": 204,
      "Ď": 205,
      "ď": 206,
      "Đ": 207,
      "đ": 208,
      "Ē": 209,
      "ē": 210,
      "Ĕ": 211,
      "ĕ": 212,
      "Ė": 213,
      "ė": 214,
      "Ę": 215,
      "ę": 216,
      "Ě": 217,
      "ě": 218,
      "Ĝ": 219,
      "ĝ": 220,
      "Ğ": 221,
      "ğ": 222,
      "Ġ": 223,
      "ġ": 224,
      "Ģ": 225,
      "ģ": 226,
      "Ĥ": 227,
      "ĥ": 228,
      "Ħ": 229,
      "ħ": 230,
      "Ĩ": 231,
      "ĩ": 232,
      "Ī": 233,
      "ī": 234,
      "Ĭ": 235,
      "ĭ": 236,
      "Į": 237,
      "į": 238,
      "İ": 239,
      "ı": 240,
      "Ĳ": 241,
      "ĳ": 242,
      "Ĵ": 243,
      "ĵ": 244,
      "Ķ": 245,
      "ķ": 246,
      "ĸ": 247,
      "Ĺ": 248,
      "ĺ": 249,
      "Ļ": 250,
      "ļ": 251,
      "Ľ": 252,
      "ľ": 253,
      "Ŀ": 254,
      "ŀ": 255,
      "Ł": 256,
      "ł": 257,
      "Ń": 258,
      "à¤": 259,
      "Ġt": 260,
      "Ġa": 261,
      "Ġth": 262,
      "in": 263,
      "re": 264,
      "on": 265,
      "ou": 266,
      "Ġs": 267,
      "Ġthe": 268,
      "er": 269,
      "is": 270,
      "Ġw": 271,
      "at": 272,
      "Ġà¤": 273,
      "it": 274,
      "à¥": 275,
      "ed": 276,
      "Ġb": 277,
      "or": 278,
      "Ġc": 279,
      "an": 280,
      "le": 281,
      "Ġp": 282,
      "en": 283,
      "Ġm": 284,
      "Ġh": 285,
      "ing": 286,
      "Ġf": 287,
      "Ġto": 288,
      "Ġo": 289,
      "Ġan": 290,
      "es": 291,
      "Ġd": 292,
      "al": 293,
      "ĠI": 294,
      "Ġy": 295,
      "ic": 296,
      "Ġn": 297,
      "Ġyou": 298,
      "ar": 299,
      "Ġof": 300,
      "Ġin": 301,
      "as": 302,
      "ion": 303,
      "Ġand": 304,
      "čĊ": 305,
      "ot": 306,
      "Ġre": 307,
      "us": 308,
      "om": 309,
      "Ġis": 310,
      "Ġbe": 311,
      "à¤¾": 312,
      "ve": 313,
      "ly": 314,
      "Ġl": 315,
      "ll": 316,
      "Ġthat": 317,
      "Ġit": 318,
      "Ġon": 319,
      "\"\"": 320,
      "Ġwh": 321,
      "ĠT": 322,
      "ent": 323,
      "Ġg": 324,
      "Ġe": 325,
      "ag": 326,
      "à¥ĩ": 327,
      "ct": 328,
      "ut": 329,
      "Ġnot": 330,
      "ow": 331,
      "Ġi": 332,
      "Ġfor": 333,
      "Ġha": 334,
      "à¤°": 335,
      "ĠA": 336,
      "id": 337,
      "ĠW": 338,
      "ere": 339,
      "ver": 340,
      "ik": 341,
      "ld": 342,
      "ro": 343,
      "th": 344,
      "ce": 345,
      "ay": 346,
      "st": 347,
      "Ġas": 348,
      "à¥Ģ": 349,
      "Ġar": 350,
      "tic": 351,
      "ĠS": 352,
      "ck": 353,
      "am": 354,
      "ĠTh": 355,
      "Ġà¤ķ": 356,
      "ad": 357,
      "ig": 358,
      "se": 359,
      "ch": 360,
      "ia": 361,
      "Ġthis": 362,
      "ith": 363,
      "Ġcon": 364,
      "un": 365,
      "im": 366,
      "Ġare": 367,
      "Ġst": 368,
      "ation": 369,
      "age": 370,
      "à¥į": 371,
      "Ġk": 372,
      "ticle": 373,
      "Ġhave": 374,
      "à¤Ĥ": 375,
      "Ġ(": 376,
      "Ġse": 377,
      "à¤¿": 378,
      "ould": 379,
      "Ġarticle": 380,
      "ol": 381,
      "out": 382,
      "ate": 383,
      "ip": 384,
      "op": 385,
      "Ġwith": 386,
      "à¥ĭ": 387,
      "Ġde": 388,
      "ĠC": 389,
      "ist": 390,
      "Ġdo": 391,
      "Ġyour": 392,
      "Ġ\"\"": 393,
      "ĠP": 394,
      "et": 395,
      "à¤¨": 396,
      "Ġor": 397,
      "'s": 398,
      "Ġsu": 399,
      "ĠB": 400,
      "Ġme": 401,
      "ome": 402,
      "ĠM": 403,
      "Ġus": 404,
      "ir": 405,
      "and": 406,
      "ĠH": 407,
      "ers": 408,
      "el": 409,
      "our": 410,
      "Ġsh": 411,
      "ak": 412,
      "à¤¤": 413,
      "il": 414,
      "est": 415,
      "ill": 416,
      "Ġr": 417,
      "edia": 418,
      "..": 419,
      "Ġwas": 420,
      "'t": 421,
      "ur": 422,
      "Ġat": 423,
      "Ġab": 424,
      "edit": 425,
      "Ġà¤¹": 426,
      "pe": 427,
      "ain": 428,
      "Ġedit": 429,
      "oo": 430,
      "à¤ķ": 431,
      "ore": 432,
      "ikip": 433,
      "Ġfr": 434,
      "Ġne": 435,
      "Ġpro": 436,
      "Ġj": 437,
      "ab": 438,
      "!!": 439,
      "ĠF": 440,
      "ĠD": 441,
      "Ġbut": 442,
      "Ġv": 443,
      "qu": 444,
      "ĠY": 445,
      "ust": 446,
      "à¤²": 447,
      "ul": 448,
      "ht": 449,
      "ikipedia": 450,
      "Ġmy": 451,
      "Ġun": 452,
      "Ġpage": 453,
      "Ġad": 454,
      "ant": 455,
      "ĠN": 456,
      "Ġex": 457,
      "if": 458,
      "ter": 459,
      "em": 460,
      "alk": 461,
      "ally": 462,
      "ri": 463,
      "Ġcom": 464,
      "Ġwe": 465,
      "Ġcan": 466,
      "ase": 467,
      "pp": 468,
      "ink": 469,
      "let": 470,
      "Ġal": 471,
      "Ġso": 472,
      "Ġfrom": 473,
      "Ġby": 474,
      "Ġch": 475,
      "ment": 476,
      "à¤¸": 477,
      "ĠR": 478,
      "à¤¹": 479,
      "Ġsome": 480,
      "à¤®": 481,
      "Ġany": 482,
      "ĠThe": 483,
      "Ġcont": 484,
      "Ġabout": 485,
      "Ġhe": 486,
      "Ġ\"": 487,
      "up": 488,
      "ss": 489,
      "ie": 490,
      "nd": 491,
      "Ġà¤¸": 492,
      "ĠG": 493,
      "ight": 494,
      "nt": 495,
      "Ġà¤®": 496,
      "ther": 497,
      "ĠWikipedia": 498,
      "à¤¯": 499,
      "ive": 500,
      "lo": 501,
      "Ġ2": 502,
      "ike": 503,
      "à¥Ī": 504,
      "Ġif": 505,
      "Ġwhat": 506,
      "Ġall": 507,
      "one": 508,
      "Ġpo": 509,
      "Ġ1": 510,
      "ra": 511,
      "à¥ģ": 512,
      "um": 513,
      "Ġdis": 514,
      "ort": 515,
      "Ġwill": 516,
      "ces": 517,
      "ity": 518,
      "Ġhas": 519,
      "Ġwor": 520,
      "ĠL": 521,
      "ĠO": 522,
      "ame": 523,
      "lease": 524,
      "Ġwould": 525,
      "ard": 526,
      "Ġle": 527,
      "ĠE": 528,
      "ank": 529,
      "Ġlike": 530,
      "la": 531,
      "ions": 532,
      "Ġthere": 533,
      "ry": 534,
      "ich": 535,
      "now": 536,
      "ish": 537,
      "ĠJ": 538,
      "Ġim": 539,
      "à¤¦": 540,
      "ite": 541,
      "Ġone": 542,
      "00": 543,
      "Ġjust": 544,
      "Ġthey": 545,
      "Ġfa": 546,
      "Ġno": 547,
      "ous": 548,
      "ies": 549,
      "ect": 550,
      "der": 551,
      "Ġadd": 552,
      "Ġknow": 553,
      "iv": 554,
      "ake": 555,
      "Ġwho": 556,
      "art": 557,
      "Ġdelet": 558,
      "Ġup": 559,
      "use": 560,
      "Ġtalk": 561,
      "oug": 562,
      "ud": 563,
      "ble": 564,
      "Ġam": 565,
      "Ġag": 566,
      "Ġà¤ª": 567,
      "ated": 568,
      "Ġshould": 569,
      "ure": 570,
      "ang": 571,
      "so": 572,
      "à¤Ĺ": 573,
      "ack": 574,
      "Ġbeen": 575,
      "Ġqu": 576,
      "ong": 577,
      "ian": 578,
      "âĢ": 579,
      "og": 580,
      "Ġ-": 581,
      "ĠU": 582,
      "ind": 583,
      "end": 584,
      "Ġint": 585,
      "very": 586,
      "ca": 587,
      "ook": 588,
      "Ġdon": 589,
      "ĠIf": 590,
      "Ġother": 591,
      "Ġgo": 592,
      "Ġwhich": 593,
      "ue": 594,
      "Ġmore": 595,
      "Ġsour": 596,
      "Ġà¤¬": 597,
      "ĠYou": 598,
      "Ġthink": 599,
      "Ġpe": 600,
      "all": 601,
      "Ġac": 602,
      "ast": 603,
      "pl": 604,
      "ree": 605,
      "Ġmo": 606,
      "Ġout": 607,
      "Ġà¤¨": 608,
      "Ġev": 609,
      "cl": 610,
      "Ġà¤ľ": 611,
      "ĠIt": 612,
      "ap": 613,
      "ial": 614,
      "rit": 615,
      "Ġrem": 616,
      "ople": 617,
      "are": 618,
      "os": 619,
      "for": 620,
      "he": 621,
      "Ġhere": 622,
      "Ġsee": 623,
      "Ġpre": 624,
      "her": 625,
      "cause": 626,
      "Ġhis": 627,
      "ess": 628,
      "ine": 629,
      "Ġpeople": 630,
      "ime": 631,
      "lock": 632,
      "Ġdid": 633,
      "fere": 634,
      "cus": 635,
      "able": 636,
      "Ġen": 637,
      "ell": 638,
      "ire": 639,
      "à¤µ": 640,
      "ction": 641,
      "uck": 642,
      "iz": 643,
      "ound": 644,
      "Ġuse": 645,
      "ood": 646,
      "ĠK": 647,
      "ep": 648,
      "Ġsay": 649,
      "Ġspe": 650,
      "Ġdoes": 651,
      "!!!!": 652,
      "Ġà¤¦": 653,
      "ough": 654,
      "Ġbecause": 655,
      "à¤ª": 656,
      "rib": 657,
      "ages": 658,
      "...": 659,
      "ary": 660,
      "Ġthem": 661,
      "à¥ĩà¤Ĥ": 662,
      "Ġget": 663,
      "od": 664,
      "à¤ľ": 665,
      "form": 666,
      "ber": 667,
      "Ġonly": 668,
      "Ġtr": 669,
      "int": 670,
      "Ġhow": 671,
      "sion": 672,
      "'m": 673,
      "ĠWh": 674,
      "ism": 675,
      "ory": 676,
      "ove": 677,
      "ah": 678,
      "ub": 679,
      "ide": 680,
      "ious": 681,
      "ew": 682,
      "ject": 683,
      "pt": 684,
      "thing": 685,
      "erson": 686,
      "Ġneed": 687,
      "ors": 688,
      "ice": 689,
      "Ġwere": 690,
      "Ġalso": 691,
      "Ġcons": 692,
      "Ġtime": 693,
      "lf": 694,
      "Ġwant": 695,
      "ge": 696,
      "Ġmay": 697,
      "ence": 698,
      "ved": 699,
      "ĠâĢ": 700,
      "Ġman": 701,
      "ĠThank": 702,
      "ose": 703,
      "à¤¬": 704,
      "Ġarticles": 705,
      "Ġwhen": 706,
      "à¥Ĥ": 707,
      "elp": 708,
      "Ġthen": 709,
      "ci": 710,
      "ff": 711,
      "Ġà¤²": 712,
      "Ġres": 713,
      "ile": 714,
      "Ġtheir": 715,
      "Ġbeing": 716,
      "per": 717,
      "à¤Ł": 718,
      "Ġlink": 719,
      "ans": 720,
      "CK": 721,
      "Ġblock": 722,
      "Ġà¤°": 723,
      "ens": 724,
      "ced": 725,
      "Ġdiscus": 726,
      "Ġwork": 727,
      "Ġunder": 728,
      "ign": 729,
      "Ġperson": 730,
      "Ġpr": 731,
      "Ġthan": 732,
      "iew": 733,
      "Ġact": 734,
      "à¤¡": 735,
      "ĠPlease": 736,
      "ount": 737,
      "Ġatt": 738,
      "Ġagain": 739,
      "Ġcomp": 740,
      "Ġà¤¤": 741,
      "Ġplease": 742,
      "ars": 743,
      "ĠThis": 744,
      "Ġinform": 745,
      "Ġwhy": 746,
      "ical": 747,
      "ict": 748,
      "ult": 749,
      "Ġlook": 750,
      "feren": 751,
      "Ġsa": 752,
      "Ġhad": 753,
      "ations": 754,
      "Ġnow": 755,
      "Ġmake": 756,
      "self": 757,
      "OU": 758,
      "Ġread": 759,
      ").": 760,
      "vert": 761,
      "ass": 762,
      "Ġoff": 763,
      "Ġcre": 764,
      "Ġgu": 765,
      "Ġte": 766,
      "Ġpol": 767,
      "Ġapp": 768,
      "ĠIn": 769,
      "Ġà¤ħ": 770,
      "ade": 771,
      "Ġsub": 772,
      "Ġimp": 773,
      "ick": 774,
      "Ġrel": 775,
      "Ġeven": 776,
      "Ġhelp": 777,
      "Ġrep": 778,
      "Ġper": 779,
      "ER": 780,
      "Ġcomment": 781,
      "ings": 782,
      "min": 783,
      "à¤¶": 784,
      "Ġfact": 785,
      "à¥ĭà¤Ĥ": 786,
      "ph": 787,
      "ac": 788,
      "Ġ'": 789,
      "ason": 790,
      "Ġinformation": 791,
      "Ġ200": 792,
      "Ġvery": 793,
      "Ġcould": 794,
      "Ġnew": 795,
      "Ġchang": 796,
      "à¤ı": 797,
      "Ġbel": 798,
      "Ġlist": 799,
      "Ġwr": 800,
      "Ġà¤µ": 801,
      "Ġpoint": 802,
      "ress": 803,
      "uch": 804,
      "ance": 805,
      "act": 806,
      "Ġgood": 807,
      "Ġway": 808,
      "Ġuser": 809,
      "irst": 810,
      "andal": 811,
      "fore": 812,
      "les": 813,
      "Ġmat": 814,
      "ribut": 815,
      "'ve": 816,
      "way": 817,
      "Ġsuch": 818,
      "Ġrec": 819,
      "Ġacc": 820,
      "Ġsources": 821,
      "ser": 822,
      "ving": 823,
      "Ġdes": 824,
      "Ġà¤Ń": 825,
      "Ġquest": 826,
      "Ġbet": 827,
      "Ġname": 828,
      "Ġover": 829,
      "ĠCh": 830,
      "arn": 831,
      "Ġdeletion": 832,
      "Ġback": 833,
      "ach": 834,
      "à¤¼": 835,
      "ĠYOU": 836,
      "xt": 837,
      "ific": 838,
      "ention": 839,
      "Ġits": 840,
      "ual": 841,
      "11": 842,
      "ĠSt": 843,
      "Ġpages": 844,
      "à¤ļ": 845,
      "con": 846,
      "Ġseem": 847,
      "ful": 848,
      "Ġà¤ķà¤°": 849,
      "other": 850,
      "wn": 851,
      "Ġind": 852,
      "ition": 853,
      "itt": 854,
      "reat": 855,
      "à¥¤": 856,
      "Ġfuck": 857,
      "ĠV": 858,
      "Ġpl": 859,
      "Ġco": 860,
      "Ġgr": 861,
      "Ġpar": 862,
      "ates": 863,
      "Ġwhere": 864,
      "Ġhim": 865,
      "Ġà¤Ĩ": 866,
      "Ġpla": 867,
      "Ġreason": 868,
      "Ġsp": 869,
      "Ġfe": 870,
      "'re": 871,
      "Ġfind": 872,
      "ail": 873,
      "iki": 874,
      "Ġap": 875,
      "Ġediting": 876,
      "Ġwell": 877,
      "Ġincl": 878,
      "Ġremo": 879,
      "Ġtoo": 880,
      "Ġsource": 881,
      "Ġke": 882,
      "lish": 883,
      "Ġright": 884,
      "Ġthese": 885,
      "Ġmade": 886,
      "ince": 887,
      "Ġsection": 888,
      "Ġfo": 889,
      "ually": 890,
      "ote": 891,
      "Ġà¤Ĺ": 892,
      "Ġtw": 893,
      "ise": 894,
      "Ġye": 895,
      "Ġedits": 896,
      "Ġevery": 897,
      "à¥Īà¤Ĥ": 898,
      "ĠWP": 899,
      "Ġfirst": 900,
      "Ġmuch": 901,
      "Ġter": 902,
      "Ġreferen": 903,
      "Ġpart": 904,
      "Ġvandal": 905,
      "==": 906,
      "UR": 907,
      "Ġtry": 908,
      "ple": 909,
      "Ġob": 910,
      "Ġreally": 911,
      "Ġrevert": 912,
      "Ġused": 913,
      "oc": 914,
      "ord": 915,
      "Ġcle": 916,
      "Ġask": 917,
      "ng": 918,
      "av": 919,
      "ug": 920,
      "Ġcontribut": 921,
      "Ġcomm": 922,
      "Ġcl": 923,
      "Ġmost": 924,
      "Ġinto": 925,
      "''": 926,
      "fter": 927,
      "cept": 928,
      "Ġ19": 929,
      "come": 930,
      "Ġsame": 931,
      "own": 932,
      "Ġdif": 933,
      "Ġsupp": 934,
      "Ġdeleted": 935,
      "Ġid": 936,
      "arch": 937,
      "UCK": 938,
      "wh": 939,
      "Ġmany": 940,
      "ne": 941,
      "Ġass": 942,
      "Ġown": 943,
      "Ġcall": 944,
      "UT": 945,
      "ĠAnd": 946,
      "Ġdiscussion": 947,
      "Ġsim": 948,
      "ever": 949,
      "oth": 950,
      "du": 951,
      "cy": 952,
      "Ġhist": 953,
      "Ġcop": 954,
      "ĠThanks": 955,
      "Ġreg": 956,
      "ĠAl": 957,
      "Ġadmin": 958,
      "ied": 959,
      "ating": 960,
      "ĠHow": 961,
      "Ġver": 962,
      "ib": 963,
      "Ġtag": 964,
      "Ġwikipedia": 965,
      "Ġpost": 966,
      "Ġrequ": 967,
      "ĠRe": 968,
      "Ġref": 969,
      "ered": 970,
      "ting": 971,
      "RE": 972,
      "ave": 973,
      "Ġthose": 974,
      "Ġop": 975,
      "Ġ<": 976,
      "Ġinclud": 977,
      "IN": 978,
      "Ġbefore": 979,
      "aking": 980,
      "cess": 981,
      "Ġconsid": 982,
      "AN": 983,
      "Ġà¤ļ": 984,
      "read": 985,
      "Ġword": 986,
      "URL": 987,
      "Ġ3": 988,
      "Ġexpl": 989,
      "Ġgen": 990,
      "),": 991,
      "Th": 992,
      "ost": 993,
      "arly": 994,
      "olog": 995,
      "nn": 996,
      "ob": 997,
      "Ġra": 998,
      "tern": 999,
      "Ġher": 1000,
      "Ġbelie": 1001,
      "Ġdef": 1002,
      "Ġiss": 1003,
      "AT": 1004,
      "less": 1005,
      "Ġstill": 1006,
      "Ġstate": 1007,
      "Ġcontent": 1008,
      "zz": 1009,
      "ĠHe": 1010,
      "Ġent": 1011,
      "Ġsomeone": 1012,
      "ĠSo": 1013,
      "laim": 1014,
      "ility": 1015,
      "blem": 1016,
      "Ġ|": 1017,
      "oy": 1018,
      "Ġpolic": 1019,
      "ope": 1020,
      "gg": 1021,
      "\"\".": 1022,
      "orre": 1023,
      "ĠAs": 1024,
      "Ġtwo": 1025,
      "Ġcopy": 1026,
      "!!!!!!!!": 1027,
      "ox": 1028,
      "Ġsaid": 1029,
      "Ġph": 1030,
      "Ġafter": 1031,
      "Ġgoing": 1032,
      "Ġput": 1033,
      "ons": 1034,
      "Ġ20": 1035,
      "rat": 1036,
      "Ġsl": 1037,
      "ĠThere": 1038,
      "Ġspec": 1039,
      "we": 1040,
      "Ġprov": 1041,
      "right": 1042,
      "stand": 1043,
      "Ġproblem": 1044,
      "à¤Ī": 1045,
      "Ġsomething": 1046,
      "ten": 1047,
      "raph": 1048,
      "ĠAr": 1049,
      "man": 1050,
      "ru": 1051,
      "à¤ĸ": 1052,
      "view": 1053,
      "uth": 1054,
      "pect": 1055,
      "mer": 1056,
      "hing": 1057,
      "vers": 1058,
      "Ġclaim": 1059,
      "Ġcrit": 1060,
      "lic": 1061,
      "ĠTH": 1062,
      "ible": 1063,
      "inal": 1064,
      "erest": 1065,
      "'ll": 1066,
      "Ġour": 1067,
      "Ġwrit": 1068,
      "rop": 1069,
      "ased": 1070,
      "Ġtake": 1071,
      "Ġblocked": 1072,
      ".\"\"": 1073,
      "Ġshow": 1074,
      "red": 1075,
      "ee": 1076,
      "Ġser": 1077,
      "Ġsince": 1078,
      "Ġà¤¨à¤¹": 1079,
      "yy": 1080,
      "ines": 1081,
      "ath": 1082,
      "iable": 1083,
      "ought": 1084,
      "ense": 1085,
      "Ġbit": 1086,
      "Ġinv": 1087,
      "ark": 1088,
      "tain": 1089,
      "Ġimage": 1090,
      "Ġmean": 1091,
      "Ġstop": 1092,
      "Ġwithout": 1093,
      "Ġà¤¯": 1094,
      "Ġreal": 1095,
      "ily": 1096,
      "Ġday": 1097,
      "Ġweb": 1098,
      "ĠIs": 1099,
      "Ġmention": 1100,
      "Ġsubject": 1101,
      "Ġtop": 1102,
      "Ġmight": 1103,
      "Ġà¤ĩ": 1104,
      "Ġsure": 1105,
      "Ġinterest": 1106,
      "Ġlong": 1107,
      "orrect": 1108,
      "Ġcontin": 1109,
      "LL": 1110,
      "Ġcit": 1111,
      "ild": 1112,
      "Ġche": 1113,
      "not": 1114,
      "ale": 1115,
      "Ġplace": 1116,
      "Ġbr": 1117,
      "llow": 1118,
      "ft": 1119,
      "ĠThat": 1120,
      "Ġadded": 1121,
      "Ġlet": 1122,
      "ĠBut": 1123,
      "Ġview": 1124,
      "Ġstart": 1125,
      "elcome": 1126,
      "Ġconf": 1127,
      "talk": 1128,
      "ĠAn": 1129,
      "ON": 1130,
      "Ġfree": 1131,
      "Ġà¤Ķ": 1132,
      "Ġremoved": 1133,
      "be": 1134,
      "Ġunderstand": 1135,
      "à¥Ģà¤Ĥ": 1136,
      "Ġdec": 1137,
      "Ġeditors": 1138,
      "Ġquestion": 1139,
      "Ġcur": 1140,
      "ize": 1141,
      "The": 1142,
      "Ġinf": 1143,
      "sh": 1144,
      "à¤¾à¤Ĥ": 1145,
      "ather": 1146,
      "Ġcase": 1147,
      "Ġel": 1148,
      "Ġnever": 1149,
      "vious": 1150,
      "ann": 1151,
      "Ġfeel": 1152,
      "the": 1153,
      "aj": 1154,
      "OT": 1155,
      "UTC": 1156,
      "com": 1157,
      "Ġhapp": 1158,
      "Ġ#": 1159,
      "ards": 1160,
      "Ġkeep": 1161,
      "ull": 1162,
      "ably": 1163,
      "Ġdone": 1164,
      "ĠTalk": 1165,
      "ative": 1166,
      "Ġpub": 1167,
      "irect": 1168,
      "Ġattack": 1169,
      "ments": 1170,
      "Ġinst": 1171,
      "ty": 1172,
      "Ġsign": 1173,
      "sent": 1174,
      "anks": 1175,
      "Ġbetter": 1176,
      "gr": 1177,
      "Ġmis": 1178,
      "Ġanother": 1179,
      "Ġsugg": 1180,
      "Ġmess": 1181,
      "Ġfollow": 1182,
      "Ġsuggest": 1183,
      "??": 1184,
      "Ġpersonal": 1185,
      "Ġà¤°à¤¹": 1186,
      "Ġà¤Ķà¤°": 1187,
      "ern": 1188,
      "Ġyourself": 1189,
      "ven": 1190,
      "Ġbelieve": 1191,
      "Ġ.": 1192,
      "Ġdoesn": 1193,
      "Ġappe": 1194,
      "Ġbi": 1195,
      "ral": 1196,
      "à¤§": 1197,
      "Ġshe": 1198,
      "Ġanything": 1199,
      "ics": 1200,
      "aw": 1201,
      "led": 1202,
      "Ġhistory": 1203,
      "Ġseems": 1204,
      "Ġà¤ªà¤°": 1205,
      "Ġthings": 1206,
      "ists": 1207,
      "az": 1208,
      "IT": 1209,
      "ational": 1210,
      "ĠWhat": 1211,
      "à¤Ń": 1212,
      "Ġthr": 1213,
      "ute": 1214,
      "Ġorig": 1215,
      "Ġsupport": 1216,
      "AH": 1217,
      "rent": 1218,
      "Ġboth": 1219,
      "ond": 1220,
      "Ġcount": 1221,
      "Ġho": 1222,
      "Ġro": 1223,
      "Ġà¤ī": 1224,
      "ys": 1225,
      "Ġhai": 1226,
      "Ġnum": 1227,
      "Ġsc": 1228,
      "ES": 1229,
      "Ġlinks": 1230,
      "OV": 1231,
      "Ġhope": 1232,
      "Ġusing": 1233,
      "Ġthing": 1234,
      "ĠUn": 1235,
      "ittle": 1236,
      "Ġcheck": 1237,
      "akes": 1238,
      "Ġspeed": 1239,
      "Ġrequest": 1240,
      "Ġbl": 1241,
      "ont": 1242,
      "Ġgiv": 1243,
      "ready": 1244,
      "mm": 1245,
      "ither": 1246,
      "Ġwrong": 1247,
      "Ġdiscuss": 1248,
      "igh": 1249,
      "ians": 1250,
      "Ġagainst": 1251,
      "imes": 1252,
      "Ġgener": 1253,
      "lect": 1254,
      "ĠWe": 1255,
      "ife": 1256,
      "Ġem": 1257,
      "gu": 1258,
      "Ġcomments": 1259,
      "Ġdesc": 1260,
      "Ġà¤¶": 1261,
      "Ġopin": 1262,
      "Ġcopyright": 1263,
      "Ġbook": 1264,
      "Ġalready": 1265,
      "Ġpolicy": 1266,
      "Ġmain": 1267,
      "vel": 1268,
      "IG": 1269,
      "Ġactually": 1270,
      "ves": 1271,
      "ix": 1272,
      "clop": 1273,
      "Ġexplain": 1274,
      "Ġ,": 1275,
      "ĠDo": 1276,
      "hi": 1277,
      "Ġexam": 1278,
      "ke": 1279,
      "ically": 1280,
      "\"\",": 1281,
      "Ġhate": 1282,
      "yle": 1283,
      "Ġlittle": 1284,
      "cyclop": 1285,
      "Ġeditor": 1286,
      "Ġru": 1287,
      "Ġà¤ı": 1288,
      "Ġgot": 1289,
      "Ġnote": 1290,
      "ames": 1291,
      "ferent": 1292,
      "Ġtext": 1293,
      "Ġfound": 1294,
      "Ġform": 1295,
      "Ġterm": 1296,
      "Ġresp": 1297,
      "Ġwar": 1298,
      "ĠDe": 1299,
      "Ġchange": 1300,
      "ature": 1301,
      "Ġtrying": 1302,
      "Ġtem": 1303,
      "thers": 1304,
      "Ġnothing": 1305,
      "Ġcare": 1306,
      "Ġelse": 1307,
      "'d": 1308,
      "Ġcurrent": 1309,
      "orry": 1310,
      "ents": 1311,
      "oup": 1312,
      "Ġgreat": 1313,
      "à¤·": 1314,
      "OL": 1315,
      "Ġdifferent": 1316,
      "Ġremove": 1317,
      "lev": 1318,
      "ited": 1319,
      "10": 1320,
      "ody": 1321,
      "Ġprop": 1322,
      "ify": 1323,
      "Ġothers": 1324,
      "Ġmust": 1325,
      "Ġcorrect": 1326,
      "Ġwelcome": 1327,
      "Ġà¤ĸ": 1328,
      "Ġfew": 1329,
      "ĠYour": 1330,
      "Ġide": 1331,
      "Ġstr": 1332,
      "Ġagree": 1333,
      "__": 1334,
      "Ġsy": 1335,
      "Ġtell": 1336,
      "ĠâĢ¢": 1337,
      "Ġyears": 1338,
      "Ġreview": 1339,
      "Ġ5": 1340,
      "Ġaccount": 1341,
      "Ġdidn": 1342,
      "ĠAN": 1343,
      "Ġaddress": 1344,
      "Ġexper": 1345,
      "Ġabove": 1346,
      "Ġwon": 1347,
      "Ġ4": 1348,
      "Ġanyone": 1349,
      "land": 1350,
      "Ġlast": 1351,
      "Ġwhile": 1352,
      "Ġimport": 1353,
      "Ġthough": 1354,
      "ĠFor": 1355,
      "Ġissue": 1356,
      "Ġexp": 1357,
      "Ġsm": 1358,
      "Ġvandalism": 1359,
      "ĠEng": 1360,
      "Ġconsider": 1361,
      "pr": 1362,
      "ged": 1363,
      "Ġinc": 1364,
      "Ġpartic": 1365,
      "ertain": 1366,
      "Ġlog": 1367,
      "ues": 1368,
      "à¤¥": 1369,
      "Ġthrough": 1370,
      "FF": 1371,
      "Ġgive": 1372,
      "Ġfair": 1373,
      "cond": 1374,
      "Ġprob": 1375,
      "Ġend": 1376,
      "::": 1377,
      "Ġnon": 1378,
      "ĠSh": 1379,
      "Ġplay": 1380,
      "ĠâĢĶ": 1381,
      "~~": 1382,
      "Ġposs": 1383,
      "Ġguid": 1384,
      "Ġworld": 1385,
      "Ġquestions": 1386,
      "Ġmaking": 1387,
      "Ġthought": 1388,
      "ican": 1389,
      "ror": 1390,
      "ular": 1391,
      "Ġencyclop": 1392,
      "angu": 1393,
      "Ġsch": 1394,
      "aps": 1395,
      "ply": 1396,
      "ED": 1397,
      "ensus": 1398,
      "Ġcome": 1399,
      "à¤«": 1400,
      "Ġslut": 1401,
      "osed": 1402,
      "Ġvi": 1403,
      "ool": 1404,
      "Ġsent": 1405,
      "Ġconc": 1406,
      "uy": 1407,
      "Ġdown": 1408,
      "urn": 1409,
      "omin": 1410,
      "Ġstand": 1411,
      "ead": 1412,
      "ateg": 1413,
      "Ġins": 1414,
      "Ġlot": 1415,
      "ater": 1416,
      "AHAH": 1417,
      "Ġdoing": 1418,
      "Ġ[": 1419,
      "ING": 1420,
      "19": 1421,
      "oh": 1422,
      "Ġrather": 1423,
      "Ġet": 1424,
      "Ġfar": 1425,
      "Ġcontinue": 1426,
      "ately": 1427,
      "atever": 1428,
      "Ġbest": 1429,
      "Ġreliable": 1430,
      "Ġargu": 1431,
      "Ġcour": 1432,
      "Ġwiki": 1433,
      "lete": 1434,
      "ĠTHE": 1435,
      "ograph": 1436,
      "Ġreference": 1437,
      "ace": 1438,
      "ĠNo": 1439,
      "Ġreport": 1440,
      "Ġwebs": 1441,
      "ways": 1442,
      "urther": 1443,
      "Ġinter": 1444,
      "Ġaccept": 1445,
      "ai": 1446,
      "Ġ7": 1447,
      "ret": 1448,
      "Ġrape": 1449,
      "....": 1450,
      "Ġbad": 1451,
      "ently": 1452,
      "IS": 1453,
      "Ġsays": 1454,
      "Ġtit": 1455,
      "Ġ@": 1456,
      "ĠAlso": 1457,
      "Ġspeedy": 1458,
      "Ġguidel": 1459,
      "Ġcol": 1460,
      "its": 1461,
      "erial": 1462,
      "Ġsimply": 1463,
      "Ġleast": 1464,
      "Ġcreated": 1465,
      "Ġbeh": 1466,
      "ution": 1467,
      "Ġprobably": 1468,
      "me": 1469,
      "Ġdefin": 1470,
      "Ġreferences": 1471,
      "Ġ6": 1472,
      "idence": 1473,
      "Ġlife": 1474,
      "Ġaround": 1475,
      "ĠBe": 1476,
      "ropri": 1477,
      "Ġenough": 1478,
      "Ġsite": 1479,
      "upp": 1480,
      "Ġgroup": 1481,
      "Ġmon": 1482,
      "Ġmaterial": 1483,
      "Ġleave": 1484,
      "Ġlangu": 1485,
      "ween": 1486,
      "ho": 1487,
      "orn": 1488,
      "ified": 1489,
      "ĠIP": 1490,
      "Ġwarn": 1491,
      "ya": 1492,
      "load": 1493,
      "als": 1494,
      "day": 1495,
      "gan": 1496,
      "12": 1497,
      "Ġhi": 1498,
      "Ġold": 1499,
      "AL": 1500,
      "Ġoriginal": 1501,
      "ek": 1502,
      "Ġcriter": 1503,
      "Ġcannot": 1504,
      "cc": 1505,
      "Ġopinion": 1506,
      "Ġchar": 1507,
      "Ġexist": 1508,
      "ĠUser": 1509,
      "Ġcertain": 1510,
      "Ġrest": 1511,
      "You": 1512,
      "li": 1513,
      "atch": 1514,
      "Ġeither": 1515,
      "Ġtempl": 1516,
      "ĠFUCK": 1517,
      "icture": 1518,
      "Ġbetween": 1519,
      "Ġmatter": 1520,
      "Ġwhatever": 1521,
      "ĠCom": 1522,
      "Ġrese": 1523,
      "Ġauth": 1524,
      "Ġadding": 1525,
      "Ġmin": 1526,
      "istrat": 1527,
      "ized": 1528,
      "ology": 1529,
      "ger": 1530,
      "Ġ)": 1531,
      "sw": 1532,
      "Ġetc": 1533,
      "ĠHi": 1534,
      "Ġty": 1535,
      "ye": 1536,
      "Ġcalled": 1537,
      "Ġ8": 1538,
      "Ġregard": 1539,
      "Ġred": 1540,
      "Ġever": 1541,
      "ĠMy": 1542,
      "Ġdelete": 1543,
      "à¤°à¤¤": 1544,
      "Ġà¤«": 1545,
      "ash": 1546,
      "Ġunt": 1547,
      "ided": 1548,
      "Ġext": 1549,
      "Ġpos": 1550,
      "Ġexample": 1551,
      "Ġaw": 1552,
      "ĠWhy": 1553,
      "rip": 1554,
      "ower": 1555,
      "Ġimpro": 1556,
      "=\"\"": 1557,
      "ĠDI": 1558,
      "Ġfun": 1559,
      "Ġnor": 1560,
      "Ġwrite": 1561,
      "ren": 1562,
      "ropriate": 1563,
      "te": 1564,
      "Ġkind": 1565,
      "Ġisn": 1566,
      "Ġneeds": 1567,
      "Ġusers": 1568,
      "20": 1569,
      "ĠAmer": 1570,
      "ĠHowever": 1571,
      "Ġimportant": 1572,
      "Ġtrans": 1573,
      "Ġconsensus": 1574,
      "ĠEnglish": 1575,
      "Ġav": 1576,
      "Ġà¤¥": 1577,
      "Ġdisp": 1578,
      "âĢĻ": 1579,
      "Ġeff": 1580,
      "ello": 1581,
      "Ġclear": 1582,
      "Ġbig": 1583,
      "Ġcontro": 1584,
      "app": 1585,
      "Ġ0": 1586,
      "Ġprodu": 1587,
      "gn": 1588,
      "Ġreverted": 1589,
      "tion": 1590,
      "AG": 1591,
      "Ġval": 1592,
      "amp": 1593,
      "Ġresearch": 1594,
      "haps": 1595,
      "Ġret": 1596,
      "Ġviol": 1597,
      "Ġcommun": 1598,
      "ĠWiki": 1599,
      "Ġmessage": 1600,
      "ability": 1601,
      "Ġprot": 1602,
      "levant": 1603,
      "Ġalways": 1604,
      "Ġnotable": 1605,
      "ether": 1606,
      "ese": 1607,
      "Ġcontributions": 1608,
      "ts": 1609,
      "Ġspecific": 1610,
      "Ġu": 1611,
      "Wh": 1612,
      "Ġki": 1613,
      "Ġko": 1614,
      "Ġthanks": 1615,
      "ruct": 1616,
      "ef": 1617,
      "à¤£": 1618,
      "Ġpicture": 1619,
      "Ġfl": 1620,
      "Ġmor": 1621,
      "mage": 1622,
      "Ġallow": 1623,
      "Ġhigh": 1624,
      "Ġsaying": 1625,
      "OR": 1626,
      "Ġcomplete": 1627,
      "rist": 1628,
      "any": 1629,
      "Ġ==": 1630,
      "ision": 1631,
      "Ġnotice": 1632,
      "io": 1633,
      "ract": 1634,
      "Ġnumber": 1635,
      "ĠNew": 1636,
      "Ġyet": 1637,
      "ring": 1638,
      "Ġconst": 1639,
      "Ġdirect": 1640,
      "Ġmeans": 1641,
      "Ġlead": 1642,
      "Ġclearly": 1643,
      "uff": 1644,
      "Ġsecond": 1645,
      "Ġevidence": 1646,
      "Ġconsidered": 1647,
      "Ġà¤ıà¤ķ": 1648,
      "ĠSH": 1649,
      "Ġsit": 1650,
      "ĠUS": 1651,
      "Ġadv": 1652,
      "Ġwebsite": 1653,
      "Ġquite": 1654,
      "Ġmem": 1655,
      "Ġfam": 1656,
      "Ġ9": 1657,
      "ĠCan": 1658,
      "Ġhaving": 1659,
      "sp": 1660,
      "14": 1661,
      "of": 1662,
      "hip": 1663,
      "ities": 1664,
      "Ġmove": 1665,
      "ised": 1666,
      "ident": 1667,
      "ĠAd": 1668,
      "Ġencyclopedia": 1669,
      "Ġimages": 1670,
      "Ġconcern": 1671,
      "yyyy": 1672,
      "Ġgiven": 1673,
      "Ġer": 1674,
      "Ġleg": 1675,
      "Ġinvol": 1676,
      "Ġhard": 1677,
      "Ġobvious": 1678,
      "Ġtrue": 1679,
      "ember": 1680,
      "air": 1681,
      "Ġdet": 1682,
      "att": 1683,
      "Ġsumm": 1684,
      "Ġhand": 1685,
      "Ġupload": 1686,
      "empt": 1687,
      "Ġcriteria": 1688,
      "zzzz": 1689,
      "Ġtri": 1690,
      "nnnn": 1691,
      "Ġmakes": 1692,
      "ex": 1693,
      "Ġca": 1694,
      "utral": 1695,
      "Ġwritten": 1696,
      "Ġjo": 1697,
      "Ġpresent": 1698,
      "ĠInd": 1699,
      "uyuy": 1700,
      "à¤ķà¤°": 1701,
      "ĠThey": 1702,
      "ĠOn": 1703,
      "Ġleft": 1704,
      "!!!!!!!!!!!!!!!!": 1705,
      "Ġlanguage": 1706,
      "Ġpublic": 1707,
      "Ġpolit": 1708,
      "bers": 1709,
      "ork": 1710,
      "ude": 1711,
      "Ġcr": 1712,
      "à¤¿à¤Ĥ": 1713,
      "13": 1714,
      "Ġidea": 1715,
      "Ġguidelines": 1716,
      "Ġfurther": 1717,
      "Ġversion": 1718,
      "Ġansw": 1719,
      "ets": 1720,
      "Ġmedia": 1721,
      "iss": 1722,
      "Ġwish": 1723,
      "à¤Ľ": 1724,
      "ush": 1725,
      "Ġprom": 1726,
      "Ġka": 1727,
      "Ġbas": 1728,
      "Ġadministrat": 1729,
      "ĠIS": 1730,
      "ĠTo": 1731,
      "Ġsex": 1732,
      "Ġsur": 1733,
      "body": 1734,
      "Ġsing": 1735,
      "OO": 1736,
      "ID": 1737,
      "à¥Į": 1738,
      "Ġclo": 1739,
      "lished": 1740,
      "Ġwhether": 1741,
      "ajor": 1742,
      "Ġtest": 1743,
      "Ġstud": 1744,
      "cial": 1745,
      "Ġuntil": 1746,
      "ock": 1747,
      "Ġfil": 1748,
      "line": 1749,
      "oun": 1750,
      "Ġwords": 1751,
      "Ġhappen": 1752,
      "Re": 1753,
      "Ġless": 1754,
      "Ġinstead": 1755,
      "Ġ{": 1756,
      "Ġfucking": 1757,
      "box": 1758,
      "OM": 1759,
      "ĠOr": 1760,
      "ahah": 1761,
      "Ġchanges": 1762,
      "Ġopp": 1763,
      "Ġà¤¸à¤®": 1764,
      "EN": 1765,
      "Ġà¤¹à¤®": 1766,
      "aken": 1767,
      "cient": 1768,
      "veral": 1769,
      "Ġlisted": 1770,
      "Ġlove": 1771,
      "Ġmind": 1772,
      "Ġhum": 1773,
      "Ġdist": 1774,
      "lack": 1775,
      "Ġtitle": 1776,
      "iend": 1777,
      "AP": 1778,
      "uss": 1779,
      "ĠPro": 1780,
      "my": 1781,
      "Ġseveral": 1782,
      "Ġwhole": 1783,
      "Ġproper": 1784,
      "Ġign": 1785,
      "Ġoffic": 1786,
      "Ġshit": 1787,
      "Ġfriend": 1788,
      "1111": 1789,
      "Ġyear": 1790,
      "Ġtimes": 1791,
      "Ġentire": 1792,
      "reci": 1793,
      "ĠPOV": 1794,
      "à¤ģ": 1795,
      "Ġauthor": 1796,
      "Ġà¤ĩà¤¸": 1797,
      "Ġhar": 1798,
      "Ġsuck": 1799,
      "Ġrefer": 1800,
      "Ġfollowing": 1801,
      "Ġcourse": 1802,
      "usion": 1803,
      "uring": 1804,
      "Ġbitch": 1805,
      "Ġbased": 1806,
      "Ġmus": 1807,
      "Ġeach": 1808,
      "Ġpop": 1809,
      "Ġweek": 1810,
      "ĠAny": 1811,
      "Ġstyle": 1812,
      "Ġeas": 1813,
      "15": 1814,
      "Ġdisc": 1815,
      "ĠJust": 1816,
      "Ġpossible": 1817,
      "ĠQ": 1818,
      "Ġonce": 1819,
      "ĠSe": 1820,
      "Ġproject": 1821,
      "Ġes": 1822,
      "vern": 1823,
      "Ġappreci": 1824,
      "ony": 1825,
      "ica": 1826,
      "Ġattempt": 1827,
      "Ġlearn": 1828,
      "med": 1829,
      "Ġpret": 1830,
      "Ġmentioned": 1831,
      "ĠHello": 1832,
      "oman": 1833,
      "ĠFr": 1834,
      "Ġthree": 1835,
      "where": 1836,
      "Ġstatement": 1837,
      "Ġmajor": 1838,
      "Ġhead": 1839,
      "Ġeng": 1840,
      "ina": 1841,
      "Ġtemplate": 1842,
      "!!!": 1843,
      ".\"": 1844,
      "Ġgay": 1845,
      "ĠNot": 1846,
      "stem": 1847,
      "arent": 1848,
      "Ġ&": 1849,
      "uc": 1850,
      "Ġrequire": 1851,
      "Ġpur": 1852,
      "Ġseen": 1853,
      "Ġsense": 1854,
      "ives": 1855,
      "upid": 1856,
      "ĠAll": 1857,
      "Ġissues": 1858,
      "ness": 1859,
      "Ġdem": 1860,
      "Ġresult": 1861,
      "Ġmer": 1862,
      "rup": 1863,
      "Ġfacts": 1864,
      "Ġinclude": 1865,
      "Ġlar": 1866,
      "Ġmyself": 1867,
      "ti": 1868,
      "cing": 1869,
      "Ġtopic": 1870,
      "ĠMay": 1871,
      "Ġdescrib": 1872,
      "ĠFe": 1873,
      "Ġstat": 1874,
      "cially": 1875,
      "Ġz": 1876,
      "Ġgeneral": 1877,
      "ategory": 1878,
      "AR": 1879,
      "inn": 1880,
      "Ġdays": 1881,
      "Ġdou": 1882,
      "though": 1883,
      "à¤°à¤ķ": 1884,
      "erman": 1885,
      "à¤ĩ": 1886,
      "old": 1887,
      "Ġgetting": 1888,
      "ording": 1889,
      "18": 1890,
      "Ġsol": 1891,
      "ler": 1892,
      "ins": 1893,
      "ahi": 1894,
      "Ġobject": 1895,
      "ional": 1896,
      "Ġhistor": 1897,
      "Ġdetail": 1898,
      "Ġuns": 1899,
      "Ġprovide": 1900,
      "ha": 1901,
      "Ġdate": 1902,
      "Ġli": 1903,
      "à¥Īà¥¤": 1904,
      "Ġcreate": 1905,
      "Ġ10": 1906,
      "Ġcommon": 1907,
      "ĠSUCK": 1908,
      "Ġpast": 1909,
      "istic": 1910,
      "ground": 1911,
      "Ġaway": 1912,
      "Ġmoron": 1913,
      "Ġshort": 1914,
      "ĠZ": 1915,
      "Ġpat": 1916,
      "Ġsorry": 1917,
      "ward": 1918,
      "Ġset": 1919,
      "Ġvar": 1920,
      "à¤ªà¤¨": 1921,
      "you": 1922,
      "ides": 1923,
      "ov": 1924,
      "Ġexact": 1925,
      "Ġstupid": 1926,
      "na": 1927,
      "Ġsock": 1928,
      "Ġserious": 1929,
      "Ġopen": 1930,
      "Ġschool": 1931,
      "Ġ18": 1932,
      "Ġphot": 1933,
      "ax": 1934,
      "uro": 1935,
      "ivers": 1936,
      "Ġhowever": 1937,
      "Ġrules": 1938,
      "ĠMar": 1939,
      "Ġfix": 1940,
      "000": 1941,
      "block": 1942,
      "ok": 1943,
      "Ġknown": 1944,
      "Ġdisag": 1945,
      "AS": 1946,
      "Ġfour": 1947,
      "ries": 1948,
      "Ġband": 1949,
      "ared": 1950,
      "Ġlaw": 1951,
      "Ġindic": 1952,
      "Ġcharact": 1953,
      "Ġappropriate": 1954,
      "Ġneutral": 1955,
      "ribs": 1956,
      "IGG": 1957,
      "Ġanswer": 1958,
      "Ġprocess": 1959,
      "bo": 1960,
      "Ġaccus": 1961,
      "Ġstay": 1962,
      "Ġnomin": 1963,
      "Ġsentence": 1964,
      "ird": 1965,
      "name": 1966,
      "Ġinfo": 1967,
      "ane": 1968,
      "Ġsystem": 1969,
      "Ġaut": 1970,
      "ĠNOT": 1971,
      "par": 1972,
      "à¤Ĩ": 1973,
      "à¤Ŀ": 1974,
      "Ġorgan": 1975,
      "Ġir": 1976,
      "Ġfal": 1977,
      "Ġchanged": 1978,
      "Ġassum": 1979,
      "pg": 1980,
      "Ġintern": 1981,
      "ilar": 1982,
      "OCK": 1983,
      "ĠLe": 1984,
      "16": 1985,
      "}}": 1986,
      "Ġ...": 1987,
      "CT": 1988,
      "Ġdr": 1989,
      "ior": 1990,
      "Ġloc": 1991,
      "dit": 1992,
      "uation": 1993,
      "22": 1994,
      "Ġterror": 1995,
      "Ġincluded": 1996,
      "ored": 1997,
      "17": 1998,
      "ĠSp": 1999,
      "Ġstarted": 2000,
      "Ġcountry": 2001,
      "omen": 2002,
      "ledge": 2003,
      "cu": 2004,
      "Ġmonth": 2005,
      "Ġcent": 2006,
      "ization": 2007,
      "Ġrelevant": 2008,
      "oid": 2009,
      "Ġrun": 2010,
      "outh": 2011,
      "de": 2012,
      "ivil": 2013,
      "pecially": 2014,
      "reed": 2015,
      ".)": 2016,
      "leg": 2017,
      "Ġâ": 2018,
      "à¤ĵ": 2019,
      "Ġwatch": 2020,
      "Ġpri": 2021,
      "most": 2022,
      "Ġlo": 2023,
      "agraph": 2024,
      "ross": 2025,
      "Ġfull": 2026,
      "Ġdeal": 2027,
      "lim": 2028,
      "ton": 2029,
      "col": 2030,
      "to": 2031,
      "Ġrespect": 2032,
      "à¤ħ": 2033,
      "ories": 2034,
      "Ġnames": 2035,
      "ange": 2036,
      "EL": 2037,
      "resent": 2038,
      "ĠJew": 2039,
      "Ġline": 2040,
      "Ġorder": 2041,
      "Ġprotect": 2042,
      "Ġtaken": 2043,
      "Ġcap": 2044,
      "Ġà¤ķà¤¹": 2045,
      "head": 2046,
      "ĠNIGG": 2047,
      "Ġmist": 2048,
      "ising": 2049,
      "Ġstuff": 2050,
      "Ġcompl": 2051,
      "Ġlooking": 2052,
      "Ġtra": 2053,
      "Ġ2005": 2054,
      "amm": 2055,
      "Ġeveryone": 2056,
      "Ġparagraph": 2057,
      "ended": 2058,
      "fer": 2059,
      "res": 2060,
      "rodu": 2061,
      "Ġprevious": 2062,
      "ĠChe": 2063,
      "ived": 2064,
      "ator": 2065,
      "ĠAf": 2066,
      "Ġnext": 2067,
      "Ġwrote": 2068,
      "Ġposition": 2069,
      "idd": 2070,
      "ĠMY": 2071,
      "ikiped": 2072,
      "Ġwriting": 2073,
      "Ġinterested": 2074,
      "Ġsort": 2075,
      "Ġimprove": 2076,
      "chn": 2077,
      "It": 2078,
      "Ġnotic": 2079,
      "Ġmaybe": 2080,
      "ata": 2081,
      "Ġclaims": 2082,
      "Ġqual": 2083,
      "Ġappear": 2084,
      "âĢĿ": 2085,
      "ait": 2086,
      "ĠNIGGER": 2087,
      "sert": 2088,
      "Ġattacks": 2089,
      "Ġable": 2090,
      "ots": 2091,
      "und": 2092,
      "fully": 2093,
      "sel": 2094,
      "gle": 2095,
      "eed": 2096,
      "ĠSee": 2097,
      "Ġincluding": 2098,
      "Ġstates": 2099,
      "ĠBrit": 2100,
      "Ġlater": 2101,
      "Ġwanted": 2102,
      "Ġself": 2103,
      "Ġfail": 2104,
      "Ġremoving": 2105,
      "Ġfilm": 2106,
      "ump": 2107,
      "inc": 2108,
      "lling": 2109,
      "ĠAg": 2110,
      "Ġregarding": 2111,
      "ĠNow": 2112,
      "iving": 2113,
      "Ġpass": 2114,
      "iet": 2115,
      "Ġrecent": 2116,
      "Ġsingle": 2117,
      "Ġpower": 2118,
      "Ġappears": 2119,
      "ĠAt": 2120,
      "Ġclass": 2121,
      "ier": 2122,
      "jpg": 2123,
      "ĠâĢľ": 2124,
      "ĠChrist": 2125,
      "Ġpretty": 2126,
      "ĠSome": 2127,
      "ĠLOL": 2128,
      "ield": 2129,
      "Ġsummary": 2130,
      "ration": 2131,
      "Ġdep": 2132,
      "ĠWI": 2133,
      "ĠReg": 2134,
      "umb": 2135,
      "Ġkill": 2136,
      "Ġcompletely": 2137,
      "Ġrelated": 2138,
      "Ġthank": 2139,
      "Ġbann": 2140,
      "Ġabs": 2141,
      "uture": 2142,
      "This": 2143,
      "Ġfaith": 2144,
      "ference": 2145,
      "Ġà¤Ĩà¤ª": 2146,
      "amb": 2147,
      "ases": 2148,
      "used": 2149,
      "Ġocc": 2150,
      "Ġsearch": 2151,
      "Ġdeb": 2152,
      "ants": 2153,
      "Ġgovern": 2154,
      "ext": 2155,
      "Ġitself": 2156,
      "Ġest": 2157,
      "ĠMan": 2158,
      "ĠHere": 2159,
      "Ġà¤Ł": 2160,
      "Ġfalse": 2161,
      "Ġmed": 2162,
      "ks": 2163,
      "onse": 2164,
      "Ġrecord": 2165,
      "Ġcurrently": 2166,
      "uppet": 2167,
      "Ġequ": 2168,
      "Ġbehav": 2169,
      "Ġfile": 2170,
      "Talk": 2171,
      "Ġaddition": 2172,
      "Ġchild": 2173,
      "ron": 2174,
      "ĠTO": 2175,
      "Ġsimilar": 2176,
      "Ġpolicies": 2177,
      "ĠAmerican": 2178,
      "Ġprof": 2179,
      "____": 2180,
      "back": 2181,
      "ĠImage": 2182,
      "ott": 2183,
      "Ġcame": 2184,
      "Ġcritic": 2185,
      "Ġwithin": 2186,
      "Ġtruth": 2187,
      "Ġ/": 2188,
      "Ġà¤ĺ": 2189,
      "Ġwarning": 2190,
      "Ġtot": 2191,
      "Ġcommunity": 2192,
      "AB": 2193,
      "ode": 2194,
      "iment": 2195,
      "Ar": 2196,
      "lict": 2197,
      "EW": 2198,
      "ĠPer": 2199,
      "ement": 2200,
      "Ġrelig": 2201,
      "Ġinvolved": 2202,
      "wise": 2203,
      "Ġnotability": 2204,
      "ĠCon": 2205,
      "Ġargument": 2206,
      "Ġnig": 2207,
      "add": 2208,
      "Ġnice": 2209,
      "Ġguess": 2210,
      "Ġperhaps": 2211,
      "ohn": 2212,
      "Ġcult": 2213,
      "ept": 2214,
      "bit": 2215,
      "Ġedited": 2216,
      "US": 2217,
      "by": 2218,
      "son": 2219,
      "ending": 2220,
      "Ġwonder": 2221,
      "go": 2222,
      "ĠWhen": 2223,
      "vent": 2224,
      "Ġquot": 2225,
      "ification": 2226,
      "In": 2227,
      "Ġsound": 2228,
      "more": 2229,
      "Ġear": 2230,
      "Ġla": 2231,
      "Ġtalking": 2232,
      "andbox": 2233,
      "Ġà¤ķà¤°à¤¨": 2234,
      "ling": 2235,
      "Ġface": 2236,
      "Ġcertainly": 2237,
      "Ġrepe": 2238,
      "ĠGo": 2239,
      "ĠComm": 2240,
      "Ġaccur": 2241,
      "Ġban": 2242,
      "ey": 2243,
      "Ġsk": 2244,
      "velop": 2245,
      "Ġthreat": 2246,
      "Ġdont": 2247,
      "Ġhon": 2248,
      "Ġà¤ħà¤ªà¤¨": 2249,
      "roject": 2250,
      "Ġmiss": 2251,
      "ging": 2252,
      "Ġfin": 2253,
      "Ġofficial": 2254,
      "à¥ī": 2255,
      "Ġà¤¡": 2256,
      "ĠSHIT": 2257,
      "lam": 2258,
      "Ġ?": 2259,
      "ulation": 2260,
      "Ġdescrip": 2261,
      "ĠNor": 2262,
      "Ġago": 2263,
      "Ġtoday": 2264,
      "''''": 2265,
      "Ġespecially": 2266,
      "got": 2267,
      "Ġgame": 2268,
      "Ġfig": 2269,
      "Ġeverything": 2270,
      "ially": 2271,
      "Ġnews": 2272,
      "Ġfuture": 2273,
      "Ġcar": 2274,
      "Ġduring": 2275,
      "Ġspeak": 2276,
      "Ġguy": 2277,
      "Ġexplan": 2278,
      "Ġhour": 2279,
      "Ġnecess": 2280,
      "Ġplaced": 2281,
      "fuck": 2282,
      "Ġdue": 2283,
      "Ġident": 2284,
      "Ġ=": 2285,
      "Ġà¤¬à¤¨": 2286,
      "Ġentry": 2287,
      "Ġrespond": 2288,
      "uly": 2289,
      "Ġside": 2290,
      "oph": 2291,
      "urope": 2292,
      "ctions": 2293,
      "selves": 2294,
      "ains": 2295,
      "Ġasked": 2296,
      "af": 2297,
      "ET": 2298,
      "Ġnational": 2299,
      "ortun": 2300,
      "Ġworking": 2301,
      "Ġrepla": 2302,
      "Ġtyp": 2303,
      "Ġposted": 2304,
      "Ġparticular": 2305,
      "Ġdiff": 2306,
      "POV": 2307,
      "Ġwasn": 2308,
      "len": 2309,
      "get": 2310,
      "Ġquote": 2311,
      "Ġbu": 2312,
      "joy": 2313,
      "24": 2314,
      "Ġmet": 2315,
      "Ġjob": 2316,
      "mber": 2317,
      "Ġmod": 2318,
      "NT": 2319,
      "Ġpolitical": 2320,
      "Ġbo": 2321,
      "acy": 2322,
      "Ġbull": 2323,
      "23": 2324,
      "Ġbus": 2325,
      "ilit": 2326,
      "Ġworth": 2327,
      "Ġredirect": 2328,
      "Ġ{{": 2329,
      "Ġsignific": 2330,
      "DI": 2331,
      "Ġkar": 2332,
      "Ġsoon": 2333,
      "Ġknowledge": 2334,
      "ĠâĢĵ": 2335,
      "Ġlooks": 2336,
      "Ġbelow": 2337,
      "Ġcover": 2338,
      "Ġhappy": 2339,
      "ouse": 2340,
      "Ġadministrator": 2341,
      "ny": 2342,
      "Ġrule": 2343,
      "rupt": 2344,
      "ively": 2345,
      "Ġnoticed": 2346,
      "Ġsmall": 2347,
      "Ġblack": 2348,
      "Ġpublished": 2349,
      "page": 2350,
      "olution": 2351,
      "ĠGerman": 2352,
      "Ġreading": 2353,
      "Ġfigure": 2354,
      "Please": 2355,
      "amed": 2356,
      "Ġbre": 2357,
      "rain": 2358,
      "ta": 2359,
      "Ġpie": 2360,
      "ĠSer": 2361,
      "ĠOF": 2362,
      "Ġreasons": 2363,
      "har": 2364,
      "ĠÂ": 2365,
      "ural": 2366,
      "ĠEx": 2367,
      "oint": 2368,
      "Ġrev": 2369,
      "omat": 2370,
      "Ġmark": 2371,
      "Ġden": 2372,
      "Ġbecome": 2373,
      "Ġarch": 2374,
      "omet": 2375,
      "Ġexactly": 2376,
      "OS": 2377,
      "ĠDIE": 2378,
      "à¤¼à¤¾": 2379,
      "shit": 2380,
      "Ġproblems": 2381,
      "CR": 2382,
      "Ġà¤²à¤Ĺ": 2383,
      "Ġdispute": 2384,
      "irm": 2385,
      "ission": 2386,
      "Ġmult": 2387,
      "Ġresponse": 2388,
      "Ġcontrovers": 2389,
      "ient": 2390,
      "Ġuseful": 2391,
      "ama": 2392,
      "igned": 2393,
      "à¤ķà¤¤": 2394,
      "Ġtook": 2395,
      "Ġappreciate": 2396,
      "Ġbeg": 2397,
      "iple": 2398,
      "Ġdisagree": 2399,
      "ired": 2400,
      "à¤ł": 2401,
      "Ġ15": 2402,
      "Ġcra": 2403,
      "Ġtried": 2404,
      "Ġremember": 2405,
      "Ġmeaning": 2406,
      "Ġdevelop": 2407,
      "Ġhold": 2408,
      "Ġà¤¸à¤¬": 2409,
      "ĠWell": 2410,
      "Ġvalid": 2411,
      "unt": 2412,
      "Ġdocu": 2413,
      "like": 2414,
      "Ġstrong": 2415,
      "AA": 2416,
      "33": 2417,
      "Ġanti": 2418,
      "ĠPr": 2419,
      "Ġcontact": 2420,
      "ublic": 2421,
      "AHAHAHAH": 2422,
      "Ġoften": 2423,
      "cience": 2424,
      "Ġlarge": 2425,
      "lying": 2426,
      "Ġà¤¯à¤¹": 2427,
      "Ġlack": 2428,
      "ley": 2429,
      "AY": 2430,
      "ivid": 2431,
      "Ġaware": 2432,
      "ĠFAT": 2433,
      "Ġlive": 2434,
      "ography": 2435,
      "BS": 2436,
      "Ġboy": 2437,
      "uk": 2438,
      "Ġturn": 2439,
      "Ġ17": 2440,
      "Ġà¤īà¤¨": 2441,
      "Ġbro": 2442,
      "ili": 2443,
      "Ġalong": 2444,
      "rael": 2445,
      "Ġhy": 2446,
      "Ġà¤®à¤¹": 2447,
      "IC": 2448,
      "Ġunf": 2449,
      "Ġvandalize": 2450,
      "Ġart": 2451,
      "Ġpurp": 2452,
      "mit": 2453,
      "iness": 2454,
      "ital": 2455,
      "bt": 2456,
      "ana": 2457,
      "ĠPol": 2458,
      "Ġreverting": 2459,
      "do": 2460,
      "Ġà¤ķà¤°à¤¤": 2461,
      "ternal": 2462,
      "iter": 2463,
      "LE": 2464,
      "dd": 2465,
      "Ġprovided": 2466,
      "Ġstated": 2467,
      "cur": 2468,
      "Ġà¤Ĺà¤¯": 2469,
      "por": 2470,
      "ĠPh": 2471,
      "Ġenjoy": 2472,
      "Ġneeded": 2473,
      "Ġtechn": 2474,
      "Ġwhite": 2475,
      "Ġ199": 2476,
      "ner": 2477,
      "ric": 2478,
      "Ġalmost": 2479,
      "Ġexperi": 2480,
      "val": 2481,
      "ream": 2482,
      "oogle": 2483,
      "ĠIr": 2484,
      "ĠDO": 2485,
      "Ġpoints": 2486,
      "Ġtaking": 2487,
      "Ġappro": 2488,
      "ats": 2489,
      "rel": 2490,
      "Ġ24": 2491,
      "à¤Ĺà¤°": 2492,
      "Ġshows": 2493,
      "wards": 2494,
      "Ġvide": 2495,
      "Ġobviously": 2496,
      "Ġeffect": 2497,
      "Ġunless": 2498,
      "ani": 2499,
      "row": 2500,
      "ĠNO": 2501,
      "Ġsepar": 2502,
      "Ġgovernment": 2503,
      "Ġbooks": 2504,
      "itions": 2505,
      "Ġcou": 2506,
      "Ġfive": 2507,
      "Ġok": 2508,
      "ĠFA": 2509,
      "Ġrac": 2510,
      "Ġemail": 2511,
      "ĠOne": 2512,
      "ogn": 2513,
      "ĠAND": 2514,
      "irc": 2515,
      "ĠTr": 2516,
      "Ġ2006": 2517,
      "Ġuploaded": 2518,
      "Ġsaw": 2519,
      "ĠArticle": 2520,
      "ada": 2521,
      "à¤¤à¤¨": 2522,
      "Ġsandbox": 2523,
      "Ġaccording": 2524,
      "ĠAgain": 2525,
      "utes": 2526,
      "Ġallowed": 2527,
      "urch": 2528,
      "Ġdeleting": 2529,
      "ĠWikiped": 2530,
      "log": 2531,
      "iversity": 2532,
      "Ġlikely": 2533,
      "Ġbackground": 2534,
      "Ġstatus": 2535,
      "ĠDon": 2536,
      "ĠJEW": 2537,
      "à¤¸à¤²": 2538,
      "ĠRep": 2539,
      "Ġrecently": 2540,
      "Ġwomen": 2541,
      "Ġusername": 2542,
      "Ġtags": 2543,
      "Ġbanned": 2544,
      "Ġalone": 2545,
      "Ġfine": 2546,
      "Ġtold": 2547,
      "ering": 2548,
      "Ġscient": 2549,
      "Ġfight": 2550,
      "ĠBlock": 2551,
      "ury": 2552,
      "ĠPIG": 2553,
      "Ġunblock": 2554,
      "Ġcontribs": 2555,
      "Ġdecide": 2556,
      "Ġdescription": 2557,
      "ALL": 2558,
      "Ġhell": 2559,
      "Ġupd": 2560,
      "Ġavoid": 2561,
      "Ġmusic": 2562,
      "Ġhu": 2563,
      "Ġstory": 2564,
      "Ġmembers": 2565,
      "Ġyes": 2566,
      "Ġcharacter": 2567,
      "No": 2568,
      "ividual": 2569,
      "Ġcontext": 2570,
      "Ġ12": 2571,
      "alf": 2572,
      "Ġvis": 2573,
      "reme": 2574,
      "Ġmar": 2575,
      "Ġclose": 2576,
      "Ġcited": 2577,
      "itive": 2578,
      "Ġhuman": 2579,
      "irl": 2580,
      "Ġve": 2581,
      "Ġlic": 2582,
      "izing": 2583,
      "Thanks": 2584,
      "Ġconflict": 2585,
      "Ġhaven": 2586,
      "apan": 2587,
      "Ġteam": 2588,
      "Ġexplanation": 2589,
      "co": 2590,
      "zer": 2591,
      "Ġfish": 2592,
      "Ġactual": 2593,
      "using": 2594,
      "yyyyyyyy": 2595,
      "itted": 2596,
      "ites": 2597,
      "Ġtro": 2598,
      "que": 2599,
      "Ġexcept": 2600,
      "Ġrepresent": 2601,
      "Ġ2007": 2602,
      "ery": 2603,
      "iction": 2604,
      "aper": 2605,
      "Ġterms": 2606,
      "ball": 2607,
      "ĠWH": 2608,
      "quest": 2609,
      "Ġguys": 2610,
      "Ġthemselves": 2611,
      "order": 2612,
      "olute": 2613,
      "ĠBr": 2614,
      "aha": 2615,
      "Ġdefinition": 2616,
      "nnnnnnnn": 2617,
      "uyuyuyuy": 2618,
      "no": 2619,
      "unch": 2620,
      "ĠJun": 2621,
      "Ġeffort": 2622,
      "ban": 2623,
      "han": 2624,
      "ffic": 2625,
      "ka": 2626,
      "Ġtoge": 2627,
      "ĠJohn": 2628,
      "ko": 2629,
      "Ġmere": 2630,
      "ĠBy": 2631,
      "Ġpres": 2632,
      "ĠYOUR": 2633,
      "lent": 2634,
      "Ġtogether": 2635,
      "Ġgenerally": 2636,
      "Ġones": 2637,
      "Ġevent": 2638,
      "Ġep": 2639,
      "urd": 2640,
      "Ġpract": 2641,
      "St": 2642,
      "Ġ*": 2643,
      "ĠFAG": 2644,
      "Ġexpect": 2645,
      "Ch": 2646,
      "Project": 2647,
      "ined": 2648,
      "Ġactions": 2649,
      "Ġadmins": 2650,
      "Ġ2008": 2651,
      "iod": 2652,
      "Ġaur": 2653,
      "ourn": 2654,
      "epend": 2655,
      "Ġbhi": 2656,
      "Ġattention": 2657,
      "Ġexperiment": 2658,
      "zzzzzzzz": 2659,
      "Ġgl": 2660,
      "//": 2661,
      "imate": 2662,
      "Ġarea": 2663,
      "25": 2664,
      "tical": 2665,
      "ĠUnited": 2666,
      "Ġsimple": 2667,
      "Ġviews": 2668,
      "Ġtype": 2669,
      "Ġanyway": 2670,
      "Ġ14": 2671,
      "ensive": 2672,
      "ĠSc": 2673,
      "Ġreply": 2674,
      "which": 2675,
      "Ġhome": 2676,
      "Ġlevel": 2677,
      "Ġprim": 2678,
      "Ġidi": 2679,
      "ĠARE": 2680,
      "Ġà¤ªà¤¹": 2681,
      "ibly": 2682,
      "fect": 2683,
      "side": 2684,
      "Ġpromot": 2685,
      "edic": 2686,
      "ĠAre": 2687,
      "Ġjud": 2688,
      "Ġvarious": 2689,
      "nect": 2690,
      "Ġà¤Ľ": 2691,
      "IDS": 2692,
      "Ġlonger": 2693,
      "color": 2694,
      "CRAP": 2695,
      "Ġmeet": 2696,
      "Ġsong": 2697,
      "Ġ16": 2698,
      "CRAPCRAP": 2699,
      "Ġdick": 2700,
      "Ġindividual": 2701,
      "Ġ!": 2702,
      "ĠMr": 2703,
      "ĠGood": 2704,
      "à¤¾à¥¤": 2705,
      "Hi": 2706,
      "Ġwent": 2707,
      "Ġeth": 2708,
      "ĠGod": 2709,
      "oss": 2710,
      "Ġmom": 2711,
      "Ġcontributing": 2712,
      "Ġbullshit": 2713,
      "ga": 2714,
      "ober": 2715,
      "ison": 2716,
      "Ġcompany": 2717,
      "ĠLI": 2718,
      "Ġed": 2719,
      "Ġautomat": 2720,
      "Ġnahi": 2721,
      "Ġapolog": 2722,
      "Ġcomplain": 2723,
      "Ġwait": 2724,
      "Ġbox": 2725,
      "Ġdam": 2726,
      "ki": 2727,
      "Ġhappened": 2728,
      "Ġaff": 2729,
      "orld": 2730,
      "Ġquick": 2731,
      "Ġmoved": 2732,
      "put": 2733,
      "Ġminor": 2734,
      "Ġann": 2735,
      "Fuck": 2736,
      "aged": 2737,
      "Ġdeath": 2738,
      "lu": 2739,
      "Ġnons": 2740,
      "Ġcategory": 2741,
      "Ġtransl": 2742,
      "FA": 2743,
      "gy": 2744,
      "rew": 2745,
      "rom": 2746,
      "Ġill": 2747,
      "Ġsupposed": 2748,
      "ATE": 2749,
      "Ġbelong": 2750,
      "anda": 2751,
      "Ġparty": 2752,
      "Ġpiece": 2753,
      "mp": 2754,
      "Ġmen": 2755,
      "Ġconv": 2756,
      "CH": 2757,
      "mb": 2758,
      "itely": 2759,
      "Ġrece": 2760,
      "Ġdoubt": 2761,
      "What": 2762,
      "Ġpen": 2763,
      "Ġlab": 2764,
      "adem": 2765,
      "à¤¤à¤°": 2766,
      "Ġunc": 2767,
      "ularly": 2768,
      "Ġintrodu": 2769,
      "work": 2770,
      "ĠCheers": 2771,
      "FUCK": 2772,
      "ĠAb": 2773,
      "Ġhours": 2774,
      "ĠPe": 2775,
      "Ġcriticism": 2776,
      "Ġmill": 2777,
      "ĠGree": 2778,
      "what": 2779,
      "Ġparticip": 2780,
      "ĠBritish": 2781,
      "Ġpers": 2782,
      "Ġavail": 2783,
      "IP": 2784,
      "Ġfore": 2785,
      "ĠSch": 2786,
      "Ġà¤¬à¤¹": 2787,
      "Ġmeant": 2788,
      "Ġestab": 2789,
      "ĠShe": 2790,
      "Ġorigin": 2791,
      "Ġsites": 2792,
      "gar": 2793,
      "reen": 2794,
      "ĠCl": 2795,
      "Ġtherefore": 2796,
      "ms": 2797,
      "ĠCont": 2798,
      "Ġlim": 2799,
      "Ġsourced": 2800,
      "Ġworks": 2801,
      "Ġmonths": 2802,
      "ĠSince": 2803,
      "Ġhelpful": 2804,
      "Ġbias": 2805,
      "Ġgoes": 2806,
      "Ġrecogn": 2807,
      "Ġbring": 2808,
      "Ġfamily": 2809,
      "Ġabsolute": 2810,
      "omm": 2811,
      "Ġworked": 2812,
      "oring": 2813,
      "ĠMe": 2814,
      "11111111": 2815,
      "itch": 2816,
      "ĠBL": 2817,
      "Ġwouldn": 2818,
      "Ġcontr": 2819,
      "200": 2820,
      "just": 2821,
      "sy": 2822,
      "Ġsus": 2823,
      "Ġcitations": 2824,
      "Ġà¤īà¤¸": 2825,
      "Ġmag": 2826,
      "oice": 2827,
      "Ġrid": 2828,
      "ĠGet": 2829,
      "Ġsubst": 2830,
      "Ġinteresting": 2831,
      "bum": 2832,
      "Ġcite": 2833,
      "aring": 2834,
      "ĠLet": 2835,
      "Ġhimself": 2836,
      "Ġ13": 2837,
      "Ġfav": 2838,
      "cont": 2839,
      "TS": 2840,
      "Ġclar": 2841,
      "eral": 2842,
      "Ġmass": 2843,
      "Ġcomes": 2844,
      "Ġaf": 2845,
      "orial": 2846,
      "Ġproposed": 2847,
      "Ġperiod": 2848,
      "Ġcity": 2849,
      "Ġaccepted": 2850,
      "ĠNe": 2851,
      "Ġclean": 2852,
      "ION": 2853,
      "Ġautomatically": 2854,
      "Ġà¤¹à¤°": 2855,
      "au": 2856,
      "arily": 2857,
      "ĠWar": 2858,
      "oney": 2859,
      "Ġtild": 2860,
      "ĠST": 2861,
      "ĠRE": 2862,
      "lex": 2863,
      "CC": 2864,
      "IA": 2865,
      "]]": 2866,
      "ences": 2867,
      "idth": 2868,
      "Ġdocument": 2869,
      "gress": 2870,
      "Ġà¤§": 2871,
      "ĠSorry": 2872,
      "Ġ2004": 2873,
      "Ġvideo": 2874,
      "Ġcivil": 2875,
      "ĠEurope": 2876,
      "Ġfoot": 2877,
      "Ġindicate": 2878,
      "ma": 2879,
      "Ġhom": 2880,
      "Ġliving": 2881,
      "Ġcitation": 2882,
      "Ġaction": 2883,
      "Ġinternet": 2884,
      "Ġfeature": 2885,
      "ters": 2886,
      "Ġmoder": 2887,
      "Ġfag": 2888,
      "Ġsw": 2889,
      "Ġtheory": 2890,
      "Ġdi": 2891,
      "Ġna": 2892,
      "ĠX": 2893,
      "Ġment": 2894,
      "Ġsignificant": 2895,
      "Ġmother": 2896,
      "Ġaren": 2897,
      "ĠGe": 2898,
      "Ġindeed": 2899,
      "Ġnonsense": 2900,
      "à¥ľ": 2901,
      "ĠGr": 2902,
      "!!!!!!!!!!!!!!!!!!!!!!!!!!!!!!!!": 2903,
      ":#": 2904,
      "Ġdra": 2905,
      "ĠMa": 2906,
      "che": 2907,
      "Ġavailable": 2908,
      "Ġlight": 2909,
      "Ġdel": 2910,
      "Ġcreating": 2911,
      "\"::": 2912,
      "pret": 2913,
      "see": 2914,
      "Ġcontest": 2915,
      "Ġheard": 2916,
      "Ġnecessary": 2917,
      "ales": 2918,
      "Ġproof": 2919,
      "nder": 2920,
      "Ġtildes": 2921,
      "aving": 2922,
      "ĠJan": 2923,
      "Ġben": 2924,
      "reg": 2925,
      "Ġdeser": 2926,
      "Ġcool": 2927,
      "Ġstatements": 2928,
      "Ġopinions": 2929,
      "arently": 2930,
      "oud": 2931,
      "âĢĶ": 2932,
      "mission": 2933,
      "sc": 2934,
      "Ġà¤¸à¤ķà¤¤": 2935,
      "Ġcred": 2936,
      "iab": 2937,
      "ĠCol": 2938,
      "Ġaccurate": 2939,
      "Ġà¤¸à¤°à¤ķ": 2940,
      "~~~~": 2941,
      "Ġration": 2942,
      "Ġà¤ħà¤¬": 2943,
      "ĠMus": 2944,
      "Ġdebate": 2945,
      "Ġfre": 2946,
      "Ġalthough": 2947,
      "Ġconnect": 2948,
      "If": 2949,
      "Ġhot": 2950,
      "ĠYes": 2951,
      "Ġviolation": 2952,
      "Ġbehavior": 2953,
      "nic": 2954,
      "oot": 2955,
      "ĠOH": 2956,
      "Ġbiased": 2957,
      "ĠAM": 2958,
      "Ġkn": 2959,
      "RECT": 2960,
      "how": 2961,
      "Ġinsult": 2962,
      "Ġenc": 2963,
      "Ġsections": 2964,
      "Ġgets": 2965,
      "EST": 2966,
      "Ġcontrol": 2967,
      "UP": 2968,
      "Ġamong": 2969,
      "Ġclick": 2970,
      "Ġverif": 2971,
      "Ġperfect": 2972,
      "Ġsucks": 2973,
      "Ġhit": 2974,
      "Ġvote": 2975,
      "Ġstandard": 2976,
      "Ġseparate": 2977,
      "vice": 2978,
      "this": 2979,
      "ĠFuck": 2980,
      "Ġremain": 2981,
      "Ġhonest": 2982,
      "AM": 2983,
      "Image": 2984,
      "VE": 2985,
      "ech": 2986,
      "ading": 2987,
      ",\"\"": 2988,
      "Ġfan": 2989,
      "unk": 2990,
      "Ġtagged": 2991,
      "Ġlat": 2992,
      "onym": 2993,
      "ency": 2994,
      "Ġotherwise": 2995,
      "ney": 2996,
      "Ġincorrect": 2997,
      "ĠIN": 2998,
      "Ġrights": 2999,
      "Ġreach": 3000,
      "ructive": 3001,
      "els": 3002,
      "Ġproduct": 3003,
      "Ġsituation": 3004,
      "pro": 3005,
      "Ġdest": 3006,
      "ĠAug": 3007,
      "Ġ11": 3008,
      "Ġindepend": 3009,
      "Ġpoor": 3010,
      "puppet": 3011,
      "ĠIsrael": 3012,
      "lection": 3013,
      "Ġcalling": 3014,
      "Ġbuild": 3015,
      "Ġseries": 3016,
      "thod": 3017,
      "Ġdisrupt": 3018,
      "AD": 3019,
      "ĠWAN": 3020,
      "top": 3021,
      "ĠAIDS": 3022,
      "istan": 3023,
      "ibility": 3024,
      "Ġport": 3025,
      "Ġusually": 3026,
      "iation": 3027,
      "yes": 3028,
      "Ġupon": 3029,
      "ĠQu": 3030,
      "Ġfield": 3031,
      "ĠFirst": 3032,
      "alth": 3033,
      "Ġexplaining": 3034,
      "ĠPl": 3035,
      "Ġasking": 3036,
      "Ġmultiple": 3037,
      "ĠTur": 3038,
      "Ġmov": 3039,
      "\"\"?": 3040,
      "ĠNPOV": 3041,
      "Ġharass": 3042,
      "Ġsomet": 3043,
      "ances": 3044,
      "ential": 3045,
      "Ġlegal": 3046,
      "ones": 3047,
      "ester": 3048,
      "Ġearli": 3049,
      "ilitary": 3050,
      "ris": 3051,
      "olic": 3052,
      "Ġrepeated": 3053,
      "aster": 3054,
      "Ġprofess": 3055,
      "Ġthird": 3056,
      "Ġcountries": 3057,
      "Ġpill": 3058,
      "ety": 3059,
      "Ġmot": 3060,
      "Ġsuc": 3061,
      "Ġ198": 3062,
      "ĠWill": 3063,
      "ster": 3064,
      "Ġpa": 3065,
      "yn": 3066,
      "Ġcor": 3067,
      "ught": 3068,
      "Ġdetails": 3069,
      "Ġcomput": 3070,
      "Ġculture": 3071,
      "aming": 3072,
      "ĠStates": 3073,
      "Ġexpress": 3074,
      "UNT": 3075,
      "ĠSpe": 3076,
      "Ġcouple": 3077,
      "ague": 3078,
      "ted": 3079,
      "ĠEven": 3080,
      "Ġmessages": 3081,
      "Ġepis": 3082,
      "hole": 3083,
      "war": 3084,
      "ĠAm": 3085,
      "Ġpress": 3086,
      "REDI": 3087,
      "aa": 3088,
      "star": 3089,
      "Ġprefer": 3090,
      "OW": 3091,
      "Ġalbum": 3092,
      "ĠThese": 3093,
      "ĠDr": 3094,
      "ully": 3095,
      "istory": 3096,
      "Ġadvert": 3097,
      "à¤¯à¤ķ": 3098,
      "Ġshouldn": 3099,
      "Ġconcl": 3100,
      "Ġconcept": 3101,
      "Ġ100": 3102,
      "Al": 3103,
      "Ġrationale": 3104,
      "REDIRECT": 3105,
      "icult": 3106,
      "Ġuses": 3107,
      "Ġirre": 3108,
      ");": 3109,
      "ev": 3110,
      "Ġdeter": 3111,
      "Ġpurpose": 3112,
      "User": 3113,
      "Ġur": 3114,
      "Ġschol": 3115,
      "Ġextreme": 3116,
      "ĠDis": 3117,
      "eter": 3118,
      "Ġtable": 3119,
      "Ġcause": 3120,
      "Ġliber": 3121,
      "Ġcens": 3122,
      "ĠHelp": 3123,
      "str": 3124,
      "rench": 3125,
      "Ġcases": 3126,
      "ĠIndia": 3127,
      "Ġcamp": 3128,
      "asc": 3129,
      "Ġelect": 3130,
      "Ġformat": 3131,
      ".,": 3132,
      "Ġsat": 3133,
      "Ġterrorism": 3134,
      "Ġvot": 3135,
      "ĠGu": 3136,
      "Ġdifference": 3137,
      "men": 3138,
      "ĠTe": 3139,
      "ĠApr": 3140,
      "0000": 3141,
      "Ġassume": 3142,
      "ĠWith": 3143,
      "ĠRuss": 3144,
      "Ġcontinu": 3145,
      "Ġquality": 3146,
      "ĠPerhaps": 3147,
      "ĠAust": 3148,
      "à¤¼à¥Ģ": 3149,
      "ĠFeb": 3150,
      "orm": 3151,
      "Ġ2010": 3152,
      "ands": 3153,
      "Ġprove": 3154,
      "thern": 3155,
      "ĠJapan": 3156,
      "Ġreturn": 3157,
      "cent": 3158,
      "ament": 3159,
      "Ġ2009": 3160,
      "gram": 3161,
      "TW": 3162,
      "erous": 3163,
      "**": 3164,
      "IM": 3165,
      "ĠIT": 3166,
      "ĠTake": 3167,
      "Ġexternal": 3168,
      "Ġcontribute": 3169,
      "ĠMaybe": 3170,
      "uary": 3171,
      "Ġoper": 3172,
      "Ġdifficult": 3173,
      "ices": 3174,
      "iding": 3175,
      "ĠCo": 3176,
      "azi": 3177,
      "ni": 3178,
      "Ġsuper": 3179,
      "mitted": 3180,
      "ĠWik": 3181,
      "Ġdirectly": 3182,
      "inning": 3183,
      "OP": 3184,
      "Ġhistorical": 3185,
      "Ġdata": 3186,
      "ĠDid": 3187,
      "Ġseriously": 3188,
      "Ġabsolutely": 3189,
      "Ġaccess": 3190,
      "Ġà¤ĩà¤¨": 3191,
      "but": 3192,
      "ped": 3193,
      "Ġrew": 3194,
      "Ġnorm": 3195,
      "aries": 3196,
      "ĠAss": 3197,
      "ahahahah": 3198,
      "ister": 3199,
      "Ġneg": 3200,
      "Ġmerely": 3201,
      "Ġcoll": 3202,
      "Ġinclusion": 3203,
      "Ġexisting": 3204,
      "Ġdescribed": 3205,
      "Ġphr": 3206,
      "Ġactiv": 3207,
      "Ġspecial": 3208,
      "Ġbar": 3209,
      "oose": 3210,
      "ĠJews": 3211,
      "Ġblocking": 3212,
      "ortunately": 3213,
      "ĠHar": 3214,
      "Ġpriv": 3215,
      "iddle": 3216,
      "org": 3217,
      "Ġtowards": 3218,
      "ĠWest": 3219,
      "appy": 3220,
      "attle": 3221,
      "Ġonline": 3222,
      "Ġearlier": 3223,
      "Ġliter": 3224,
      "ĠCOCK": 3225,
      "Ġoppos": 3226,
      "IL": 3227,
      "Ġanal": 3228,
      "SS": 3229,
      "utorial": 3230,
      "ĠThen": 3231,
      "ĠOf": 3232,
      "Ġpersonally": 3233,
      "sex": 3234,
      "Ġconfirm": 3235,
      "Ġreported": 3236,
      "gest": 3237,
      "iver": 3238,
      "Ġba": 3239,
      "Ġchanging": 3240,
      "bal": 3241,
      "soci": 3242,
      "Ġpropos": 3243,
      "à¤¾à¤ģ": 3244,
      "Ġgirl": 3245,
      "Ġcoming": 3246,
      "ĠKing": 3247,
      "Ġhalf": 3248,
      "Ġrele": 3249,
      "ĠEn": 3250,
      "à¤¢": 3251,
      "rest": 3252,
      "Ġà¤ªà¤¤": 3253,
      "Ġthinking": 3254,
      "Ġemp": 3255,
      "ĠAugust": 3256,
      "port": 3257,
      "Ġgod": 3258,
      "Ã©": 3259,
      "Ġtreat": 3260,
      "Ġpay": 3261,
      "Ġearly": 3262,
      "Ġnone": 3263,
      "Ġreaders": 3264,
      "Ġthus": 3265,
      "Ġexpand": 3266,
      "Ġinterpret": 3267,
      "Ġbusiness": 3268,
      "Ġgave": 3269,
      "ĠBALL": 3270,
      "Ġproduce": 3271,
      "ĠOh": 3272,
      "Ġmatch": 3273,
      "Ġpictures": 3274,
      "Ġpillars": 3275,
      "Ġdog": 3276,
      "Ġrespons": 3277,
      "Ġerror": 3278,
      "Ġfriends": 3279,
      "Ġreplace": 3280,
      "ĠCar": 3281,
      "ferences": 3282,
      "dom": 3283,
      "à¤¸à¤²à¤®": 3284,
      "play": 3285,
      "ium": 3286,
      "Ġtakes": 3287,
      "Ġbh": 3288,
      "Ġund": 3289,
      "Ġconsist": 3290,
      "over": 3291,
      "ished": 3292,
      "avid": 3293,
      "ournal": 3294,
      "uted": 3295,
      "Ġlinked": 3296,
      "Ġinvest": 3297,
      "Ġcreation": 3298,
      "ĠStyle": 3299,
      "ĠBALLS": 3300,
      "Ġshall": 3301,
      "conom": 3302,
      "Ġpropag": 3303,
      "appropriate": 3304,
      "medi": 3305,
      "And": 3306,
      "Ġamount": 3307,
      "Ġwants": 3308,
      "Ġà¤¤à¤ķ": 3309,
      "ĠWorld": 3310,
      "udd": 3311,
      "ĠHey": 3312,
      "Ġdiscussed": 3313,
      "Ġcirc": 3314,
      "Ġamer": 3315,
      "Ġplan": 3316,
      "Ġphoto": 3317,
      "Ġdead": 3318,
      "Ġ21": 3319,
      "ĠWhile": 3320,
      "VER": 3321,
      "here": 3322,
      "obox": 3323,
      "ouble": 3324,
      "Ġstep": 3325,
      "ipple": 3326,
      "à¤¦à¤°": 3327,
      "Ġphys": 3328,
      "Ġmajority": 3329,
      "ambig": 3330,
      "Ġtotally": 3331,
      "Not": 3332,
      "50": 3333,
      "iam": 3334,
      "Ġdecided": 3335,
      "Ġarguments": 3336,
      "Ġlost": 3337,
      "ĠIslam": 3338,
      "Ġprimary": 3339,
      "Ġsocial": 3340,
      "Ġmember": 3341,
      "ows": 3342,
      "ulous": 3343,
      "Ġgroups": 3344,
      "rim": 3345,
      "Ġscience": 3346,
      "ĠUK": 3347,
      "ĠHave": 3348,
      "Ġabuse": 3349,
      "Ġdecision": 3350,
      "Ġclos": 3351,
      "Ġpot": 3352,
      "set": 3353,
      "à¤¹à¤°": 3354,
      "à¤µà¤°": 3355,
      "Ġreflect": 3356,
      "ert": 3357,
      "à¤¬à¤°": 3358,
      "Ġnumbers": 3359,
      "ĠAfter": 3360,
      "Ġkh": 3361,
      "Ġoutside": 3362,
      "????": 3363,
      "abor": 3364,
      "Ġ'''''": 3365,
      "à¥ģà¤Ĥ": 3366,
      "ĠChristian": 3367,
      "Ġidiot": 3368,
      "Ġconcerns": 3369,
      "Ġignor": 3370,
      "ĠÂ·": 3371,
      "FD": 3372,
      "ĠAct": 3373,
      "antly": 3374,
      "ĠWho": 3375,
      "Ġ30": 3376,
      "Ġparticularly": 3377,
      "That": 3378,
      "ald": 3379,
      "à¤²à¤¤": 3380,
      "à¤ľà¤¨": 3381,
      "Ġspace": 3382,
      "OOBS": 3383,
      "bs": 3384,
      "Ġlooked": 3385,
      "Ġentirely": 3386,
      "Ġbreak": 3387,
      "edy": 3388,
      "Ġborder": 3389,
      "ene": 3390,
      "Ġcontain": 3391,
      "Thank": 3392,
      "ges": 3393,
      "Ġsolid": 3394,
      "ĠALL": 3395,
      "Ġmoment": 3396,
      "Ġassoci": 3397,
      "à¥ĥ": 3398,
      "Ġgiving": 3399,
      "Ġtre": 3400,
      "ĠEdit": 3401,
      "Ġknows": 3402,
      "TH": 3403,
      "ourced": 3404,
      "Ġchance": 3405,
      "Ġstandards": 3406,
      "overed": 3407,
      "Ġchildren": 3408,
      "Ġwik": 3409,
      "Ġja": 3410,
      "Ġacross": 3411,
      "Ġacadem": 3412,
      "andalism": 3413,
      "Ġbehind": 3414,
      "help": 3415,
      "ĠYe": 3416,
      "ures": 3417,
      "Ġà¤Ĩà¤ľ": 3418,
      "enn": 3419,
      "Ġge": 3420,
      "Ġwilling": 3421,
      "Ġya": 3422,
      "that": 3423,
      "Ġvol": 3424,
      "inese": 3425,
      "Ġstra": 3426,
      "ĠOb": 3427,
      "ngth": 3428,
      "Ġmistake": 3429,
      "Ġnigger": 3430,
      "Ġeduc": 3431,
      "Ġbenef": 3432,
      "ĠMarch": 3433,
      "Ġgone": 3434,
      "ĠME": 3435,
      "Ġrad": 3436,
      "ĠDoes": 3437,
      "Ġpopulation": 3438,
      "ĠJuly": 3439,
      "Ġinsert": 3440,
      "empl": 3441,
      "ĠWILL": 3442,
      "Ġprevent": 3443,
      "weet": 3444,
      "Ġorganization": 3445,
      "ination": 3446,
      "Ġrelease": 3447,
      "Ġlegit": 3448,
      "Ġ(~~~~": 3449,
      "AND": 3450,
      "itting": 3451,
      "Ġess": 3452,
      "Ġcock": 3453,
      "ples": 3454,
      "ids": 3455,
      "Ġconstit": 3456,
      "Ġsurpr": 3457,
      "Ġdisruptive": 3458,
      "book": 3459,
      "rict": 3460,
      "Ġsad": 3461,
      "irth": 3462,
      "ological": 3463,
      "Ġscientific": 3464,
      "pite": 3465,
      "ceding": 3466,
      "Ġacceptable": 3467,
      "reet": 3468,
      "Ġdri": 3469,
      "Ġanymore": 3470,
      "ali": 3471,
      "Ġlik": 3472,
      "Ġà¤Ĳ": 3473,
      "Ġmoney": 3474,
      "px": 3475,
      "Ġcut": 3476,
      "ONG": 3477,
      "Ġmodern": 3478,
      "Ġbody": 3479,
      "lement": 3480,
      "board": 3481,
      "ram": 3482,
      "Ġahead": 3483,
      "esus": 3484,
      "ider": 3485,
      "Ġevents": 3486,
      "Ġgives": 3487,
      "list": 3488,
      "Ġimmedi": 3489,
      "à¥Ĥà¤ģ": 3490,
      "Ġspecifically": 3491,
      "Ġirrelevant": 3492,
      "ĠHis": 3493,
      "ĠGO": 3494,
      "Ġasshole": 3495,
      "mi": 3496,
      "Ġà¥¤": 3497,
      "lege": 3498,
      "arty": 3499,
      "Ġputting": 3500,
      "Ġflag": 3501,
      "Ġethnic": 3502,
      "ĠON": 3503,
      "ĠWhere": 3504,
      "ĠWikipedian": 3505,
      "Is": 3506,
      "ĠList": 3507,
      "Ġà¤¬à¤ļ": 3508,
      "Ġregards": 3509,
      "Ġhighly": 3510,
      "Ġmillion": 3511,
      "Ġmine": 3512,
      "ĠWIK": 3513,
      "atic": 3514,
      "Ġunderstanding": 3515,
      "Ġstudy": 3516,
      "ĠManual": 3517,
      "KER": 3518,
      "Ġaltern": 3519,
      "acos": 3520,
      "Ġadvice": 3521,
      "EE": 3522,
      "Ġair": 3523,
      "Ġnamed": 3524,
      "Ġproperly": 3525,
      "spe": 3526,
      "Ġprogram": 3527,
      "duct": 3528,
      "free": 3529,
      "Ġhear": 3530,
      "Ġje": 3531,
      "Ġrequesting": 3532,
      "ara": 3533,
      "Ġà¤Ĩà¤¤": 3534,
      "100": 3535,
      "ning": 3536,
      "Ġda": 3537,
      "iliar": 3538,
      "Ġcateg": 3539,
      "Ġ23": 3540,
      "ps": 3541,
      "Ġdefinitely": 3542,
      "Ġforce": 3543,
      "Ġà¤ķà¤®": 3544,
      "aul": 3545,
      "Ġ;": 3546,
      "Ġdev": 3547,
      "ĠBl": 3548,
      "Ġreader": 3549,
      "arnstar": 3550,
      "Ġdemon": 3551,
      "à¥Ľ": 3552,
      "ĠHATE": 3553,
      "RR": 3554,
      "align": 3555,
      "ĠCould": 3556,
      "ĠOct": 3557,
      "Ġclub": 3558,
      "OB": 3559,
      "rant": 3560,
      "Ġrelations": 3561,
      "Sh": 3562,
      "Wikipedia": 3563,
      "enced": 3564,
      "illy": 3565,
      "à¤¯à¤°": 3566,
      "ellig": 3567,
      "Ġunsigned": 3568,
      "Ġindependent": 3569,
      "Ġapparently": 3570,
      "Ġtemplates": 3571,
      "asing": 3572,
      "ĠBE": 3573,
      "ators": 3574,
      "ĠHA": 3575,
      "Ġchal": 3576,
      "à¤¹à¤®": 3577,
      "Ġreligion": 3578,
      "Ġwoman": 3579,
      "Ġinappropriate": 3580,
      "Ġposting": 3581,
      "Ġeasy": 3582,
      "Wiki": 3583,
      "Ġnature": 3584,
      "tick": 3585,
      "mor": 3586,
      "Ġbast": 3587,
      "lled": 3588,
      "\"\"|": 3589,
      "ĠFeel": 3590,
      "Ġtum": 3591,
      "ĠUN": 3592,
      "Ġbelief": 3593,
      "Ġinflu": 3594,
      "à¤®à¤¨": 3595,
      "________": 3596,
      "br": 3597,
      "roy": 3598,
      "Se": 3599,
      "Ġverifiable": 3600,
      "Ġsometimes": 3601,
      "ĠCH": 3602,
      "ĠUniversity": 3603,
      "De": 3604,
      "ĠNational": 3605,
      "Ġfocus": 3606,
      "Ġposts": 3607,
      "Ġexperience": 3608,
      "'.": 3609,
      "Ġbal": 3610,
      "Ġluck": 3611,
      "Ġforward": 3612,
      "ĠTHIS": 3613,
      "Ġridic": 3614,
      "ĠIntern": 3615,
      "iability": 3616,
      "Ġcell": 3617,
      "Ġappl": 3618,
      "Ġpopular": 3619,
      "isf": 3620,
      "ĠSm": 3621,
      "Ġwide": 3622,
      "???": 3623,
      "Ġexamples": 3624,
      "ĠFUCKING": 3625,
      "onymous": 3626,
      "ari": 3627,
      "Ġremark": 3628,
      "ĠKe": 3629,
      "andom": 3630,
      "Ġ22": 3631,
      "Ġrecomm": 3632,
      "Ġformer": 3633,
      "Ġeasily": 3634,
      "Ġsubstant": 3635,
      "GE": 3636,
      "ĠCAN": 3637,
      "iff": 3638,
      "cedon": 3639,
      "ugh": 3640,
      "Ġfill": 3641,
      "Ġinit": 3642,
      "ĠEd": 3643,
      "Ġsal": 3644,
      "omb": 3645,
      "cember": 3646,
      "Ġblank": 3647,
      "Ġcomputer": 3648,
      "Ġ''''''": 3649,
      "ĠAdd": 3650,
      "Ġtotal": 3651,
      "gen": 3652,
      "Ġtar": 3653,
      "Ġfinal": 3654,
      "Ġà¤¦à¤²": 3655,
      "Ġresol": 3656,
      "CE": 3657,
      "Ġhey": 3658,
      "Ġimm": 3659,
      "Ġmilitary": 3660,
      "Ġbec": 3661,
      "Ġblog": 3662,
      "ols": 3663,
      "ĠRem": 3664,
      "loy": 3665,
      "Ġteach": 3666,
      "Ġlists": 3667,
      "ĠRepublic": 3668,
      "ĠWANKER": 3669,
      "Ġnat": 3670,
      "Ġtrouble": 3671,
      "Ġaccounts": 3672,
      "Ġignore": 3673,
      "ĠAnyway": 3674,
      "Ġach": 3675,
      "Ġbott": 3676,
      "ĠRf": 3677,
      "Ġà¤Ĩà¤ªà¤ķ": 3678,
      "Ġmovie": 3679,
      "\"==": 3680,
      "à¤ī": 3681,
      "Ġcand": 3682,
      "Ġpick": 3683,
      "Ġhes": 3684,
      "Ġwarring": 3685,
      "Ġpossibly": 3686,
      "eptember": 3687,
      "ham": 3688,
      "ouch": 3689,
      "Ġshown": 3690,
      "arding": 3691,
      "ĠAustral": 3692,
      "ĠBUT": 3693,
      "Ġvict": 3694,
      "à¤Łà¤°": 3695,
      "à¤¼à¥ĩ": 3696,
      "Ġrequired": 3697,
      "ried": 3698,
      "Ġsoci": 3699,
      "ĠLook": 3700,
      "ONT": 3701,
      "Ġnoted": 3702,
      "à¤¨à¤¤": 3703,
      "ĠBecause": 3704,
      "Ġdie": 3705,
      "à¤°à¤¦": 3706,
      "Ġarbit": 3707,
      "ĠJanuary": 3708,
      "Ġopt": 3709,
      "ĠNipple": 3710,
      "Ġnomination": 3711,
      "Ġce": 3712,
      "Ġfem": 3713,
      "arian": 3714,
      "Ġil": 3715,
      "ung": 3716,
      "Ġjew": 3717,
      "ĠGen": 3718,
      "Ġ197": 3719,
      "Your": 3720,
      "letion": 3721,
      "Ġcourt": 3722,
      "Ġfund": 3723,
      "well": 3724,
      "Ġborn": 3725,
      "ĠSouth": 3726,
      "Ġ2012": 3727,
      "Ġadministrators": 3728,
      "Ġlocal": 3729,
      "ĠPar": 3730,
      "ĠBEST": 3731,
      "Ġexplained": 3732,
      "ĠBest": 3733,
      "à¤²à¤¨": 3734,
      "Ġassert": 3735,
      "Ġapplic": 3736,
      "Ġvers": 3737,
      "67": 3738,
      "ĠOther": 3739,
      "indu": 3740,
      "ĠJune": 3741,
      "ST": 3742,
      "Ġexc": 3743,
      "ky": 3744,
      "ellow": 3745,
      "Ġground": 3746,
      "action": 3747,
      "rite": 3748,
      "ining": 3749,
      "Ġcoun": 3750,
      "OLOL": 3751,
      "ĠAdmin": 3752,
      "itude": 3753,
      "ĠInt": 3754,
      "amas": 3755,
      "Ġhappens": 3756,
      "Ġbasis": 3757,
      "ĠSim": 3758,
      "ends": 3759,
      "ĠWikiProject": 3760,
      "Ġà¤ªà¤¹à¤²": 3761,
      "Ġdiscussions": 3762,
      "adding": 3763,
      "rem": 3764,
      "ĠGoogle": 3765,
      "Ġsuspect": 3766,
      "ming": 3767,
      "Ġretard": 3768,
      "Ġreasonable": 3769,
      "Ġracist": 3770,
      "off": 3771,
      "Ġfat": 3772,
      "anish": 3773,
      "ips": 3774,
      "ovember": 3775,
      "Ġhyp": 3776,
      "Ġpropaganda": 3777,
      "fe": 3778,
      "elt": 3779,
      "ĠYork": 3780,
      "There": 3781,
      "ĠArab": 3782,
      "gue": 3783,
      "Ġinvestig": 3784,
      "opy": 3785,
      "Ġ25": 3786,
      "ford": 3787,
      "uh": 3788,
      "Ġpain": 3789,
      "ĠFrom": 3790,
      "Ġbot": 3791,
      "ĠSy": 3792,
      "ĠCUNT": 3793,
      "Ġspeedily": 3794,
      "Qu": 3795,
      "mail": 3796,
      "Ġseeing": 3797,
      "Ġerr": 3798,
      "ĠWelcome": 3799,
      "Ġnear": 3800,
      "ruary": 3801,
      "ĠRegards": 3802,
      "sych": 3803,
      "Ġfavor": 3804,
      "NN": 3805,
      "ero": 3806,
      "ĠWould": 3807,
      "Ġplaces": 3808,
      "ĠJewish": 3809,
      "ĠGreek": 3810,
      "Ġut": 3811,
      "Ġstick": 3812,
      "Ġstub": 3813,
      "ĠGAY": 3814,
      "lav": 3815,
      "ĠTV": 3816,
      "à¥Ĥà¤Ĥ": 3817,
      "BL": 3818,
      "aign": 3819,
      "ask": 3820,
      "ĠHappy": 3821,
      "ems": 3822,
      "Ġguideline": 3823,
      "icit": 3824,
      "stit": 3825,
      "ured": 3826,
      "ĠâĢ¦": 3827,
      "40": 3828,
      "erv": 3829,
      "Ġfully": 3830,
      "ĠNote": 3831,
      "ĠAmerica": 3832,
      "Ġlicense": 3833,
      "ĠApril": 3834,
      "Ġbastard": 3835,
      "ays": 3836,
      "TAB": 3837,
      "dis": 3838,
      "ique": 3839,
      "Ġremoval": 3840,
      "ĠAfr": 3841,
      "ĠIran": 3842,
      "Ġnight": 3843,
      "otect": 3844,
      "Ġbecom": 3845,
      "ĠBar": 3846,
      "Ġimpl": 3847,
      "iles": 3848,
      "ographies": 3849,
      "Ġà¤Ĳà¤¸": 3850,
      "Ġbother": 3851,
      "Ġlies": 3852,
      "urder": 3853,
      "Ġperform": 3854,
      "Ġprior": 3855,
      "Ġjoke": 3856,
      "Ġcentury": 3857,
      "Ġreligious": 3858,
      "?)": 3859,
      "Ġdrop": 3860,
      "irt": 3861,
      "Ġfaggot": 3862,
      "icans": 3863,
      "Ġeconom": 3864,
      "anc": 3865,
      "Why": 3866,
      "ĠMuslim": 3867,
      "Ġencour": 3868,
      "Ġsuccess": 3869,
      "know": 3870,
      "ĠPage": 3871,
      "Ġbrought": 3872,
      "key": 3873,
      "Ġcontroversial": 3874,
      "ĠRoman": 3875,
      "Ġbecame": 3876,
      "yond": 3877,
      "Ġland": 3878,
      "ĠOK": 3879,
      "Ġsatisf": 3880,
      "pir": 3881,
      "ze": 3882,
      "Ġwarnings": 3883,
      "ILL": 3884,
      "ĠEl": 3885,
      "Ġimag": 3886,
      "Ġridiculous": 3887,
      "Ġhor": 3888,
      "Ġdiv": 3889,
      "Ġhain": 3890,
      "Ġcontribution": 3891,
      "Ġpenis": 3892,
      "Ġpaper": 3893,
      "rief": 3894,
      "à¤¸à¤°": 3895,
      "Ġdescribe": 3896,
      "Ġcharacters": 3897,
      "Ġhuge": 3898,
      "rr": 3899,
      "Ġ50": 3900,
      "Ġfall": 3901,
      "ĠMc": 3902,
      "ource": 3903,
      "ĠSecond": 3904,
      "30": 3905,
      "Ġsupported": 3906,
      "Ġconcerned": 3907,
      "Ġwondering": 3908,
      "Un": 3909,
      "ias": 3910,
      "ati": 3911,
      "ĠMore": 3912,
      "Ġtrad": 3913,
      "Ġresults": 3914,
      "Ġpun": 3915,
      "ops": 3916,
      "Ġnewsp": 3917,
      "light": 3918,
      "Ġdumb": 3919,
      "ĠIM": 3920,
      "Ġmethod": 3921,
      "ĠDICK": 3922,
      "ĠPR": 3923,
      "quently": 3924,
      "Ġactive": 3925,
      "Hey": 3926,
      "ceed": 3927,
      "Ġweeks": 3928,
      "Ġbottom": 3929,
      "II": 3930,
      "ening": 3931,
      "orth": 3932,
      "Ġselect": 3933,
      "urt": 3934,
      "Ġappreciated": 3935,
      "Ġyours": 3936,
      "Ġder": 3937,
      "Ġnet": 3938,
      "ume": 3939,
      "Ġfamiliar": 3940,
      "Ġvisit": 3941,
      "Ġlib": 3942,
      "Ġintention": 3943,
      "atholic": 3944,
      "As": 3945,
      "Ġlie": 3946,
      "Ġkart": 3947,
      "Ġexcl": 3948,
      "Ġoccur": 3949,
      "ĠSP": 3950,
      "ĠFurther": 3951,
      "Ġpublish": 3952,
      "Ġtroll": 3953,
      "Ġkept": 3954,
      "Ġalt": 3955,
      "ĠUnder": 3956,
      "Ġthous": 3957,
      "Ġgames": 3958,
      "Ġneither": 3959,
      "Ġexpert": 3960,
      "ĠNorth": 3961,
      "):": 3962,
      "ĠHope": 3963,
      "Ġvia": 3964,
      "Ġdiscussing": 3965,
      "Ġsockpuppet": 3966,
      "Ġhesit": 3967,
      "Ġmeets": 3968,
      "Ġsuggestion": 3969,
      "ĠCent": 3970,
      "Ġsomewhere": 3971,
      "ERS": 3972,
      "Ġ[[": 3973,
      "Ġtests": 3974,
      "Yes": 3975,
      "ĠUP": 3976,
      "ression": 3977,
      "Ġwording": 3978,
      "Ġforum": 3979,
      "Ġparts": 3980,
      "Ġinfobox": 3981,
      "Ġnobody": 3982,
      "Ġfunny": 3983,
      "under": 3984,
      "Ġà¤¸à¤Ń": 3985,
      "Ġvalue": 3986,
      "Ġfixed": 3987,
      "uses": 3988,
      "Ġrealize": 3989,
      "Ġapproach": 3990,
      "ened": 3991,
      "ĠAD": 3992,
      "Ġbasic": 3993,
      "Ġpreviously": 3994,
      "Ġsounds": 3995,
      "tw": 3996,
      "with": 3997,
      "Ġbirth": 3998,
      "Ġdeg": 3999,
      "abag": 4000,
      "Ġfucksex": 4001,
      "Ġsuggested": 4002,
      "ENT": 4003,
      "Ġimmediately": 4004,
      "ĠHistory": 4005,
      "Ġtrust": 4006,
      "Ġà¤Ĺà¤Ī": 4007,
      "rary": 4008,
      "rian": 4009,
      "Ġà¤®à¤°": 4010,
      "Ġreleased": 4011,
      "Ġmanner": 4012,
      "Ġpolice": 4013,
      "Ġplayed": 4014,
      "Ġpresented": 4015,
      "gin": 4016,
      "ĠNOES": 4017,
      "atory": 4018,
      "Ġdesign": 4019,
      "Ġobser": 4020,
      "Ġimportance": 4021,
      "ingu": 4022,
      "ala": 4023,
      "Ġkr": 4024,
      "ĠMo": 4025,
      "Ġusage": 4026,
      "Ġteabag": 4027,
      "Ġ(~~~~);": 4028,
      "ality": 4029,
      "ĠCategory": 4030,
      "ifies": 4031,
      "Ġà¤¤à¤°": 4032,
      "comp": 4033,
      "undred": 4034,
      ")\"": 4035,
      "Ġconduct": 4036,
      "Ġshut": 4037,
      "rap": 4038,
      "Ġways": 4039,
      "Ġà¤ļà¤²": 4040,
      "Ġcandid": 4041,
      "UM": 4042,
      "Ġmap": 4043,
      "Ġsec": 4044,
      "Ġreferenced": 4045,
      "Ġwebsites": 4046,
      "He": 4047,
      "Well": 4048,
      "lear": 4049,
      "ĠTutorial": 4050,
      "ades": 4051,
      "Ġfreezer": 4052,
      "Ġkilled": 4053,
      "Ġà¤īà¤¨à¤ķ": 4054,
      "Ġglad": 4055,
      "Ġjournal": 4056,
      "ĠOk": 4057,
      "Ġmissing": 4058,
      "cest": 4059,
      "ĠSeptember": 4060,
      "Ġdeli": 4061,
      "ĠOFF": 4062,
      "ĠJim": 4063,
      "Ġreferring": 4064,
      "ĠGetting": 4065,
      "Ġreality": 4066,
      "ifying": 4067,
      "ĠDavid": 4068,
      "Ġenglish": 4069,
      "isions": 4070,
      "ĠSw": 4071,
      "ources": 4072,
      "ript": 4073,
      "?!": 4074,
      "ping": 4075,
      "Ġagend": 4076,
      "à¤ªà¤°": 4077,
      "ĠIndian": 4078,
      "yyyyyyyyyyyyyyyy": 4079,
      "uyuyuyuyuyuyuyuy": 4080,
      "Ġwidth": 4081,
      "Ġà¤µà¤¹": 4082,
      "ĠDecember": 4083,
      "nnnnnnnnnnnnnnnn": 4084,
      "Ġrepeatedly": 4085,
      "Ġcast": 4086,
      "ĠFrench": 4087,
      "Ġ2011": 4088,
      "Article": 4089,
      "Ġestablished": 4090,
      "iour": 4091,
      "Ġtown": 4092,
      "Ġmuslim": 4093,
      "Ġnegative": 4094,
      "Ġdemonstr": 4095,
      "BC": 4096,
      "Ġsomebody": 4097,
      "Ġdespite": 4098,
      "ĠAfD": 4099,
      "Ġtypes": 4100,
      "Ġknew": 4101,
      "Ġthread": 4102,
      "Ġpuppet": 4103,
      "ĠMany": 4104,
      "Ġinterview": 4105,
      "ware": 4106,
      "ĠJe": 4107,
      "Ġfit": 4108,
      "Ġcond": 4109,
      "ĠChurch": 4110,
      "Ġlabel": 4111,
      "ae": 4112,
      "miss": 4113,
      "Ġcolor": 4114,
      "ĠPeople": 4115,
      "How": 4116,
      "aut": 4117,
      "ĠWas": 4118,
      "Ġargue": 4119,
      "Ġcomb": 4120,
      "inks": 4121,
      "Ġaccusations": 4122,
      "emplate": 4123,
      "RS": 4124,
      "Ġparent": 4125,
      "Ġhost": 4126,
      "Ġfactual": 4127,
      "ĠNews": 4128,
      "Ġleaving": 4129,
      "Ġblat": 4130,
      "Ġlate": 4131,
      "Ġste": 4132,
      "ustr": 4133,
      "ĠGA": 4134,
      "bar": 4135,
      "ec": 4136,
      "xy": 4137,
      "xual": 4138,
      "Ġsir": 4139,
      "ĠMich": 4140,
      "ĠNovember": 4141,
      "Ġwhose": 4142,
      "Ġage": 4143,
      "My": 4144,
      "à¥ĩà¥¤": 4145,
      "ĠCal": 4146,
      "Ġexists": 4147,
      "ube": 4148,
      "Ġapply": 4149,
      "Ġlow": 4150,
      "Ġkya": 4151,
      "reedom": 4152,
      "Ġokay": 4153,
      "ĠMacedon": 4154,
      "ĠOctober": 4155,
      "An": 4156,
      "cise": 4157,
      "Ġshare": 4158,
      "Ġchoose": 4159,
      "Ġshowing": 4160,
      "Ġincre": 4161,
      "ael": 4162,
      "Ġsend": 4163,
      "Ġcontributors": 4164,
      "Ġdestroy": 4165,
      "vi": 4166,
      "REED": 4167,
      "tr": 4168,
      "Ġled": 4169,
      "Ġspam": 4170,
      "ocrat": 4171,
      "Ġilleg": 4172,
      "Ġhundred": 4173,
      "Ġseason": 4174,
      "Ġblood": 4175,
      "ĠShould": 4176,
      "Ġcrap": 4177,
      "FC": 4178,
      "Ġideas": 4179,
      "Ġtelling": 4180,
      "IPED": 4181,
      "Ġstraight": 4182,
      "zy": 4183,
      "Ġsla": 4184,
      "Ġpure": 4185,
      "style": 4186,
      "Ġ|-": 4187,
      "Ġnominated": 4188,
      "Ġepisode": 4189,
      "27": 4190,
      "Ġkoi": 4191,
      "ĠFebruary": 4192,
      "Ġweight": 4193,
      "Ġquotes": 4194,
      "akistan": 4195,
      "Ġbroad": 4196,
      "receding": 4197,
      "itable": 4198,
      "Ġeyes": 4199,
      "cons": 4200,
      "Ġassist": 4201,
      "Ġinstance": 4202,
      "Ġadvertising": 4203,
      "Ġ..": 4204,
      "Ġang": 4205,
      "point": 4206,
      "Ġanim": 4207,
      "Ġintended": 4208,
      "Ġtopics": 4209,
      "CRAPCRAPCRAPCRAP": 4210,
      "Ġreceived": 4211,
      "Ġlegitimate": 4212,
      "Ġcal": 4213,
      "Ġlos": 4214,
      "Ġsold": 4215,
      "ĠEvery": 4216,
      "Ġrole": 4217,
      "99": 4218,
      "mon": 4219,
      "Ġbeyond": 4220,
      "REEDOM": 4221,
      "Ġhouse": 4222,
      "ĠIm": 4223,
      "Ġstruct": 4224,
      "uj": 4225,
      "Ġspelling": 4226,
      "Ġclaimed": 4227,
      "Ġservice": 4228,
      "Ġcontroversy": 4229,
      "Ġphrase": 4230,
      "aging": 4231,
      "ĠBel": 4232,
      "Ġfront": 4233,
      "ĠRes": 4234,
      "à¤ļà¤²": 4235,
      "Ġcapital": 4236,
      "Ġinn": 4237,
      "ulations": 4238,
      "Ġrace": 4239,
      "Ġextremely": 4240,
      "Ġsn": 4241,
      "à¥Īà¤Ĥà¥¤": 4242,
      "Ġbeginning": 4243,
      "Ġachie": 4244,
      "Be": 4245,
      "Ġson": 4246,
      "ills": 4247,
      "Ġprinc": 4248,
      "60": 4249,
      "GA": 4250,
      "Ġspeech": 4251,
      "Ġ{|": 4252,
      "rep": 4253,
      "Ġcouldn": 4254,
      "Ġpractice": 4255,
      "kh": 4256,
      "oe": 4257,
      "Ġaap": 4258,
      "esis": 4259,
      "Ġlad": 4260,
      "',": 4261,
      "Ġack": 4262,
      "ĠAnt": 4263,
      "Ġchurch": 4264,
      "Ġmovement": 4265,
      "45": 4266,
      "80": 4267,
      "Ġcompan": 4268,
      "Ġvertical": 4269,
      "ĠWIKIPED": 4270,
      "Cont": 4271,
      "ĠIts": 4272,
      "ĠTHAT": 4273,
      "Ġcampaign": 4274,
      "Ġhesitate": 4275,
      "Ġmisle": 4276,
      "Ġancest": 4277,
      "ivility": 4278,
      "Ġcompet": 4279,
      "Ġà¤ħà¤¨": 4280,
      "Ġrefrain": 4281,
      "Ġx": 4282,
      "Ġwater": 4283,
      "Ġnik": 4284,
      "Ġsuffic": 4285,
      "ĠMost": 4286,
      "We": 4287,
      "Ġtouch": 4288,
      "orge": 4289,
      "Ġaspect": 4290,
      "ĠSUP": 4291,
      "Ġadmit": 4292,
      "Ġchecking": 4293,
      "IR": 4294,
      "aby": 4295,
      "Ġgrow": 4296,
      "Ġmostly": 4297,
      "oll": 4298,
      "reement": 4299,
      "Ġcunt": 4300,
      "Ġheav": 4301,
      "class": 4302,
      "Ġbehaviour": 4303,
      "related": 4304,
      "zzzzzzzzzzzzzzzz": 4305,
      "Ġacademic": 4306,
      "roat": 4307,
      "Ġrandom": 4308,
      "ĠSchool": 4309,
      "za": 4310,
      "ino": 4311,
      "Ġdom": 4312,
      "Ġconfused": 4313,
      "Ġagenda": 4314,
      "usive": 4315,
      "cel": 4316,
      "Ġintellig": 4317,
      "Ġà¤ħà¤Ń": 4318,
      "Ġunsourced": 4319,
      "Ġacknow": 4320,
      "ARE": 4321,
      "ole": 4322,
      "asure": 4323,
      "Ġeat": 4324,
      "Ġlength": 4325,
      "Ġuploading": 4326,
      "Ġconnection": 4327,
      "Ġintent": 4328,
      "Ġtrain": 4329,
      "Ġincludes": 4330,
      "Ġpositive": 4331,
      "Ġsize": 4332,
      "à¤®à¤²": 4333,
      "ously": 4334,
      "ĠChar": 4335,
      "Ġmurder": 4336,
      "hetic": 4337,
      "AHAHAHAHAHAHAHAH": 4338,
      "Ġtend": 4339,
      "Ġmaintain": 4340,
      "ambiguation": 4341,
      "Com": 4342,
      "GOT": 4343,
      "lin": 4344,
      "sing": 4345,
      "Ġkey": 4346,
      "Ġgra": 4347,
      "ander": 4348,
      "Ġnormal": 4349,
      "bi": 4350,
      "Ġrap": 4351,
      "Ġthinks": 4352,
      "odes": 4353,
      "Ġphotos": 4354,
      "à¥Ģà¥¤": 4355,
      "LY": 4356,
      "So": 4357,
      "ilos": 4358,
      "ĠDes": 4359,
      "Ġfinding": 4360,
      "Ġlogo": 4361,
      "KK": 4362,
      "ĠRAP": 4363,
      "ĠItal": 4364,
      "Ġmerge": 4365,
      "Ġfeatured": 4366,
      "aff": 4367,
      "Ġmiddle": 4368,
      "ĠAcc": 4369,
      "Ġreverts": 4370,
      "Ġdistin": 4371,
      "Ġwatching": 4372,
      "Ġà¤Ŀ": 4373,
      "ĠPres": 4374,
      "Ġnumerous": 4375,
      "1111111111111111": 4376,
      "ĠJames": 4377,
      "ĠState": 4378,
      "Ġ2013": 4379,
      "atives": 4380,
      "Ġbunch": 4381,
      "ushing": 4382,
      "Ġkarn": 4383,
      "orship": 4384,
      "Ġten": 4385,
      "Ġbrief": 4386,
      "ĠGreat": 4387,
      "Ġreput": 4388,
      "Ġauthority": 4389,
      "Ġfailed": 4390,
      "Ġyoung": 4391,
      "Ġgun": 4392,
      "Ġoffer": 4393,
      "Ġguide": 4394,
      "Ġhat": 4395,
      "Ġdisplay": 4396,
      "Ġclaiming": 4397,
      "Ġrelationship": 4398,
      "egr": 4399,
      "Ġà¤ľà¤¬": 4400,
      "'''": 4401,
      "alest": 4402,
      "Ġstarting": 4403,
      "Ġstudents": 4404,
      "Ġboard": 4405,
      "77": 4406,
      "ECK": 4407,
      "ray": 4408,
      "à¤ķà¤²": 4409,
      "lobal": 4410,
      "à¤ªà¤¤": 4411,
      "Ġlanguages": 4412,
      "FREEDOM": 4413,
      "orts": 4414,
      "ship": 4415,
      "Ġinvolve": 4416,
      "Ġjoin": 4417,
      "Ġperfectly": 4418,
      "JP": 4419,
      "Ġ:": 4420,
      "Ġanonymous": 4421,
      "Ġdig": 4422,
      "arth": 4423,
      "Ġcommunic": 4424,
      "Ġtrack": 4425,
      "ape": 4426,
      "Ġvs": 4427,
      "ĠJesus": 4428,
      "!)": 4429,
      "Ġsick": 4430,
      "Ġple": 4431,
      "image": 4432,
      "Ġaccused": 4433,
      "Ġwest": 4434,
      "estions": 4435,
      "Ġrefers": 4436,
      "azine": 4437,
      "ĠFAGGOT": 4438,
      "erry": 4439,
      "entially": 4440,
      "Ġgoogle": 4441,
      "igher": 4442,
      "ĠCity": 4443,
      "Ġalleg": 4444,
      "rees": 4445,
      "Ġball": 4446,
      "Ġpush": 4447,
      "esides": 4448,
      "ĠFl": 4449,
      "ĠOR": 4450,
      "à¤ıà¤Ĺ": 4451,
      "Ġlimited": 4452,
      "Ġwin": 4453,
      "Ġredu": 4454,
      "ĠTw": 4455,
      "Ġhealth": 4456,
      "Ġà¤°à¤ĸ": 4457,
      "Ġsens": 4458,
      "Ġpsych": 4459,
      "ĠCount": 4460,
      "Ġtruly": 4461,
      "osexual": 4462,
      "ĠStop": 4463,
      "itation": 4464,
      "ĠFin": 4465,
      "Ġpoop": 4466,
      "Ġseek": 4467,
      "iously": 4468,
      "ESS": 4469,
      "Ġinsist": 4470,
      "Ġsecondary": 4471,
      "Ġsett": 4472,
      "amer": 4473,
      "Ġareas": 4474,
      "Ġanywhere": 4475,
      "raft": 4476,
      "à¤¶à¤¨": 4477,
      "Ġsyn": 4478,
      "Ġdamn": 4479,
      "ĠRAPE": 4480,
      "Do": 4481,
      "gas": 4482,
      "rog": 4483,
      "Ġdecl": 4484,
      "Ġencyclopedic": 4485,
      "cer": 4486,
      "Ġspl": 4487,
      "Ġbol": 4488,
      "urb": 4489,
      "Ġcompanies": 4490,
      "Ass": 4491,
      "Hello": 4492,
      "Ind": 4493,
      "Ġma": 4494,
      "Ġreject": 4495,
      "Ġshared": 4496,
      "Ġà¤¬à¤¤": 4497,
      "Ġconstructive": 4498,
      "Request": 4499,
      "ken": 4500,
      "oke": 4501,
      "Ġbase": 4502,
      "Ġcorre": 4503,
      "Ġstating": 4504,
      "Ġpersons": 4505,
      "helpme": 4506,
      "Ġforgot": 4507,
      "WP": 4508,
      "Ġ+": 4509,
      "Ġbold": 4510,
      "anced": 4511,
      "ief": 4512,
      "OTH": 4513,
      "vey": 4514,
      "Ġdeep": 4515,
      "Ġincident": 4516,
      "stream": 4517,
      "Ġà¤Ĩà¤°": 4518,
      "Ġbitches": 4519,
      "ĠSerb": 4520,
      "Ex": 4521,
      "ĠSup": 4522,
      "Ġworse": 4523,
      "Ġpermission": 4524,
      "Ġfeed": 4525,
      "Ġregist": 4526,
      "SUCK": 4527,
      "Ġ~": 4528,
      "Ġsam": 4529,
      "isi": 4530,
      "Ġspeaking": 4531,
      "Ġbasically": 4532,
      "istics": 4533,
      "Ġrecommend": 4534,
      "GG": 4535,
      "ns": 4536,
      "Ġhop": 4537,
      "Ġfather": 4538,
      "ift": 4539,
      "Ġtone": 4540,
      "iting": 4541,
      "aye": 4542,
      "ste": 4543,
      "irmed": 4544,
      "Ġsubjects": 4545,
      "ĠWIKIPEDIA": 4546,
      "28": 4547,
      "ĠRed": 4548,
      "Ġprint": 4549,
      "Ġmath": 4550,
      "ĠEngland": 4551,
      "Ġconsidering": 4552,
      "Ġplaying": 4553,
      "Ġfinally": 4554,
      "Ġdied": 4555,
      "ĠApp": 4556,
      "Ġfelt": 4557,
      "Ġinput": 4558,
      "uman": 4559,
      "ĠArticles": 4560,
      "Ad": 4561,
      "reland": 4562,
      "ises": 4563,
      "Ġbul": 4564,
      "Ġvill": 4565,
      "iven": 4566,
      "Ġoffensive": 4567,
      "ĠChinese": 4568,
      "Ġseemed": 4569,
      "====": 4570,
      "Ġtha": 4571,
      "onna": 4572,
      "anch": 4573,
      "Ġeye": 4574,
      "Ġrock": 4575,
      "protect": 4576,
      "known": 4577,
      "ilt": 4578,
      "Ġlaws": 4579,
      "ĠSUPER": 4580,
      "Ġrude": 4581,
      "Ġchoice": 4582,
      "Ġkeeping": 4583,
      "Ġupdated": 4584,
      "Ġvictim": 4585,
      "\":": 4586,
      "some": 4587,
      "urg": 4588,
      "ĠLA": 4589,
      "apers": 4590,
      "hib": 4591,
      "IV": 4592,
      "Sorry": 4593,
      "cle": 4594,
      "cil": 4595,
      "Ġtax": 4596,
      "oul": 4597,
      "Ġsca": 4598,
      "Ġforget": 4599,
      "ĠBlack": 4600,
      "accur": 4601,
      "ĠJapanese": 4602,
      "ĠCOCKSUCK": 4603,
      "Ġcross": 4604,
      "ĠCour": 4605,
      "FFFA": 4606,
      "Ġrunning": 4607,
      "Ġefforts": 4608,
      "KE": 4609,
      "tt": 4610,
      "Ġsomewhat": 4611,
      "Ġadditions": 4612,
      "Ġgramm": 4613,
      "ANN": 4614,
      "Ġfollowed": 4615,
      "Ġprotection": 4616,
      "Ġproposal": 4617,
      "ja": 4618,
      "Ġfire": 4619,
      "à¤ľà¤°": 4620,
      "Ġimproving": 4621,
      "Ġreferred": 4622,
      "Ġagreed": 4623,
      "Ġpointed": 4624,
      "Ġsmell": 4625,
      "Ġdouble": 4626,
      "Ġcategories": 4627,
      "yan": 4628,
      "ĠPort": 4629,
      "Ġraised": 4630,
      "Ġfairly": 4631,
      "Ġminutes": 4632,
      "Ġoh": 4633,
      "Ġchecked": 4634,
      "Ġsociety": 4635,
      "Ġlogic": 4636,
      "Ġclicking": 4637,
      "?\"\"": 4638,
      "fortunately": 4639,
      "Ġheart": 4640,
      "Ġfamous": 4641,
      "ECKS": 4642,
      "ĠAng": 4643,
      "alent": 4644,
      "Ġprotected": 4645,
      "Ġapologize": 4646,
      "Ġestablish": 4647,
      "TSECKS": 4648,
      "Ġfans": 4649,
      "alled": 4650,
      "Ġsuggestions": 4651,
      "ondon": 4652,
      "ĠBUTTSECKS": 4653,
      "Ġcry": 4654,
      "Ġnation": 4655,
      "Ġnhi": 4656,
      "law": 4657,
      "Ġmisleading": 4658,
      "ĠMin": 4659,
      "Ġfool": 4660,
      "ALK": 4661,
      "UU": 4662,
      "she": 4663,
      "Ġcat": 4664,
      "Ġengine": 4665,
      "New": 4666,
      "ience": 4667,
      "à¤°à¤£": 4668,
      "ĠMon": 4669,
      "ĠHU": 4670,
      "Ġunlike": 4671,
      "Ġcompar": 4672,
      "Ġà¤¸à¤®à¤Ŀ": 4673,
      "ĠCommun": 4674,
      "Ġstrongly": 4675,
      "wiki": 4676,
      "Ġsan": 4677,
      "Ġwind": 4678,
      "Ġbattle": 4679,
      "Ġant": 4680,
      "ĠCy": 4681,
      "Ġpred": 4682,
      "ĠChina": 4683,
      "pective": 4684,
      "Ġà¤ĩà¤¤à¤¨": 4685,
      "atively": 4686,
      "Ġwhom": 4687,
      "Ġundo": 4688,
      "Ġhigher": 4689,
      "Ġren": 4690,
      "ida": 4691,
      "Ġrul": 4692,
      "fered": 4693,
      "itional": 4694,
      "Ġcode": 4695,
      "ĠFre": 4696,
      "à¤µà¤¨": 4697,
      "Ġfootball": 4698,
      "Ġdraw": 4699,
      "Ġreached": 4700,
      "ih": 4701,
      "Ġ>": 4702,
      "Ġpet": 4703,
      "ĠMet": 4704,
      "Ġheld": 4705,
      "Ġcrim": 4706,
      "zen": 4707,
      "ĠMal": 4708,
      "ĠHigh": 4709,
      "Ġà¤¬à¤¡": 4710,
      "à¤ħà¤°": 4711,
      "ĠTurk": 4712,
      "bor": 4713,
      "mine": 4714,
      "artment": 4715,
      "Ġlogged": 4716,
      "Ġjudg": 4717,
      "RA": 4718,
      "Ġconform": 4719,
      "Ġking": 4720,
      "Ġà¤ħà¤²": 4721,
      "Ġthoughts": 4722,
      "Ġcoverage": 4723,
      "Ġprofessional": 4724,
      "Ġclosed": 4725,
      "Oh": 4726,
      "Ġfasc": 4727,
      "Ġnotes": 4728,
      "ĠHol": 4729,
      "ĠAlthough": 4730,
      "Ġinternational": 4731,
      "DY": 4732,
      "pen": 4733,
      "Ġreve": 4734,
      "à¤°à¤®": 4735,
      "idge": 4736,
      "Ġens": 4737,
      "Ġspread": 4738,
      "Ġregion": 4739,
      "2010": 4740,
      "ĠCanada": 4741,
      "Ġeasier": 4742,
      "iant": 4743,
      "aya": 4744,
      "Ġcareful": 4745,
      "Ġà¤īà¤¸à¤ķ": 4746,
      "sk": 4747,
      "eng": 4748,
      "stood": 4749,
      "istor": 4750,
      "ĠHE": 4751,
      "Ġability": 4752,
      "Ġmoving": 4753,
      "Ġhelping": 4754,
      "Ġexplicit": 4755,
      "Ġbands": 4756,
      "ikh": 4757,
      "Ġrange": 4758,
      "Ġwaste": 4759,
      "Ġ-)": 4760,
      "Ġcomprom": 4761,
      "Ġslight": 4762,
      "aud": 4763,
      "Ġlines": 4764,
      "Ġconvers": 4765,
      "Ġstalk": 4766,
      "à¤Ĺà¤²": 4767,
      "Ġacting": 4768,
      "Ġdeserve": 4769,
      "WikiProject": 4770,
      "down": 4771,
      "ĠSE": 4772,
      "raid": 4773,
      "Ġtitles": 4774,
      "upport": 4775,
      "Ġignorant": 4776,
      "astic": 4777,
      "Ġattribut": 4778,
      "Ġbiography": 4779,
      "Ġexperimenting": 4780,
      "hr": 4781,
      "Ġbill": 4782,
      "Ġà¤ķà¤Ń": 4783,
      "à¤¹à¤¤": 4784,
      "astered": 4785,
      "ergy": 4786,
      "Ġà¤ħà¤§": 4787,
      "Ġaward": 4788,
      "Ġadditional": 4789,
      "ossible": 4790,
      "Ġhitler": 4791,
      "21": 4792,
      "uu": 4793,
      "ĠTer": 4794,
      "Ġgain": 4795,
      "Ġcontrad": 4796,
      "Ġdetermin": 4797,
      "Ġscholars": 4798,
      "imedia": 4799,
      "lace": 4800,
      "ersonal": 4801,
      "ittee": 4802,
      "ruction": 4803,
      "Ġrequires": 4804,
      "ĠGermany": 4805,
      "Ġquickly": 4806,
      "\"::::": 4807,
      "sequ": 4808,
      "Ġ2014": 4809,
      "Ġelsewhere": 4810,
      "asion": 4811,
      "Ġà¤¸à¤¹": 4812,
      "Ġpron": 4813,
      "Ġcopyrighted": 4814,
      "IST": 4815,
      "Ġearth": 4816,
      "Ġintroduction": 4817,
      "TWAT": 4818,
      "ĠCr": 4819,
      "Ġprogress": 4820,
      "Ġsomehow": 4821,
      "Ġcitiz": 4822,
      "FFFF": 4823,
      "ĠEuropean": 4824,
      "Ġcounter": 4825,
      "ĠCong": 4826,
      "ĠRel": 4827,
      "ilosoph": 4828,
      "Don": 4829,
      "boy": 4830,
      "isation": 4831,
      "idents": 4832,
      "tice": 4833,
      "ĠKore": 4834,
      "Ġreviewed": 4835,
      "Ġpromote": 4836,
      "Ġerrors": 4837,
      "BO": 4838,
      "Ġfol": 4839,
      "Ġlock": 4840,
      "olf": 4841,
      "Ġalle": 4842,
      "à¤ľà¥ľ": 4843,
      "Ġreplaced": 4844,
      "Ġcollabor": 4845,
      "Ġcovered": 4846,
      "Ġfreedom": 4847,
      "irit": 4848,
      "ille": 4849,
      "Ġsoft": 4850,
      "ĠLike": 4851,
      "force": 4852,
      "à¤Łà¤¨": 4853,
      "Ġvio": 4854,
      "ĠWilliam": 4855,
      "time": 4856,
      "Ġtrump": 4857,
      "Ġcost": 4858,
      "Ġverify": 4859,
      "ĠRussian": 4860,
      "Ġlol": 4861,
      "agon": 4862,
      "Ġ27": 4863,
      "Ġannoy": 4864,
      "ĠDONT": 4865,
      "Ġlicens": 4866,
      "Ġalternative": 4867,
      "iber": 4868,
      "Ġsuppose": 4869,
      "Ġkeeps": 4870,
      "Ġaddressed": 4871,
      "ussy": 4872,
      "Ġupdate": 4873,
      "44": 4874,
      "Ye": 4875,
      "oca": 4876,
      "Ġnar": 4877,
      "ĠMedia": 4878,
      "ĠJack": 4879,
      "formation": 4880,
      "ibal": 4881,
      "Ġdefend": 4882,
      "Ġrestored": 4883,
      "Ġsexual": 4884,
      "HT": 4885,
      "ius": 4886,
      "Ġaud": 4887,
      "iny": 4888,
      "Ġrepl": 4889,
      "ĠVer": 4890,
      "Ġthrow": 4891,
      "AGE": 4892,
      "Ġcircum": 4893,
      "Ġsqu": 4894,
      "Ġmal": 4895,
      "ruption": 4896,
      "Ġafraid": 4897,
      "LD": 4898,
      "Ġsab": 4899,
      "Ġcy": 4900,
      "owers": 4901,
      "Ġresolution": 4902,
      "Ġexistence": 4903,
      "Ġdeliber": 4904,
      "can": 4905,
      "adian": 4906,
      "Ġsave": 4907,
      "ĠTherefore": 4908,
      "ĠHUGE": 4909,
      "Ġstar": 4910,
      "ĠNOOBS": 4911,
      "Ġdisg": 4912,
      "osh": 4913,
      "Ġletter": 4914,
      "TC": 4915,
      "width": 4916,
      "Ġà¤ł": 4917,
      "Ġasser": 4918,
      "Ġunne": 4919,
      "Ġcontains": 4920,
      "ERE": 4921,
      "uel": 4922,
      "Ġtheories": 4923,
      "ĠBi": 4924,
      "Ġcant": 4925,
      "Ġodd": 4926,
      "Ġinaccur": 4927,
      "Ġlay": 4928,
      "ctor": 4929,
      "tics": 4930,
      "ĠFile": 4931,
      "anted": 4932,
      "à¤µà¤¸": 4933,
      "Ġlisten": 4934,
      "Ġterrit": 4935,
      "Ġthroughout": 4936,
      "%\"\"": 4937,
      "Welcome": 4938,
      "fact": 4939,
      "your": 4940,
      "Ġord": 4941,
      "ĠBarnstar": 4942,
      "Ġshortly": 4943,
      "29": 4944,
      "pa": 4945,
      "reh": 4946,
      "Ġancient": 4947,
      ".....": 4948,
      "Ġmatters": 4949,
      "Ġindust": 4950,
      "uppets": 4951,
      "Ġtriv": 4952,
      "Ġtab": 4953,
      "Ġunre": 4954,
      "Ġyeah": 4955,
      "Ġrequested": 4956,
      "Ġcriterion": 4957,
      "Ġà¤¸à¤¬à¤¸": 4958,
      "opyright": 4959,
      "Ġsilly": 4960,
      "Ġbush": 4961,
      "Ġpiss": 4962,
      "ĠCor": 4963,
      "Ġsentences": 4964,
      "Ġsurprised": 4965,
      "Ġfellow": 4966,
      "une": 4967,
      "Ġshot": 4968,
      "Ġvoice": 4969,
      "ĠRight": 4970,
      "Ġanybody": 4971,
      "clud": 4972,
      "Ġconserv": 4973,
      "Ġcaused": 4974,
      "Ġdegree": 4975,
      "].": 4976,
      "ĠCons": 4977,
      "ership": 4978,
      "rible": 4979,
      "Ġworry": 4980,
      "Ġà¤Ĺà¤ı": 4981,
      "Ġproviding": 4982,
      "Ġliye": 4983,
      "Ġequal": 4984,
      "26": 4985,
      "UN": 4986,
      "aker": 4987,
      "pped": 4988,
      "Ġcriminal": 4989,
      "aur": 4990,
      "ĠParty": 4991,
      "Ġ26": 4992,
      "oses": 4993,
      "Ġbiographies": 4994,
      "Ġlots": 4995,
      "Ġthreats": 4996,
      "Ġdickhead": 4997,
      "wa": 4998,
      "Ġmix": 4999,
      "oper": 5000,
      "ĠPers": 5001,
      "Ġindef": 5002,
      "ception": 5003,
      "itter": 5004,
      "Ġdates": 5005,
      "Ġassess": 5006,
      "Ġlocated": 5007,
      "db": 5008,
      "ĠIreland": 5009,
      "\"\")": 5010,
      "Ġpeer": 5011,
      "Ġappeared": 5012,
      "ĠDear": 5013,
      "Ġattempts": 5014,
      "36": 5015,
      "viet": 5016,
      "ĠAc": 5017,
      "Ġoccup": 5018,
      "Ġparticipate": 5019,
      "hh": 5020,
      "ĠAp": 5021,
      "ĠSam": 5022,
      "rack": 5023,
      "ĠEast": 5024,
      "sec": 5025,
      "chan": 5026,
      "Ġvandalizing": 5027,
      "oyal": 5028,
      "Ġterrorist": 5029,
      "Ġmodel": 5030,
      "Ġharassment": 5031,
      "Ġcontinued": 5032,
      "Ġdisputed": 5033,
      "Ġlaugh": 5034,
      "Ġdelay": 5035,
      "à¤°à¤¨": 5036,
      "ĠRo": 5037,
      "Ġevil": 5038,
      "Ġblocks": 5039,
      "background": 5040,
      "Ġretarded": 5041,
      "PS": 5042,
      "RT": 5043,
      "ĠPaul": 5044,
      "ĠHer": 5045,
      "Ġjustify": 5046,
      "Ġfac": 5047,
      "à¤ıà¤®": 5048,
      "Ġharm": 5049,
      "Ġwidely": 5050,
      "Ġà¤®à¤¨": 5051,
      "Ġpeace": 5052,
      "lands": 5053,
      "Ġopposed": 5054,
      "à¤ĩà¤¨": 5055,
      "Ġmentions": 5056,
      "Ġinterpretation": 5057,
      "Ġcalls": 5058,
      "ĠDeletion": 5059,
      "ĠUSA": 5060,
      "ĠPhil": 5061,
      "ij": 5062,
      "const": 5063,
      "ysis": 5064,
      "Ġcrime": 5065,
      "Ġsolution": 5066,
      "ĠIrish": 5067,
      "lenty": 5068,
      "ĠBLP": 5069,
      "Ġassociated": 5070,
      "ĠKeep": 5071,
      "See": 5072,
      "Ġadop": 5073,
      "Ġintegr": 5074,
      "Ġconspir": 5075,
      "Ġhardly": 5076,
      "Ġpolitics": 5077,
      "Ġmissed": 5078,
      "Ġà¤¤à¤°à¤¹": 5079,
      "39": 5080,
      "rey": 5081,
      "Ġgonna": 5082,
      "ĠCARE": 5083,
      "Ġattitude": 5084,
      "Ġbrain": 5085,
      "Ġdevelopment": 5086,
      "Ġforeign": 5087,
      "Ġbuilding": 5088,
      "ien": 5089,
      "Ġwars": 5090,
      "Ġpussy": 5091,
      "ustice": 5092,
      "Ġek": 5093,
      "ĠWW": 5094,
      "Ġ28": 5095,
      "Ġtagging": 5096,
      "Ġcontents": 5097,
      "Ġentries": 5098,
      "ĠComp": 5099,
      "Ġregardless": 5100,
      "Ġnewspaper": 5101,
      ",,": 5102,
      "ĠCatholic": 5103,
      "Ġpointing": 5104,
      "Ġcommer": 5105,
      "Ġmetal": 5106,
      "Ġlives": 5107,
      "ĠAS": 5108,
      "ĠDay": 5109,
      "Ġworst": 5110,
      "Ġproven": 5111,
      "Ġreports": 5112,
      "Ġextra": 5113,
      "Ġ====": 5114,
      "Ġà¤ĩà¤¸à¤ķ": 5115,
      "Ġsufficient": 5116,
      "lan": 5117,
      "vo": 5118,
      "ĠSing": 5119,
      "Ġdefined": 5120,
      "Ġconcerning": 5121,
      "Ġparents": 5122,
      "ĠII": 5123,
      "ĠTAB": 5124,
      "there": 5125,
      "ĠDem": 5126,
      "asty": 5127,
      "199": 5128,
      "Ġdrug": 5129,
      "Ġunblocked": 5130,
      "Articles": 5131,
      "Ġillegal": 5132,
      "hood": 5133,
      "odi": 5134,
      "ĠUnfortunately": 5135,
      "Ġexperienced": 5136,
      "Ġnearly": 5137,
      "à¤¸à¤ķ": 5138,
      "ords": 5139,
      "ciation": 5140,
      "Ġsupporting": 5141,
      "Ġmainstream": 5142,
      "ĠBLOCK": 5143,
      "35": 5144,
      "ival": 5145,
      "Ġoffice": 5146,
      "Ġdealing": 5147,
      "Ġmedical": 5148,
      "cast": 5149,
      "Ġsix": 5150,
      "Ġpushing": 5151,
      "vere": 5152,
      "agi": 5153,
      "annel": 5154,
      "Ġpresident": 5155,
      "Ġemploy": 5156,
      "mir": 5157,
      "Ġarmy": 5158,
      "ola": 5159,
      "Ġshame": 5160,
      "Ġgene": 5161,
      "ĠArch": 5162,
      "Ġcareer": 5163,
      "Ġkiya": 5164,
      "fuckfuck": 5165,
      "!!!!!!!!!!!!!!!!!!!!!!!!!!!!!!!!!!!!!!!!!!!!!!!!!!!!!!!!!!!!!!!!": 5166,
      "Ġhonestly": 5167,
      "%;": 5168,
      "iance": 5169,
      "OLE": 5170,
      "Ġwarned": 5171,
      "For": 5172,
      "ĠSun": 5173,
      "ĠMer": 5174,
      "Ġaffect": 5175,
      "Ġpaid": 5176,
      "Ġconclusion": 5177,
      "Ġliberal": 5178,
      "List": 5179,
      "âĢĵ": 5180,
      "Ġtwice": 5181,
      "Ġprovides": 5182,
      "ued": 5183,
      "Ġrank": 5184,
      "Ġà¤²à¤¡": 5185,
      "Ġà¤ħà¤Ĺà¤°": 5186,
      "Ġhelps": 5187,
      "Ġlisting": 5188,
      "Ġroom": 5189,
      "Ġfunction": 5190,
      "Ġfigures": 5191,
      "Ġoriginally": 5192,
      "Ġlatter": 5193,
      "Ġthousands": 5194,
      "Ġblatant": 5195,
      "Ġparties": 5196,
      "Ġappeal": 5197,
      "Ġsymb": 5198,
      "Ġmistakes": 5199,
      "08": 5200,
      "revert": 5201,
      "ĠTR": 5202,
      "Ġenergy": 5203,
      "retweet": 5204,
      "Ġwishes": 5205,
      "Ġperspective": 5206,
      "Ġbenefit": 5207,
      "ONGO": 5208,
      "Ġtarget": 5209,
      "48": 5210,
      "iate": 5211,
      "ĨĴ": 5212,
      "Ġbegan": 5213,
      "ipp": 5214,
      "Ġà¤¬à¤¦": 5215,
      "Ġcontributor": 5216,
      "Ġsuggesting": 5217,
      "Ġdeny": 5218,
      "ĠGeorge": 5219,
      "Ġpotential": 5220,
      "On": 5221,
      "verage": 5222,
      "ĠPat": 5223,
      "Ġpromin": 5224,
      "levision": 5225,
      "Ġzero": 5226,
      "Ġbusy": 5227,
      "Ġfemale": 5228,
      "ORE": 5229,
      "igr": 5230,
      "ĠFOR": 5231,
      "Ġchart": 5232,
      "ivity": 5233,
      "ĠAnother": 5234,
      "Ġinstruct": 5235,
      "Ġclarify": 5236,
      "uous": 5237,
      "Ġhog": 5238,
      "ĠAL": 5239,
      "izations": 5240,
      "Ġspend": 5241,
      ".[": 5242,
      "oon": 5243,
      "pic": 5244,
      "Ġplenty": 5245,
      "ĠKo": 5246,
      "Ġfiles": 5247,
      "ĠWikipedians": 5248,
      "Ġprivate": 5249,
      "Ġdomain": 5250,
      "Ok": 5251,
      "van": 5252,
      "ĠSan": 5253,
      "Ġuniversity": 5254,
      "Ġmentioning": 5255,
      "Ġamerican": 5256,
      "YY": 5257,
      "ederal": 5258,
      "Ġlower": 5259,
      "Ġthats": 5260,
      "ritten": 5261,
      "porary": 5262,
      "Questions": 5263,
      "wood": 5264,
      "Ġtool": 5265,
      "ĠASS": 5266,
      "abe": 5267,
      "rie": 5268,
      "raq": 5269,
      "ĠWhite": 5270,
      "ĠReview": 5271,
      "Ġpathetic": 5272,
      "ĠAccording": 5273,
      "Ġunnecess": 5274,
      "verse": 5275,
      "ĠLaw": 5276,
      "Ġgoal": 5277,
      "ĠSte": 5278,
      "Ġà¤Ĩà¤¯": 5279,
      "ĠANI": 5280,
      "ĠAustralia": 5281,
      "ault": 5282,
      "mas": 5283,
      "note": 5284,
      "Ġlying": 5285,
      "ĠMag": 5286,
      "Ġ29": 5287,
      "ĠLat": 5288,
      "ĠWhich": 5289,
      "Ġconfirmed": 5290,
      "incere": 5291,
      "curity": 5292,
      "Ġannoun": 5293,
      "Ġtranslation": 5294,
      "Ġhol": 5295,
      "phas": 5296,
      "ĠRead": 5297,
      "standing": 5298,
      "Ġauthors": 5299,
      "Ġidentity": 5300,
      "Ġsignificance": 5301,
      "Ġeventually": 5302,
      "Ġeducation": 5303,
      "Ġarbitration": 5304,
      "68": 5305,
      "ĠÐ": 5306,
      "ĠMOTH": 5307,
      "ĠRich": 5308,
      "ĠKh": 5309,
      "who": 5310,
      "ĠRequest": 5311,
      "Ġquoted": 5312,
      "Ġtechnology": 5313,
      "Ġbelongs": 5314,
      "37": 5315,
      "Han": 5316,
      "krain": 5317,
      "vir": 5318,
      "âĻ": 5319,
      "ĠTimes": 5320,
      "ĠKar": 5321,
      "Ġgrand": 5322,
      "Ġhands": 5323,
      "Ġà¤²à¤Ĺà¤¤": 5324,
      "Ġversions": 5325,
      "cies": 5326,
      "uit": 5327,
      "à¤ĺ": 5328,
      "roll": 5329,
      "ĠCroat": 5330,
      "ett": 5331,
      "Ġcritical": 5332,
      "ristian": 5333,
      "Ġà¤¸à¤®à¤²": 5334,
      "Ġinfluence": 5335,
      "rass": 5336,
      "ĠCur": 5337,
      "ĠMark": 5338,
      "Ġexcuse": 5339,
      "\",": 5340,
      "42": 5341,
      "ux": 5342,
      "Ġped": 5343,
      "Ġmad": 5344,
      "stead": 5345,
      "Ġamaz": 5346,
      "Ġà¤ĺà¤°": 5347,
      "Ġrevision": 5348,
      "Ġbegin": 5349,
      "Ġindividuals": 5350,
      "PA": 5351,
      "adi": 5352,
      "Ġsemi": 5353,
      "Ġround": 5354,
      "Ġheil": 5355,
      "ordin": 5356,
      "Ġwriter": 5357,
      "Ġfighting": 5358,
      "Ġresponsible": 5359,
      "ria": 5360,
      "ĠTemplate": 5361,
      "Ġ(\"\"": 5362,
      "ĠLondon": 5363,
      "Ġevolution": 5364,
      "Ġspent": 5365,
      "Jew": 5366,
      "Ġsignature": 5367,
      "Ġignored": 5368,
      "reliable": 5369,
      "Ġà¤ľà¤¯": 5370,
      "Ġdetailed": 5371,
      "Ġloss": 5372,
      "Ed": 5373,
      "orough": 5374,
      "ĠDa": 5375,
      "Ġmarket": 5376,
      "ĠYeah": 5377,
      "mo": 5378,
      "rs": 5379,
      "Ġà¤¬à¤²": 5380,
      "Ġuserpage": 5381,
      "Ġstrange": 5382,
      "Ġopening": 5383,
      "UST": 5384,
      "Ġarchive": 5385,
      "Ġnatural": 5386,
      "55": 5387,
      "Amer": 5388,
      "Pe": 5389,
      "ii": 5390,
      "please": 5391,
      "Ġsides": 5392,
      "isk": 5393,
      "Ġmale": 5394,
      "user": 5395,
      "Ġplain": 5396,
      "anna": 5397,
      "Ġroll": 5398,
      "Ġmerged": 5399,
      "à¤¾,": 5400,
      "Ġhair": 5401,
      "istent": 5402,
      "Ġpoll": 5403,
      "Ġbrother": 5404,
      "Ġsummaries": 5405,
      "Ġminority": 5406,
      "ĠInternet": 5407,
      "Assad": 5408,
      "face": 5409,
      "pace": 5410,
      "va": 5411,
      "Ġwalk": 5412,
      "irgin": 5413,
      "Ġrate": 5414,
      "Ġjump": 5415,
      "Ġcontrary": 5416,
      "ĠActually": 5417,
      "Ġstructure": 5418,
      "Ġinvolvement": 5419,
      "rd": 5420,
      "ĠÎ": 5421,
      "Ġreasoning": 5422,
      "Ġciting": 5423,
      "Ġplayer": 5424,
      "Ġobjective": 5425,
      "ĠPark": 5426,
      "Ġready": 5427,
      "Ġattacking": 5428,
      "Ġminim": 5429,
      "Ġlatest": 5430,
      "stein": 5431,
      "irty": 5432,
      "ĠNazi": 5433,
      "ĠRober": 5434,
      "ritish": 5435,
      "Ġreviews": 5436,
      "ĠKingdom": 5437,
      ";\"\"": 5438,
      "inter": 5439,
      "Ġkuch": 5440,
      "Ġsuff": 5441,
      "Ġà¤ľà¤µ": 5442,
      "Ġinstit": 5443,
      "Ġcorrectly": 5444,
      "Ġplayers": 5445,
      "Ġnecessarily": 5446,
      "Ġapplied": 5447,
      "ĠPresident": 5448,
      "Ġcommercial": 5449,
      "fess": 5450,
      "Â´": 5451,
      "Ġpropose": 5452,
      "Ġstands": 5453,
      "Ġcomplaint": 5454,
      "Ġhomosexual": 5455,
      "Ġdetermine": 5456,
      "Ġfundament": 5457,
      "47": 5458,
      "oly": 5459,
      "Ġtacos": 5460,
      "Ġdisambiguation": 5461,
      "Ġfeeling": 5462,
      "Ġrestore": 5463,
      "ĠSUCKS": 5464,
      "ĠPolic": 5465,
      "ĠDOG": 5466,
      "Ġmagazine": 5467,
      "Ġhota": 5468,
      "Ġremarks": 5469,
      "Ġnetwork": 5470,
      "Ġalleged": 5471,
      "46": 5472,
      "Ġ$": 5473,
      "ĠTacos": 5474,
      "ager": 5475,
      "ĠHindu": 5476,
      "ĠArb": 5477,
      "Ġstudies": 5478,
      "Ġsmells": 5479,
      "Just": 5480,
      "itler": 5481,
      "Ġbuy": 5482,
      "Ġnaming": 5483,
      "ĠDep": 5484,
      "while": 5485,
      "ĠSoviet": 5486,
      "Ġconfusing": 5487,
      "Ġcollect": 5488,
      "ĠSHUT": 5489,
      "ĠOnly": 5490,
      "ĠOnce": 5491,
      "ĠFrank": 5492,
      "Ġgirls": 5493,
      "Ġaltered": 5494,
      "911": 5495,
      "Ġmid": 5496,
      "Ġà¤¸à¤°": 5497,
      "Ġreads": 5498,
      "Ġcredit": 5499,
      "Ġ2003": 5500,
      "Ġinvent": 5501,
      "3333": 5502,
      "Ġconsistent": 5503,
      "38": 5504,
      "hon": 5505,
      "Ġsle": 5506,
      "Ġwikiped": 5507,
      "Ġà¤ĵ": 5508,
      "Ġplot": 5509,
      "Ġdemand": 5510,
      "Ġfilms": 5511,
      "Also": 5512,
      "Ġcontradict": 5513,
      "Ġconspiracy": 5514,
      "ĠFound": 5515,
      "Ġremains": 5516,
      "Ġphilosoph": 5517,
      "Ġconfusion": 5518,
      "Ġmisunder": 5519,
      "Ġschools": 5520,
      "ba": 5521,
      "cious": 5522,
      "version": 5523,
      "ĠWestern": 5524,
      "ingly": 5525,
      "ams": 5526,
      "Ġspecified": 5527,
      "Ġcarefully": 5528,
      "Ġrepeat": 5529,
      "Cau": 5530,
      "Some": 5531,
      "eg": 5532,
      "Ġult": 5533,
      "Ġsake": 5534,
      "erk": 5535,
      "itor": 5536,
      "ĠBIT": 5537,
      "ĠFair": 5538,
      "ĠDY": 5539,
      "arely": 5540,
      "Ġaccom": 5541,
      "why": 5542,
      "Ġrahe": 5543,
      "IGHT": 5544,
      "ĠDID": 5545,
      "Ġviolate": 5546,
      "Ġanalysis": 5547,
      "Ġsoftware": 5548,
      "bl": 5549,
      "iya": 5550,
      "Ġaim": 5551,
      "Ġraha": 5552,
      "Ġhasn": 5553,
      "ires": 5554,
      "Ġprotest": 5555,
      "Ġstudent": 5556,
      "ictionary": 5557,
      "ĠAfrican": 5558,
      "Ġconversation": 5559,
      "CauSe": 5560,
      "Ġloud": 5561,
      "Ġkid": 5562,
      "Ġshoot": 5563,
      "à¤¯à¤¤": 5564,
      "ĠJud": 5565,
      "Ġprecise": 5566,
      "irection": 5567,
      "Ġcontinues": 5568,
      "Ġlocation": 5569,
      "Ġsplit": 5570,
      "GGT": 5571,
      "bre": 5572,
      "ĠaRe": 5573,
      "ĠFGGT": 5574,
      "ĠDR": 5575,
      "they": 5576,
      "Ġhopefully": 5577,
      "Ġmouth": 5578,
      "Ġdang": 5579,
      "ĠAlex": 5580,
      "Ġ2015": 5581,
      "OMM": 5582,
      "56": 5583,
      "Can": 5584,
      "fl": 5585,
      "ulgar": 5586,
      "ĠLa": 5587,
      "lah": 5588,
      "bert": 5589,
      "othing": 5590,
      "going": 5591,
      "Ġmotiv": 5592,
      "Ġcompromise": 5593,
      "32": 5594,
      "ran": 5595,
      "alt": 5596,
      "Ġrein": 5597,
      "ĠBo": 5598,
      "riend": 5599,
      "leted": 5600,
      "ĠUs": 5601,
      "ocol": 5602,
      "Ġverified": 5603,
      "ALIS": 5604,
      "HOLE": 5605,
      "War": 5606,
      "Ġmein": 5607,
      "ula": 5608,
      "Ġuseless": 5609,
      "Ġimpossible": 5610,
      "ĠANY": 5611,
      "ISH": 5612,
      "Ġcollege": 5613,
      "Ġsurv": 5614,
      "Ġniggas": 5615,
      "Ġturned": 5616,
      "Ġachieve": 5617,
      "cellent": 5618,
      "Hanibal": 5619,
      "iginal": 5620,
      "ĠHouse": 5621,
      "...\"\"": 5622,
      "Ġcomplex": 5623,
      "ressed": 5624,
      "Ġimagine": 5625,
      "ĠFurthermore": 5626,
      "Ġgrammar": 5627,
      "iers": 5628,
      "yp": 5629,
      "Ġtoler": 5630,
      "ĠTom": 5631,
      "à¤°à¤µ": 5632,
      "ĠWales": 5633,
      "ĠPalest": 5634,
      "ĠBOOBS": 5635,
      "ĠNE": 5636,
      "Ġremind": 5637,
      "Ġcurious": 5638,
      "ITY": 5639,
      "ĠFUCKER": 5640,
      "Ġopportun": 5641,
      "58": 5642,
      "OC": 5643,
      "Ġta": 5644,
      "Ġmach": 5645,
      "racy": 5646,
      "ĠEmp": 5647,
      "ĠâĢĺ": 5648,
      "Ġà¤ħà¤®": 5649,
      "ĠArmen": 5650,
      "lence": 5651,
      "Ġkarte": 5652,
      "ĠDYK": 5653,
      "HH": 5654,
      "bel": 5655,
      "leng": 5656,
      "oms": 5657,
      "ĠMed": 5658,
      "raw": 5659,
      "ĠInc": 5660,
      "Ġ70": 5661,
      "ĠAmericans": 5662,
      "Ġdisputes": 5663,
      "Sex": 5664,
      "Ġwife": 5665,
      "Ġbat": 5666,
      "Ġnative": 5667,
      "Ġgang": 5668,
      "adu": 5669,
      "ĠBill": 5670,
      "Ġmyth": 5671,
      "ĠAlban": 5672,
      "ITH": 5673,
      "88": 5674,
      "Preceding": 5675,
      "hai": 5676,
      "Ġfake": 5677,
      "arm": 5678,
      "thew": 5679,
      "ĠBen": 5680,
      "Ġagreement": 5681,
      "Ġslow": 5682,
      "Ġneutrality": 5683,
      "ĠOFFFUCK": 5684,
      "Ġhundreds": 5685,
      "34": 5686,
      "Man": 5687,
      "oted": 5688,
      "imin": 5689,
      "Ġsole": 5690,
      "esterday": 5691,
      "Ġhypoc": 5692,
      "Ġbecoming": 5693,
      "Ab": 5694,
      "orter": 5695,
      "Ġhence": 5696,
      "Ġsup": 5697,
      "Ġunable": 5698,
      "Ġcopied": 5699,
      "Ġattacked": 5700,
      "Ġblue": 5701,
      "amming": 5702,
      "Ġtechnical": 5703,
      "ocratic": 5704,
      "ĠBITCH": 5705,
      "mar": 5706,
      "Ġcow": 5707,
      "Ġpull": 5708,
      "Ġelection": 5709,
      "à¤¼à¤¿": 5710,
      "Ġspirit": 5711,
      "Ġimproved": 5712,
      "ĠRegarding": 5713,
      "Ġinnoc": 5714,
      "Ġancestry": 5715,
      "54": 5716,
      "Ġkids": 5717,
      "Ġproced": 5718,
      "Ġchap": 5719,
      "Ġtalkpage": 5720,
      "Ġplus": 5721,
      "Ġarguing": 5722,
      "ĠSomeone": 5723,
      "Ġdraft": 5724,
      "ĠHAVE": 5725,
      "Ġfeedback": 5726,
      "90": 5727,
      "arb": 5728,
      "agina": 5729,
      "seud": 5730,
      "ĠMor": 5731,
      "Ġfault": 5732,
      "ĠGovern": 5733,
      "Ġrevers": 5734,
      "Ġamb": 5735,
      "aste": 5736,
      "Ġprep": 5737,
      "ption": 5738,
      "Ġplann": 5739,
      "Ġ86": 5740,
      "Ġattempting": 5741,
      "Ġassuming": 5742,
      "nce": 5743,
      "Ġwo": 5744,
      "Ġfood": 5745,
      "ĠThose": 5746,
      "ĠFR": 5747,
      "ulated": 5748,
      "soever": 5749,
      "Ġviewpoint": 5750,
      "........": 5751,
      "Ġphotograph": 5752,
      "ĠAtt": 5753,
      "ĠMichael": 5754,
      "Ġnikko": 5755,
      "ĠAT": 5756,
      "Ġbio": 5757,
      "fa": 5758,
      "ĠIF": 5759,
      "Ġegg": 5760,
      "ĠPS": 5761,
      "ĠMONGO": 5762,
      "OOOO": 5763,
      "ĠSpanish": 5764,
      "Ġidentify": 5765,
      "To": 5766,
      "Ġtim": 5767,
      "Ġburn": 5768,
      "ĠCle": 5769,
      "ette": 5770,
      "Ġà¤¬à¤°": 5771,
      "Ġà¤ľà¤²": 5772,
      "accept": 5773,
      "Ġspecify": 5774,
      "Ġcredible": 5775,
      "ĠCourt": 5776,
      "43": 5777,
      "hand": 5778,
      "iy": 5779,
      "iqu": 5780,
      "ĠCO": 5781,
      "ĠPen": 5782,
      "Ġque": 5783,
      "Ġcompreh": 5784,
      "Ġaccuse": 5785,
      "Ġdecla": 5786,
      "ographical": 5787,
      "ARD": 5788,
      "idden": 5789,
      "Ġliterature": 5790,
      "Ġbeliefs": 5791,
      "LA": 5792,
      "Ġforth": 5793,
      "ĠAir": 5794,
      "Ġchick": 5795,
      "ortion": 5796,
      "Ġregular": 5797,
      "Ġviolations": 5798,
      "Ġengage": 5799,
      "fficial": 5800,
      "Ġreveal": 5801,
      "75": 5802,
      "outhern": 5803,
      "alm": 5804,
      "Ġproceed": 5805,
      "hington": 5806,
      "Ġwaiting": 5807,
      "Ġuncivil": 5808,
      "Ġtreated": 5809,
      "NA": 5810,
      "pan": 5811,
      "ule": 5812,
      "uke": 5813,
      "Ġtur": 5814,
      "ĠMart": 5815,
      "à¤ķà¤µ": 5816,
      "Ġlikes": 5817,
      "Ġcele": 5818,
      "ĠFinally": 5819,
      "But": 5820,
      "link": 5821,
      "ads": 5822,
      "olit": 5823,
      "Ġrout": 5824,
      "ĠRock": 5825,
      "ĠANAL": 5826,
      "Ġadvance": 5827,
      "Ġcarry": 5828,
      "Ġartist": 5829,
      "ĠLAW": 5830,
      "Ġexplicitly": 5831,
      "Fair": 5832,
      "Ġlived": 5833,
      "ĠJo": 5834,
      "à¤ľà¤ª": 5835,
      "berg": 5836,
      "ĠObama": 5837,
      "Cl": 5838,
      "tions": 5839,
      "win": 5840,
      "erm": 5841,
      "orse": 5842,
      "Ġdark": 5843,
      "Ġele": 5844,
      "imately": 5845,
      "ĠPAGE": 5846,
      "Ġwhatsoever": 5847,
      "race": 5848,
      "ĠED": 5849,
      "Ġsourcing": 5850,
      "Ġaccident": 5851,
      "Ġeditorial": 5852,
      "Ġcorrected": 5853,
      "orning": 5854,
      "esh": 5855,
      "ĠTALK": 5856,
      "Ġstation": 5857,
      "Ġkick": 5858,
      "ĠBook": 5859,
      "Ġimpression": 5860,
      "ĠSpeedy": 5861,
      "66": 5862,
      "new": 5863,
      "ua": 5864,
      "Ġast": 5865,
      "Ġaverage": 5866,
      "Ġcust": 5867,
      "pled": 5868,
      "Ġcompared": 5869,
      "ĠTrans": 5870,
      "Ġopposite": 5871,
      "Ġ;)": 5872,
      "ago": 5873,
      "ĠCap": 5874,
      "ĠBig": 5875,
      "ĠBush": 5876,
      "letter": 5877,
      "los": 5878,
      "Ġcities": 5879,
      "ITE": 5880,
      "Ġrestrict": 5881,
      "31": 5882,
      "MA": 5883,
      "ĠÃ": 5884,
      "onic": 5885,
      "ulate": 5886,
      "ĠEv": 5887,
      "Ġprojects": 5888,
      "Ġactivity": 5889,
      "85": 5890,
      "pre": 5891,
      "Ġsuitable": 5892,
      "cussion": 5893,
      "ounds": 5894,
      "Ġsurely": 5895,
      "Ġemot": 5896,
      "Ġunfortunately": 5897,
      "Ġradio": 5898,
      "Ġapplies": 5899,
      "Ġinaccurate": 5900,
      "viron": 5901,
      "69": 5902,
      "à¤¸à¤¨": 5903,
      "à¤¸à¤Ń": 5904,
      "Ġsigned": 5905,
      "hoon": 5906,
      "Ġhistorians": 5907,
      "Ġholder": 5908,
      "Ġepisodes": 5909,
      "Ġprincip": 5910,
      "49": 5911,
      "MIN": 5912,
      "OD": 5913,
      "itled": 5914,
      "Ġtoh": 5915,
      "ĠAh": 5916,
      "à¤ķà¤¡": 5917,
      "uplic": 5918,
      "à¥Ī,": 5919,
      "Ġà¤ªà¤¡": 5920,
      "alling": 5921,
      "ribe": 5922,
      "OUS": 5923,
      "Ġaccusation": 5924,
      "Ġencourage": 5925,
      "hot": 5926,
      "Ġug": 5927,
      "Ġbur": 5928,
      "Ġpic": 5929,
      "Ġonto": 5930,
      "ĠSat": 5931,
      "Ġunderstood": 5932,
      "Ġ31": 5933,
      "viously": 5934,
      "Ġformal": 5935,
      "Ġ40": 5936,
      "Ġdamage": 5937,
      "ĠCollege": 5938,
      "Ġexpanded": 5939,
      "Ġapplicable": 5940,
      "represent": 5941,
      "Ġensure": 5942,
      "Ġunnecessary": 5943,
      "Edit": 5944,
      "look": 5945,
      "Ġought": 5946,
      "Ġswe": 5947,
      "ancial": 5948,
      "icro": 5949,
      "Ġky": 5950,
      "ĠBY": 5951,
      "ellect": 5952,
      "ĠFree": 5953,
      "ĠEAT": 5954,
      "Ġà¤ľà¤°": 5955,
      "Ġsafe": 5956,
      "Ġscript": 5957,
      "Ġcentral": 5958,
      "Ġcensorship": 5959,
      "arc": 5960,
      "Ġbeaut": 5961,
      "ĠPost": 5962,
      "Ġcontributed": 5963,
      "INK": 5964,
      "Ġreporting": 5965,
      "Ġviolating": 5966,
      "Ġâĺ": 5967,
      "ĠNorthern": 5968,
      "Ġincomp": 5969,
      "Ġglobal": 5970,
      "Ġscreen": 5971,
      "Ġrequests": 5972,
      "à¤·à¤£": 5973,
      "Ġnoticeboard": 5974,
      "Ġadvoc": 5975,
      "ĠsexSex": 5976,
      "181": 5977,
      "ĠCommons": 5978,
      "Ġresponded": 5979,
      "AAAA": 5980,
      "Ġsongs": 5981,
      "________________": 5982,
      ")?": 5983,
      "ena": 5984,
      "ĠSO": 5985,
      "ĠSure": 5986,
      "ĠPakistan": 5987,
      "à¤¦à¤¨": 5988,
      "ĠInstead": 5989,
      "Ġfear": 5990,
      "Ġterrorists": 5991,
      "Ġvotes": 5992,
      "article": 5993,
      "ĠWE": 5994,
      "ĠSoc": 5995,
      "à¤¨à¤ķ": 5996,
      "akh": 5997,
      "ĠEr": 5998,
      "Ġenem": 5999,
      "Ġindia": 6000,
      "Ġeverybody": 6001,
      "ĠDec": 6002,
      "Ġgreater": 6003,
      "Ġinside": 6004,
      "Ġrecords": 6005,
      "ĠWHY": 6006,
      "constructive": 6007,
      "59": 6008,
      "Ġwall": 6009,
      "Ġhurt": 6010,
      "rior": 6011,
      "ĠOff": 6012,
      "ubb": 6013,
      "Ġtelevision": 6014,
      "Ġperman": 6015,
      "Ġcharge": 6016,
      "Ġlarger": 6017,
      "Ġimprovement": 6018,
      "Ġcultural": 6019,
      "riminal": 6020,
      "ĠRfC": 6021,
      "OLOLOLOL": 6022,
      "Ġsouth": 6023,
      "Ġlose": 6024,
      "ilities": 6025,
      "Ġemphas": 6026,
      "Ġstrict": 6027,
      "Ġlearned": 6028,
      "stitution": 6029,
      "Ġbeat": 6030,
      "iforn": 6031,
      "à¤®à¤¤": 6032,
      "Ġlogical": 6033,
      "41": 6034,
      "Con": 6035,
      "Ġton": 6036,
      "Ġmut": 6037,
      "Ġtoward": 6038,
      "utions": 6039,
      "Ġhack": 6040,
      "à¤²à¤ķ": 6041,
      "Ġchat": 6042,
      "Ġà¤¤à¤¬": 6043,
      "Ġblind": 6044,
      "Ġassertion": 6045,
      "ses": 6046,
      "Ġdro": 6047,
      "ico": 6048,
      "Ġarrog": 6049,
      "Ġconvert": 6050,
      "ores": 6051,
      "iful": 6052,
      "arsh": 6053,
      "Ġfriendly": 6054,
      "Ġtrolling": 6055,
      "Ġdrive": 6056,
      "Ġindefin": 6057,
      "names": 6058,
      "Ġlag": 6059,
      "ĠBra": 6060,
      "Ġintro": 6061,
      "Ġspell": 6062,
      "Ġshowed": 6063,
      "Ġ90": 6064,
      "Ġlearning": 6065,
      "Ġunclear": 6066,
      "Ġdeserves": 6067,
      "ĠInternational": 6068,
      "Jewish": 6069,
      "?\"": 6070,
      "Ġislam": 6071,
      "Ġusual": 6072,
      "Ġà¤¦à¤°": 6073,
      "Ġtermin": 6074,
      "ĠArmy": 6075,
      "Ġpublication": 6076,
      "iverse": 6077,
      "Ġdare": 6078,
      "uts": 6079,
      "ĠPH": 6080,
      "Ġvirt": 6081,
      "ĠRaj": 6082,
      "Ġà¤®à¤¤": 6083,
      "ĠKILL": 6084,
      "Ġsuggests": 6085,
      "azis": 6086,
      "ĠCanadian": 6087,
      "Ġsystems": 6088,
      "ĠCheck": 6089,
      "afrat": 6090,
      "Ġpurposes": 6091,
      "ĠAbout": 6092,
      "ocaust": 6093,
      "field": 6094,
      "hy": 6095,
      "usions": 6096,
      "iling": 6097,
      "Ġunivers": 6098,
      "Ġpeoples": 6099,
      "ĠRec": 6100,
      "Ġchalleng": 6101,
      "Ġacknowled": 6102,
      "vin": 6103,
      "Ġyesterday": 6104,
      "ĠSign": 6105,
      "Ġresources": 6106,
      "Ġà¤Ĺà¤°": 6107,
      "Ġclue": 6108,
      "Ġconstruct": 6109,
      "Ġobjection": 6110,
      "Ġpassed": 6111,
      "Ġbroken": 6112,
      "Ġindustry": 6113,
      "post": 6114,
      "Ġbomb": 6115,
      "Ġpowers": 6116,
      "Ġproud": 6117,
      "ĠStar": 6118,
      "Ġstopped": 6119,
      "inner": 6120,
      "Ġredirects": 6121,
      "contribs": 6122,
      "ĠWikimedia": 6123,
      "Ġrewrite": 6124,
      "09": 6125,
      "Page": 6126,
      "RC": 6127,
      "SD": 6128,
      "Ġdude": 6129,
      "cture": 6130,
      "Ġà¤ľà¤¨": 6131,
      "Ġyourselfgo": 6132,
      "Ġmediation": 6133,
      "ĠPolish": 6134,
      "Ġexpected": 6135,
      "ĠRussia": 6136,
      "ĠOtherwise": 6137,
      "Ġsecret": 6138,
      "rad": 6139,
      "Ġdia": 6140,
      "Ġip": 6141,
      "Ġforces": 6142,
      "rol": 6143,
      "Ġstre": 6144,
      "ements": 6145,
      "à¤¸à¤®": 6146,
      "Ġnovel": 6147,
      "à¤µà¤²": 6148,
      "Ġobtain": 6149,
      "theless": 6150,
      "Ġconstantly": 6151,
      "Ġlargest": 6152,
      "ronic": 6153,
      "Ġconvin": 6154,
      "ĠIsraeli": 6155,
      "orpor": 6156,
      "Ġcru": 6157,
      "omas": 6158,
      "ĠBTW": 6159,
      "emat": 6160,
      "à¤ıà¤¸": 6161,
      "Ġserve": 6162,
      "Ġà¤ĩà¤¨à¤ķ": 6163,
      "Ġresolved": 6164,
      "Ġcitizens": 6165,
      "01": 6166,
      "NPOV": 6167,
      "Ġhide": 6168,
      "Ġsum": 6169,
      "ĠBas": 6170,
      "ĠEarth": 6171,
      "osp": 6172,
      "Ġmainly": 6173,
      "Ġ01": 6174,
      "à¤¦à¤°à¤ļ": 6175,
      "orthy": 6176,
      "Main": 6177,
      "Or": 6178,
      "UD": 6179,
      "Ġdict": 6180,
      "Ġlif": 6181,
      "rovers": 6182,
      "ĠThus": 6183,
      "ĠCoun": 6184,
      "Ġjoy": 6185,
      "anti": 6186,
      "ĠLOS": 6187,
      "Ġà¤ħà¤ļ": 6188,
      "ĠFrance": 6189,
      "Ġunfair": 6190,
      "Ġjudge": 6191,
      "vironment": 6192,
      "Dis": 6193,
      "Ġfast": 6194,
      "uns": 6195,
      "ĠMel": 6196,
      "Ġfrank": 6197,
      "!!'": 6198,
      "à¤¸à¤¦": 6199,
      "ĠLib": 6200,
      "Ġà¤Ĩà¤¦": 6201,
      "ATION": 6202,
      "equ": 6203,
      "uine": 6204,
      "Ġtact": 6205,
      "Ġthorough": 6206,
      "ĠIraq": 6207,
      "Ġitem": 6208,
      "izes": 6209,
      "Ġmistaken": 6210,
      "ĠConf": 6211,
      "Ġbecomes": 6212,
      "Ġangry": 6213,
      "ĠLAWDY": 6214,
      "UE": 6215,
      "jud": 6216,
      "mark": 6217,
      "Ġsun": 6218,
      "erd": 6219,
      "Ġham": 6220,
      "ĠHitler": 6221,
      "Ġweak": 6222,
      "hey": 6223,
      "Ġdifferences": 6224,
      "ĠSTOP": 6225,
      "Ġutter": 6226,
      "ĠRobert": 6227,
      "uge": 6228,
      "inary": 6229,
      "ĠID": 6230,
      "ĠUp": 6231,
      "Ġà¤ľà¤®": 6232,
      "others": 6233,
      "Ġdocuments": 6234,
      "Ġrecognized": 6235,
      "FDL": 6236,
      "57": 6237,
      "fr": 6238,
      "alin": 6239,
      "ĠTry": 6240,
      "Ġà¤ķà¤²": 6241,
      "unte": 6242,
      "Ġrecall": 6243,
      "Ġvandalized": 6244,
      "aves": 6245,
      "Ġended": 6246,
      "Ġcommonly": 6247,
      "Ġcrazy": 6248,
      "morrow": 6249,
      "ĠCOCKSUCKER": 6250,
      "kin": 6251,
      "king": 6252,
      "Ġknowing": 6253,
      "ifications": 6254,
      "coming": 6255,
      "Ġobjections": 6256,
      "ĠâĻ": 6257,
      "All": 6258,
      "even": 6259,
      "hic": 6260,
      "lig": 6261,
      "Ġduplic": 6262,
      "Ġforced": 6263,
      "reek": 6264,
      "Ġrealized": 6265,
      "Ġsupports": 6266,
      "Ġ99": 6267,
      "ophob": 6268,
      "Ġillustr": 6269,
      "Ġaspects": 6270,
      "53": 6271,
      "ghan": 6272,
      "oor": 6273,
      "itz": 6274,
      "Ġcas": 6275,
      "ady": 6276,
      "ĠCriminal": 6277,
      "ĠBoth": 6278,
      "ĠDE": 6279,
      "à¤¯à¤®": 6280,
      "Ġgenre": 6281,
      "à¤ĩà¤¸": 6282,
      "Ġbuilt": 6283,
      "Ġconvention": 6284,
      "Ġactivities": 6285,
      "Ġinitial": 6286,
      "Ġsatisfy": 6287,
      "uyuyuyuyuyuyuyuyuyuyuyuyuyuyuyuy": 6288,
      "nnnnnnnnnnnnnnnnnnnnnnnnnnnnnnnn": 6289,
      "Ġdeliberately": 6290,
      "cluding": 6291,
      "07": 6292,
      "64": 6293,
      "JER": 6294,
      "vis": 6295,
      "ville": 6296,
      "Ġcatch": 6297,
      "Ġtomorrow": 6298,
      "Ġoil": 6299,
      "ĠPre": 6300,
      "Ġmeasure": 6301,
      "Ġcreator": 6302,
      "Ġimpact": 6303,
      "Ġ71": 6304,
      "ĠAnyone": 6305,
      "Ġaccusing": 6306,
      "Ġcandidates": 6307,
      "yyyyyyyyyyyyyyyyyyyyyyyyyyyyyyyy": 6308,
      "ifornia": 6309,
      "Fe": 6310,
      "sub": 6311,
      "Ġ00": 6312,
      "Ġà¤ĳ": 6313,
      "olved": 6314,
      "ĠBro": 6315,
      "eline": 6316,
      "eme": 6317,
      "ĠKN": 6318,
      "Ġweren": 6319,
      "ocide": 6320,
      "Ġspecies": 6321,
      "Ġletting": 6322,
      "xymor": 6323,
      "ĠMOTHJER": 6324,
      "acceptable": 6325,
      "band": 6326,
      "vention": 6327,
      "Ġbudd": 6328,
      "icism": 6329,
      "ĠDel": 6330,
      "Ġimplement": 6331,
      "Ġnewcom": 6332,
      "Ġdesigned": 6333,
      "Ġowner": 6334,
      "Ġsummar": 6335,
      "gypt": 6336,
      "Ġignorance": 6337,
      "ĠTurkish": 6338,
      "ĠFI": 6339,
      "ĠRS": 6340,
      "ĠQue": 6341,
      "ammad": 6342,
      "Ġaccuracy": 6343,
      "Ġphysical": 6344,
      "Ġassistance": 6345,
      "ollow": 6346,
      "asy": 6347,
      "Ġaside": 6348,
      "Ġbutton": 6349,
      "iley": 6350,
      "Ġà¤¬à¤¹à¤¨": 6351,
      "ĠSmith": 6352,
      "ĠADMIN": 6353,
      "xymoron": 6354,
      "from": 6355,
      "pet": 6356,
      "Ġtu": 6357,
      "Ġpadding": 6358,
      "utch": 6359,
      "iday": 6360,
      "amil": 6361,
      "ĠMain": 6362,
      "Ġà¤¹à¤¤": 6363,
      "ounded": 6364,
      "OULD": 6365,
      "serv": 6366,
      "Ġdesk": 6367,
      "Ġfollows": 6368,
      "Ġparagraphs": 6369,
      "Ġskills": 6370,
      "Ġfavour": 6371,
      "Ġbalance": 6372,
      "ĠEmpire": 6373,
      "Pro": 6374,
      "Ġsile": 6375,
      "Ġmil": 6376,
      "Ġ'''": 6377,
      "Ġà¤¶à¤°": 6378,
      "Ġexplains": 6379,
      "Ġ60": 6380,
      "Ġ80": 6381,
      "Ġtreatment": 6382,
      "Ġallegations": 6383,
      "Ġpronoun": 6384,
      "Ġugly": 6385,
      "UL": 6386,
      "Ġbach": 6387,
      "Ġdirection": 6388,
      "state": 6389,
      "ĠCopyright": 6390,
      "istry": 6391,
      "abb": 6392,
      "apt": 6393,
      "osen": 6394,
      "Ġapart": 6395,
      "Ġresponding": 6396,
      "Ġdocumented": 6397,
      "Ġinstructions": 6398,
      "Good": 6399,
      "Ġpseud": 6400,
      "Ġdomin": 6401,
      "aly": 6402,
      "Ġgerman": 6403,
      "section": 6404,
      "elf": 6405,
      "Ġprose": 6406,
      "Ġweird": 6407,
      "à¤Ĺà¤¤": 6408,
      "ONE": 6409,
      "Ġworthy": 6410,
      "Ġcoupled": 6411,
      "Ġclosely": 6412,
      "ahahahahahahahah": 6413,
      "Ġoption": 6414,
      "Ġdisgust": 6415,
      "astern": 6416,
      "ĠTim": 6417,
      "ĠNY": 6418,
      "osn": 6419,
      "Ġsubmission": 6420,
      "Ġexisted": 6421,
      "Ġliterally": 6422,
      "Ġsubstantial": 6423,
      "Ġslightly": 6424,
      "IAN": 6425,
      "Ġunique": 6426,
      "riv": 6427,
      "Ġupset": 6428,
      "ĠVandalism": 6429,
      "Ġgenuine": 6430,
      "Ġfreely": 6431,
      "Ġ55": 6432,
      "istrators": 6433,
      "iety": 6434,
      "ventions": 6435,
      "Ġfinished": 6436,
      "Ġlargely": 6437,
      "aniel": 6438,
      "date": 6439,
      "uable": 6440,
      "Ġtour": 6441,
      "Ġmr": 6442,
      "ĠBet": 6443,
      "ughing": 6444,
      "atured": 6445,
      "Ġtells": 6446,
      "Ġolder": 6447,
      "Ġforever": 6448,
      "Ġbaat": 6449,
      "ĠWashington": 6450,
      "70": 6451,
      "AC": 6452,
      "alle": 6453,
      "ĠLast": 6454,
      "ocracy": 6455,
      "ĠUnless": 6456,
      "Ġleading": 6457,
      "Ġjews": 6458,
      "Ġcomparison": 6459,
      "OH": 6460,
      "sa": 6461,
      "wide": 6462,
      "itness": 6463,
      "ĠWITH": 6464,
      "sey": 6465,
      "ĠPeter": 6466,
      "ĠBible": 6467,
      "ĠMil": 6468,
      "aked": 6469,
      "oooo": 6470,
      "Ġvague": 6471,
      "ĠRam": 6472,
      "âĢ¢": 6473,
      "Ġintellect": 6474,
      "Ġà¤ľà¤¨à¤¤": 6475,
      "Ġmanage": 6476,
      "Ġattract": 6477,
      "Ġinterests": 6478,
      "Ġhoax": 6479,
      "Ġcolum": 6480,
      "Ġpolitic": 6481,
      "OME": 6482,
      "Ġinsulting": 6483,
      "ĠMuslims": 6484,
      "CRAPCRAPCRAPCRAPCRAPCRAPCRAPCRAP": 6485,
      "Ġtired": 6486,
      "Ġmurd": 6487,
      "Ġtools": 6488,
      "Ġgh": 6489,
      "aint": 6490,
      "ĠFan": 6491,
      "Ġà¤¬à¤¢": 6492,
      "Ġenforce": 6493,
      "Ġlinking": 6494,
      "Ġprotocol": 6495,
      "oken": 6496,
      "net": 6497,
      "vices": 6498,
      "ĠAFD": 6499,
      "ĠBulgar": 6500,
      "ĠGreen": 6501,
      "ĠJer": 6502,
      "iano": 6503,
      "âĢİ": 6504,
      "ĠArt": 6505,
      "ashion": 6506,
      "Ġadvise": 6507,
      "Arch": 6508,
      "Ġswitch": 6509,
      "Ġinvestigation": 6510,
      "Ġq": 6511,
      "Ġbarnstar": 6512,
      "inger": 6513,
      "Ġgreen": 6514,
      "ĠAB": 6515,
      "ĠSk": 6516,
      "ipe": 6517,
      "iled": 6518,
      "Ġchose": 6519,
      "ĠEs": 6520,
      "ĠUkrain": 6521,
      "acity": 6522,
      "Ġoppose": 6523,
      "Ġpromotional": 6524,
      "Ġgrounds": 6525,
      "Ġwestern": 6526,
      "86": 6527,
      "cal": 6528,
      "lation": 6529,
      "à¤ŀ": 6530,
      "à¤¨à¤®": 6531,
      "Ġship": 6532,
      "Ġprohib": 6533,
      "Ġadm": 6534,
      "!!!!!!!": 6535,
      "Ġrelation": 6536,
      "Ġà¤Ńà¤¡": 6537,
      "Ġobs": 6538,
      "ampions": 6539,
      "Ġofficially": 6540,
      "Ġdiscour": 6541,
      "Ġorganizations": 6542,
      "Ġappearance": 6543,
      "ĠScott": 6544,
      "Ġmatches": 6545,
      "Ġresolve": 6546,
      "Ġobserv": 6547,
      "ĠItalian": 6548,
      "IE": 6549,
      "wan": 6550,
      "ĠSal": 6551,
      "Ġà¤ķà¤¶": 6552,
      "anging": 6553,
      "icket": 6554,
      "ributions": 6555,
      "Ġdesh": 6556,
      "Ġhappening": 6557,
      "Ġpurs": 6558,
      "ĠJimbo": 6559,
      "52": 6560,
      "One": 6561,
      "Ġhur": 6562,
      "Ġhits": 6563,
      "ĠTod": 6564,
      "Ġarab": 6565,
      "ĠSar": 6566,
      "change": 6567,
      "ĠPoint": 6568,
      "andy": 6569,
      "Ġrat": 6570,
      "pping": 6571,
      "izard": 6572,
      "Ġadminist": 6573,
      "obby": 6574,
      "Ġà¤īà¤ł": 6575,
      "Ġaddresses": 6576,
      "Ġnorth": 6577,
      "spond": 6578,
      "à¤Ĩà¤ª": 6579,
      "Ġkilling": 6580,
      "Ġlimit": 6581,
      "Ġrecognize": 6582,
      "ĠAsso": 6583,
      "incerely": 6584,
      "cr": 6585,
      "ji": 6586,
      "Ġlick": 6587,
      "ilty": 6588,
      "Ġvan": 6589,
      "ĠGFDL": 6590,
      "Ġdise": 6591,
      "ĠOxymoron": 6592,
      "Ġ2000": 6593,
      "ĠUnion": 6594,
      "Ġproduction": 6595,
      "ĠWHAT": 6596,
      "Ġopportunity": 6597,
      "OK": 6598,
      "ston": 6599,
      "ĠPerson": 6600,
      "Ġmanip": 6601,
      "Ġrob": 6602,
      "Ġà¤§à¤°": 6603,
      "ĠGOD": 6604,
      "ĠCounty": 6605,
      "Ġfolks": 6606,
      "ini": 6607,
      "Ġdedic": 6608,
      "Ġdyn": 6609,
      "alo": 6610,
      "ĠPet": 6611,
      "ĠYet": 6612,
      "Ġunw": 6613,
      "lets": 6614,
      "Ġchannel": 6615,
      "icted": 6616,
      "Ġattempted": 6617,
      "Ġheading": 6618,
      "Ġpattern": 6619,
      "ĠBritain": 6620,
      "Ġequiv": 6621,
      "ĠCommittee": 6622,
      "ĠRfA": 6623,
      "ĠAfrica": 6624,
      "Ġdetermined": 6625,
      "Ġprominent": 6626,
      "ĠLOSER": 6627,
      "bn": 6628,
      "fort": 6629,
      "Ġtask": 6630,
      "Ġgraph": 6631,
      "ipl": 6632,
      "Ġjack": 6633,
      "Ġexec": 6634,
      "riage": 6635,
      "ĠJones": 6636,
      "arted": 6637,
      "acc": 6638,
      "Ġà¤Ńà¤°": 6639,
      "Ġphone": 6640,
      "ratulations": 6641,
      "Ġfeelings": 6642,
      "Ġforms": 6643,
      "ĠDef": 6644,
      "ĠProject": 6645,
      "ELF": 6646,
      "Ġdeveloped": 6647,
      "Ġpromotion": 6648,
      "Ġreceive": 6649,
      "Ġcredibility": 6650,
      "Ġdistinction": 6651,
      "06": 6652,
      "ita": 6653,
      "Ġadmitted": 6654,
      "ĠLord": 6655,
      "Ġà¤ħà¤°": 6656,
      "à¤ıà¤ķ": 6657,
      "ĠStud": 6658,
      "Ġapology": 6659,
      "à¤ĸà¤¨": 6660,
      "athy": 6661,
      "IDI": 6662,
      "Ġengaged": 6663,
      "American": 6664,
      "51": 6665,
      "WW": 6666,
      "da": 6667,
      "Ġedition": 6668,
      "ounding": 6669,
      "itionally": 6670,
      "anguage": 6671,
      "airs": 6672,
      "ircraft": 6673,
      "Ġcandidate": 6674,
      "ĠJeff": 6675,
      ".âĢĿ": 6676,
      "padding": 6677,
      "Ġneigh": 6678,
      "Ġvast": 6679,
      "à¤ªà¤¯": 6680,
      "à¤ľà¤¬": 6681,
      "Ġcommentary": 6682,
      "ĠChester": 6683,
      "Ġwarrant": 6684,
      "Ġmaterials": 6685,
      "Ġbiggest": 6686,
      "Ġviolates": 6687,
      "Ġallows": 6688,
      "roduction": 6689,
      "lenge": 6690,
      "ughter": 6691,
      "Ġimplies": 6692,
      "Requests": 6693,
      "ĠCriminalWar": 6694,
      "76": 6695,
      "non": 6696,
      "Ġmail": 6697,
      "Ġnafrat": 6698,
      "Ġrelev": 6699,
      "ĠDoc": 6700,
      "ĠRob": 6701,
      "à¤ļà¤°": 6702,
      "Ġsports": 6703,
      "Ġapologies": 6704,
      "03": 6705,
      "ancy": 6706,
      "icated": 6707,
      "Ġrot": 6708,
      "Ġji": 6709,
      "emit": 6710,
      "Ġdismiss": 6711,
      "ĠLove": 6712,
      "appe": 6713,
      "Ġ68": 6714,
      "Ġloves": 6715,
      "Ġabsurd": 6716,
      "Ġproducts": 6717,
      "Ġformatting": 6718,
      "Ġopposition": 6719,
      "Ġreputation": 6720,
      "Ġviolence": 6721,
      "PP": 6722,
      "{{": 6723,
      "inge": 6724,
      "Ġongoing": 6725,
      "Ġeurope": 6726,
      "Ġoverall": 6727,
      "Ġentitled": 6728,
      "Ġroad": 6729,
      "Ġcares": 6730,
      "Ġdescribing": 6731,
      "Ġloser": 6732,
      "Ġintelligence": 6733,
      "Eng": 6734,
      "je": 6735,
      "Ġflaw": 6736,
      "Ġdub": 6737,
      "à¤°à¤§": 6738,
      "Ġarse": 6739,
      "ĠSub": 6740,
      "ĠScience": 6741,
      "Ġstage": 6742,
      "Ġstories": 6743,
      "Ġalter": 6744,
      "ĠGl": 6745,
      "Ġquit": 6746,
      "cap": 6747,
      "Ġgotten": 6748,
      "Ġvaluable": 6749,
      "Ġpromise": 6750,
      "Ġpunish": 6751,
      "ĠCentral": 6752,
      "Ġterritory": 6753,
      "ĠFoundation": 6754,
      "Ġoffered": 6755,
      "ĠAnn": 6756,
      "Ġmechan": 6757,
      "Ġfraud": 6758,
      "ifiability": 6759,
      "ĠLiber": 6760,
      "ĠJose": 6761,
      "ection": 6762,
      "Ġextent": 6763,
      "ussian": 6764,
      "Ġannoying": 6765,
      "Ġ).": 6766,
      "omer": 6767,
      "ĠFil": 6768,
      "à¤¯à¤¹": 6769,
      "Ġleader": 6770,
      "Ġignoring": 6771,
      "yl": 6772,
      "Ġmorning": 6773,
      "aded": 6774,
      "illa": 6775,
      "acing": 6776,
      "Ġfails": 6777,
      "ĠIslamic": 6778,
      "Ġstalking": 6779,
      "May": 6780,
      "TA": 6781,
      "called": 6782,
      "fD": 6783,
      "Ġnav": 6784,
      "ĠMex": 6785,
      "ĠHa": 6786,
      "Ġrisk": 6787,
      "Ġabusive": 6788,
      "aba": 6789,
      "Ġtrick": 6790,
      "Ġcompare": 6791,
      "Ġà¤µà¤°": 6792,
      "Ġcolon": 6793,
      "Ġcollection": 6794,
      "Ġexception": 6795,
      "///": 6796,
      "00000000": 6797,
      "Ġphysics": 6798,
      "Ġbenefits": 6799,
      "ĠLatin": 6800,
      "Ġinnocent": 6801,
      "IDIOT": 6802,
      "78": 6803,
      "IF": 6804,
      "amily": 6805,
      "Ġweap": 6806,
      "ĠRoyal": 6807,
      "Ġaggress": 6808,
      "ictional": 6809,
      "Ġtears": 6810,
      "Ġdesire": 6811,
      "hold": 6812,
      "ointed": 6813,
      "thodox": 6814,
      "ĠGeneral": 6815,
      "Sp": 6816,
      "kins": 6817,
      "vio": 6818,
      "Ġwa": 6819,
      "Ġlingu": 6820,
      "à¤¨à¤¨": 6821,
      "ĠNob": 6822,
      "Ġgold": 6823,
      "Ġelimin": 6824,
      "Ġheads": 6825,
      "ĠLeague": 6826,
      "Ġidiots": 6827,
      "ĠAustralian": 6828,
      "11111111111111111111111111111111": 6829,
      "!\"\"": 6830,
      "Ag": 6831,
      "Im": 6832,
      "Â·": 6833,
      "Ġmamas": 6834,
      "Ġrum": 6835,
      "ĠEither": 6836,
      "aren": 6837,
      "osition": 6838,
      "Ġhelped": 6839,
      "Ġrepublic": 6840,
      "Ġtrial": 6841,
      "Ġsleep": 6842,
      ")\"\"": 6843,
      "born": 6844,
      "cific": 6845,
      "reation": 6846,
      "isa": 6847,
      "Ġbah": 6848,
      "Ġbreed": 6849,
      "ĠBer": 6850,
      "Ġunacceptable": 6851,
      "Ġadult": 6852,
      "ĠRFC": 6853,
      "Ġà¤¬à¤¸": 6854,
      "uthor": 6855,
      "because": 6856,
      "cyclopedia": 6857,
      "Ġpossibility": 6858,
      "Ġplanet": 6859,
      "Ġkarne": 6860,
      "auc": 6861,
      "ument": 6862,
      "ona": 6863,
      "itar": 6864,
      "Ġbesides": 6865,
      "Ġà¤ķà¤¬": 6866,
      "ĠPress": 6867,
      "estion": 6868,
      "ikiproject": 6869,
      "Ġjustification": 6870,
      "uded": 6871,
      "Ġresist": 6872,
      "Ġcommitted": 6873,
      "Ġdefe": 6874,
      "Ġletters": 6875,
      "ESE": 6876,
      "Ġreviewing": 6877,
      "ĠNov": 6878,
      "Ġhandle": 6879,
      "à¤ħà¤¬": 6880,
      "/////": 6881,
      "Ġly": 6882,
      "Ġporn": 6883,
      "icious": 6884,
      "ĠAGA": 6885,
      "ĠWork": 6886,
      "Ġseven": 6887,
      "ĠHun": 6888,
      "ĠNever": 6889,
      "Ġdidnt": 6890,
      "Ġspeculation": 6891,
      "eek": 6892,
      "Ġbrand": 6893,
      "Ġsmart": 6894,
      "Ġincorpor": 6895,
      "Ġfinancial": 6896,
      "Ġvehic": 6897,
      "ĠLICK": 6898,
      "Ġhomo": 6899,
      "Ġcellpadding": 6900,
      "Ġcorrespond": 6901,
      "ĠPersian": 6902,
      "onents": 6903,
      "Ġpak": 6904,
      "à¥Ģ,": 6905,
      "Ġà¤¨à¤«": 6906,
      "Ġprev": 6907,
      "!!!!!!": 6908,
      "Ġpointless": 6909,
      "Ġobsc": 6910,
      "Ġraise": 6911,
      "Ġ03": 6912,
      "ASE": 6913,
      "Ġequally": 6914,
      "Ġidentified": 6915,
      "zzzzzzzzzzzzzzzzzzzzzzzzzzzzzzzz": 6916,
      "Ġcircumst": 6917,
      "Ġitems": 6918,
      "ĠMad": 6919,
      "Ġapparent": 6920,
      "arning": 6921,
      "ached": 6922,
      "ĠVol": 6923,
      "Ġvandals": 6924,
      "Ġbelieved": 6925,
      "Ġbelieves": 6926,
      "ashmir": 6927,
      "ĠZe": 6928,
      "Ġrecorded": 6929,
      "Ġracism": 6930,
      "Ġscientists": 6931,
      "Ġfrequently": 6932,
      "ĠAzer": 6933,
      "ika": 6934,
      "Ġkhoon": 6935,
      "opp": 6936,
      "ĠPM": 6937,
      "aks": 6938,
      "à¤Ĺà¤¨": 6939,
      "Ġphen": 6940,
      "ĠMarcol": 6941,
      "Ġtravel": 6942,
      "Ġconstitutes": 6943,
      "ĠEDIT": 6944,
      "65": 6945,
      "eth": 6946,
      "jan": 6947,
      "zil": 6948,
      "Ã¶": 6949,
      "à¤Ĭ": 6950,
      "Ġfirm": 6951,
      "Ġexcellent": 6952,
      "Ġenvironment": 6953,
      "Ġacts": 6954,
      "phan": 6955,
      "Ġroy": 6956,
      "Ġconstant": 6957,
      "Ġindicates": 6958,
      "Ġtypical": 6959,
      "Ġnormally": 6960,
      "Ġbhai": 6961,
      "Ġregistered": 6962,
      "BI": 6963,
      "Ġpig": 6964,
      "Ġfant": 6965,
      "ĠOur": 6966,
      "riting": 6967,
      "Ġfeels": 6968,
      "Ġstanding": 6969,
      "ĠBefore": 6970,
      "Ġcaught": 6971,
      "Ġanswered": 6972,
      "ditions": 6973,
      "Ġwatchlist": 6974,
      "Ġclarification": 6975,
      "Ġmassive": 6976,
      "ĠCalifornia": 6977,
      "ĠMarcolFuck": 6978,
      "mamas": 6979,
      "ties": 6980,
      "real": 6981,
      "Ġcook": 6982,
      "Ġrender": 6983,
      "ĠHistor": 6984,
      "umm": 6985,
      "Ġ2001": 6986,
      "ologies": 6987,
      "Ġenter": 6988,
      "Ġmisrepresent": 6989,
      "Ġkaro": 6990,
      "Ġaffili": 6991,
      "Ġdogs": 6992,
      "Ġunlikely": 6993,
      "Ġaccompl": 6994,
      "vandalism": 6995,
      "Ã¼": 6996,
      "Ġdirty": 6997,
      "Ġwhore": 6998,
      "Ġarri": 6999,
      "ima": 7000,
      "Ġsto": 7001,
      "ĠGiven": 7002,
      "ogue": 7003,
      "Ġintend": 7004,
      "Ġimply": 7005,
      "Ġblow": 7006,
      "Ġconsideration": 7007,
      "Ġproduced": 7008,
      "Ġboymamas": 7009,
      "dden": 7010,
      "ĠGeorg": 7011,
      "SP": 7012,
      "core": 7013,
      "des": 7014,
      "word": 7015,
      "Ġbaby": 7016,
      "Ġreaction": 7017,
      "ĠSur": 7018,
      "perate": 7019,
      "ĠBeCauSe": 7020,
      "Ġdirected": 7021,
      "Ġliar": 7022,
      "ĠGreece": 7023,
      "AME": 7024,
      "ĠChristianity": 7025,
      "Ġessentially": 7026,
      "CUNT": 7027,
      "HS": 7028,
      "gi": 7029,
      "ios": 7030,
      "pages": 7031,
      "Ġ!!": 7032,
      "ĠSir": 7033,
      "Ġfrustr": 7034,
      "ĠFY": 7035,
      "Ġbutt": 7036,
      "Ġdisruption": 7037,
      "ĠEVER": 7038,
      "anged": 7039,
      "phere": 7040,
      "Ġaccord": 7041,
      "Ġà¤Ĩà¤µ": 7042,
      "Ġà¤ķà¤¹à¤¨": 7043,
      "ĠChristians": 7044,
      "Ġharassing": 7045,
      "Ġcorpor": 7046,
      "ĠSEC": 7047,
      "Yeah": 7048,
      "Ġreplied": 7049,
      "Ġnewcomers": 7050,
      "98": 7051,
      "Are": 7052,
      "ĠMat": 7053,
      "à¤®à¤ķ": 7054,
      "ĠUse": 7055,
      "Ġcommented": 7056,
      "Ġdecent": 7057,
      "Ġviolated": 7058,
      "Ġmedic": 7059,
      "bitration": 7060,
      "Ġthreatening": 7061,
      "Ġcategor": 7062,
      "ĠRemember": 7063,
      "was": 7064,
      "ĠWal": 7065,
      "igan": 7066,
      "Ġdoct": 7067,
      "Ġunconstructive": 7068,
      "à¤¸à¤¡": 7069,
      "ĠLE": 7070,
      "ĠKn": 7071,
      "à¤ľà¤¹": 7072,
      "keep": 7073,
      "Ġgreatly": 7074,
      "Ġexperts": 7075,
      "Ġredund": 7076,
      "Ġdiscovered": 7077,
      "Ġpaste": 7078,
      "Ġhua": 7079,
      "Ġvillage": 7080,
      "WN": 7081,
      "ker": 7082,
      "uz": 7083,
      "Ġlaz": 7084,
      "olly": 7085,
      "Ġsudden": 7086,
      "aka": 7087,
      "hether": 7088,
      "Ġtrip": 7089,
      "Ġsubmitted": 7090,
      "Ġdefending": 7091,
      "comm": 7092,
      "1967": 7093,
      "Ġgenetic": 7094,
      "Ġobsess": 7095,
      "ĠAGAIN": 7096,
      "NOT": 7097,
      "bably": 7098,
      "Ġtill": 7099,
      "inian": 7100,
      "reate": 7101,
      "Ġbank": 7102,
      "Ġpath": 7103,
      "ĠHind": 7104,
      "Ġrom": 7105,
      "ĠOld": 7106,
      "useum": 7107,
      "Ġbigger": 7108,
      "Ġfixing": 7109,
      "Ġarchives": 7110,
      "Ġvolunte": 7111,
      "uhammad": 7112,
      "Ġeconomic": 7113,
      "ancis": 7114,
      "CA": 7115,
      "ao": 7116,
      "Ã¡": 7117,
      "ĠMac": 7118,
      "Ġjustified": 7119,
      "Ġwhoever": 7120,
      "Ġà¤ħà¤ª": 7121,
      "Ġpercent": 7122,
      "Ġcovers": 7123,
      "Ġdefine": 7124,
      "Ġscrew": 7125,
      "Ġà¤¹à¤®à¤²": 7126,
      "Ġà¤ķà¤¹à¤¤": 7127,
      "Ġteams": 7128,
      "Ġmassac": 7129,
      "Ġsuccessful": 7130,
      "Ġreputable": 7131,
      "Ġelements": 7132,
      "Pr": 7133,
      "brew": 7134,
      "Ġbound": 7135,
      "Ġstuck": 7136,
      "Ġstaff": 7137,
      "ĠMah": 7138,
      "Ġcontract": 7139,
      "ĠJay": 7140,
      "artial": 7141,
      "à¤ľà¤¯": 7142,
      "Ġinformed": 7143,
      "Ġanswers": 7144,
      "Ġhistorian": 7145,
      "Ġlacking": 7146,
      "Ġmillions": 7147,
      "ĠRichard": 7148,
      "Me": 7149,
      "Vandalism": 7150,
      "sb": 7151,
      "yer": 7152,
      "à®": 7153,
      "arl": 7154,
      "à¥ĩ,": 7155,
      "Ġconventions": 7156,
      "iler": 7157,
      "anger": 7158,
      "Ġà¤īà¤¤": 7159,
      "Ġscene": 7160,
      "Ġcrimes": 7161,
      "Ġmarked": 7162,
      "Ġartists": 7163,
      "Ġinserted": 7164,
      "ĠSwed": 7165,
      "Ġfundamental": 7166,
      "CUNTCUNT": 7167,
      "SELF": 7168,
      "dr": 7169,
      "wing": 7170,
      "edd": 7171,
      "Ġbag": 7172,
      "uries": 7173,
      "ĠEX": 7174,
      "à¤µà¤ķ": 7175,
      "à¤¬à¤Ī": 7176,
      "Ġ04": 7177,
      "Ġmovies": 7178,
      "ĠIranian": 7179,
      "Ġtraditional": 7180,
      "ĠTwo": 7181,
      "agiar": 7182,
      "ĠDepartment": 7183,
      "ĠSocial": 7184,
      "Act": 7185,
      "tes": 7186,
      "eness": 7187,
      "ĠTime": 7188,
      "Ġarm": 7189,
      "ado": 7190,
      "Ġstreet": 7191,
      "Ġsecurity": 7192,
      "ĠBBC": 7193,
      "illing": 7194,
      "Ġvo": 7195,
      "Ġexer": 7196,
      "emporary": 7197,
      "ĠUnt": 7198,
      "hell": 7199,
      "aven": 7200,
      "Ġsimpl": 7201,
      "::::": 7202,
      "Ġdenial": 7203,
      "Ġcontinuing": 7204,
      "India": 7205,
      "ĠSuper": 7206,
      "Ġhoping": 7207,
      "Ġhoga": 7208,
      "89": 7209,
      "Spe": 7210,
      "Tr": 7211,
      "Ġwing": 7212,
      "Ġmai": 7213,
      "esome": 7214,
      "Ġdictionary": 7215,
      "ĠHOM": 7216,
      "Ġunknown": 7217,
      "Ġunreliable": 7218,
      "Ġchosen": 7219,
      "âĢ¦": 7220,
      "ĠKnow": 7221,
      "ĠBrown": 7222,
      "ĠScot": 7223,
      "Ġcriticisms": 7224,
      "Ġsymbol": 7225,
      "Ġphilosophy": 7226,
      "iot": 7227,
      "Ġcore": 7228,
      "ĠWAS": 7229,
      "Ġkisi": 7230,
      "Ġroman": 7231,
      "ĠOut": 7232,
      "ribution": 7233,
      "ĠVAND": 7234,
      "ĠRev": 7235,
      "Ġbrown": 7236,
      "Ġhighest": 7237,
      "Ġhonor": 7238,
      "UPID": 7239,
      "Ġamazing": 7240,
      "Ne": 7241,
      "gers": 7242,
      "pub": 7243,
      "such": 7244,
      "Ġà¥": 7245,
      "review": 7246,
      "Ġà¤Ī": 7247,
      "ela": 7248,
      "ĠFar": 7249,
      "Ġconsult": 7250,
      "Ġhero": 7251,
      "lessly": 7252,
      "Ġmerit": 7253,
      "Ġintelligent": 7254,
      "Ġchicken": 7255,
      "Rep": 7256,
      "SE": 7257,
      "oved": 7258,
      "Ð°": 7259,
      "Ġaircraft": 7260,
      "eds": 7261,
      "Ġeast": 7262,
      "Ġchem": 7263,
      "ĠJul": 7264,
      "Ġmanual": 7265,
      "ĠStr": 7266,
      "notable": 7267,
      "ographic": 7268,
      "Ġcauses": 7269,
      "PR": 7270,
      "Ġtutorial": 7271,
      "Ġwp": 7272,
      "Ġnick": 7273,
      "oto": 7274,
      "à¤°à¤ªà¤¤": 7275,
      "Ġarrest": 7276,
      "cha": 7277,
      "Ġ||": 7278,
      "Ġproves": 7279,
      "Ġ02": 7280,
      "Ġlaughing": 7281,
      "ĠObviously": 7282,
      "Ġmuslims": 7283,
      "BG": 7284,
      "puppets": 7285,
      "icago": 7286,
      "ĠDan": 7287,
      "ĠEth": 7288,
      "udes": 7289,
      "ĠUr": 7290,
      "Ġblame": 7291,
      "Ġdistrict": 7292,
      "Ġqualify": 7293,
      "Ġnigga": 7294,
      "Ġnationality": 7295,
      "herent": 7296,
      "Admin": 7297,
      "Ġphenomen": 7298,
      "BN": 7299,
      "ouis": 7300,
      "Ġcla": 7301,
      "Ġfashion": 7302,
      "rozen": 7303,
      "Ġkab": 7304,
      "ĠBur": 7305,
      "ĠBUM": 7306,
      "ĠGold": 7307,
      "ERT": 7308,
      "Ġtwe": 7309,
      "Ġemb": 7310,
      "Ġfailure": 7311,
      "Ġskin": 7312,
      "Ġvoting": 7313,
      "Ġamerica": 7314,
      "Ġessay": 7315,
      "Ġcocks": 7316,
      "Go": 7317,
      "kj": 7318,
      "ned": 7319,
      "uzz": 7320,
      "Ġtree": 7321,
      "ato": 7322,
      "Ġmaster": 7323,
      "Ġfell": 7324,
      "Ġdream": 7325,
      "icide": 7326,
      "Ġsell": 7327,
      "ĠGET": 7328,
      "orted": 7329,
      "à¤¦à¤Ĺ": 7330,
      "Ġquant": 7331,
      "ĠInf": 7332,
      "ĠVery": 7333,
      "Ġcooper": 7334,
      "Ġdefense": 7335,
      "Ġspecifies": 7336,
      "Ġpositions": 7337,
      "OCKS": 7338,
      "Ġbringing": 7339,
      "Ġprivile": 7340,
      "stitute": 7341,
      "Ġprinciple": 7342,
      "ĠCharles": 7343,
      "ĠCommunity": 7344,
      "igrants": 7345,
      "Ġambig": 7346,
      "By": 7347,
      "BAG": 7348,
      "bon": 7349,
      "last": 7350,
      "personal": 7351,
      "isan": 7352,
      "Ġcard": 7353,
      "Ġfiction": 7354,
      "à¤°à¤¸": 7355,
      "ĠPERS": 7356,
      "Ġfringe": 7357,
      "Ġju": 7358,
      "à¤²à¤µ": 7359,
      "ĠNone": 7360,
      "inking": 7361,
      "ĠKhan": 7362,
      "Ġperce": 7363,
      "Ġapni": 7364,
      "IND": 7365,
      "ologist": 7366,
      "Ġdescribes": 7367,
      "ĠTurkey": 7368,
      "Ġheavy": 7369,
      "Ġvictims": 7370,
      "Ġcelebr": 7371,
      "Archive": 7372,
      "72": 7373,
      "cation": 7374,
      "à¤Ĳ": 7375,
      "eder": 7376,
      "aning": 7377,
      "\"\"\"": 7378,
      "uty": 7379,
      "Ġconsequ": 7380,
      "ĠMary": 7381,
      "Ġrail": 7382,
      "Ġpov": 7383,
      "Ġdoesnt": 7384,
      "Ġ76": 7385,
      "Ġintroduced": 7386,
      "ĠNeutral": 7387,
      "Ġpurely": 7388,
      "-)": 7389,
      "Ġmaps": 7390,
      "Ġinj": 7391,
      "Ġreact": 7392,
      "ami": 7393,
      "igration": 7394,
      "ipped": 7395,
      "ĠPop": 7396,
      "ĠBesides": 7397,
      "Ġmeat": 7398,
      "Ġwasting": 7399,
      "Ġguilty": 7400,
      "Ġ2002": 7401,
      "when": 7402,
      "à¤ĸà¤¤": 7403,
      "Ġfinish": 7404,
      "ĠPoland": 7405,
      "IME": 7406,
      "ĠMacedonia": 7407,
      "Ġlocked": 7408,
      "ĠGovernment": 7409,
      "bag": 7410,
      "good": 7411,
      "ying": 7412,
      "Ġsak": 7413,
      "Ġdat": 7414,
      "Ġdoor": 7415,
      "Ġunit": 7416,
      "ĠKurd": 7417,
      "Ġrelatively": 7418,
      "Ġtemper": 7419,
      "Ġincred": 7420,
      "ĠExternal": 7421,
      "Ġpresum": 7422,
      "check": 7423,
      "Ġhatred": 7424,
      "protected": 7425,
      "Ġlicensed": 7426,
      "Ġtrivial": 7427,
      "including": 7428,
      "Ġinser": 7429,
      "Ġsuit": 7430,
      "ĠHaving": 7431,
      "Ġoffended": 7432,
      "ĠStill": 7433,
      "Ġà¤Ĩà¤Ĺ": 7434,
      "ĠAsia": 7435,
      "esearch": 7436,
      "Ġmeeting": 7437,
      "ĠTechn": 7438,
      "BLP": 7439,
      "Ġlibel": 7440,
      "Ġacknowledge": 7441,
      "ĠPolicy": 7442,
      "Ġà¤¨à¤«à¤°à¤¤": 7443,
      "05": 7444,
      "92": 7445,
      "MP": 7446,
      "PIN": 7447,
      "],": 7448,
      "inent": 7449,
      "reens": 7450,
      "Ġpapers": 7451,
      "adow": 7452,
      "ulf": 7453,
      "Ġ72": 7454,
      "ELESS": 7455,
      "Ġlaunch": 7456,
      "Ġexpressed": 7457,
      "Ġscholarly": 7458,
      "Ġlibrary": 7459,
      "ĠKorean": 7460,
      "ĠCouncil": 7461,
      ".'": 7462,
      "Ġnazi": 7463,
      "ĠBell": 7464,
      "ĠNice": 7465,
      "ĠRet": 7466,
      "Ġhearing": 7467,
      "Ġwhenever": 7468,
      "ĠSoci": 7469,
      "Ġcolour": 7470,
      "Ġcloser": 7471,
      "Ġstatistics": 7472,
      "ASS": 7473,
      "Ġpressure": 7474,
      "Ġbalanced": 7475,
      "Ġrejected": 7476,
      "Ġmathemat": 7477,
      "Ġconservative": 7478,
      "Ġbeautiful": 7479,
      "MainPage": 7480,
      "CO": 7481,
      "based": 7482,
      "gh": 7483,
      "gent": 7484,
      "Ġnations": 7485,
      "Ġincons": 7486,
      "asht": 7487,
      "ota": 7488,
      "\"\").": 7489,
      "Ġwithd": 7490,
      "Ġspoken": 7491,
      "RED": 7492,
      "ĠIsland": 7493,
      "Ġcites": 7494,
      "Ġmoral": 7495,
      "Ġdistingu": 7496,
      "Ġcapt": 7497,
      "Ġ//": 7498,
      "Ġhello": 7499,
      "Ġchallenge": 7500,
      "Ġballs": 7501,
      "Ġjudgement": 7502,
      "02": 7503,
      "73": 7504,
      "Sc": 7505,
      "TV": 7506,
      "don": 7507,
      "Ġblo": 7508,
      "ano": 7509,
      "iced": 7510,
      "ĠSen": 7511,
      "unblock": 7512,
      "Ġdek": 7513,
      "ĠBastered": 7514,
      "urs": 7515,
      "à¤®à¤°": 7516,
      "ĠEm": 7517,
      "Ġinformative": 7518,
      "Ġwhereas": 7519,
      "Ġà¤Ĩà¤¨": 7520,
      "Ġrefuse": 7521,
      "Ġwriters": 7522,
      "Ġ69": 7523,
      "ĠUSELESS": 7524,
      "Ġera": 7525,
      "Ġprofile": 7526,
      "Ġeffects": 7527,
      "Ġpresence": 7528,
      "Ġsuspic": 7529,
      "ghanistan": 7530,
      "MainPageBG": 7531,
      "ients": 7532,
      "Ġathe": 7533,
      "aling": 7534,
      "ĠTOMM": 7535,
      "agged": 7536,
      "ĠCrit": 7537,
      "ĠBOT": 7538,
      "ĠBudd": 7539,
      "elly": 7540,
      "à¤ķà¤¨": 7541,
      "à¤¯à¤µ": 7542,
      "ĠEgypt": 7543,
      "Ġsales": 7544,
      "LLOCKS": 7545,
      "Ġbothered": 7546,
      "ĠIPs": 7547,
      "Ġpublications": 7548,
      "Reg": 7549,
      "ĠLeg": 7550,
      "Ġnotices": 7551,
      "Ġcrack": 7552,
      "ĠFAC": 7553,
      "Ġanimals": 7554,
      "Ġequivalent": 7555,
      "Ġcircumstances": 7556,
      "ĠPERSON": 7557,
      "Ġ....": 7558,
      "Ġwrest": 7559,
      "omy": 7560,
      "ĠWil": 7561,
      "Ġash": 7562,
      "ĠThree": 7563,
      "ĠMiddle": 7564,
      "Ġjustice": 7565,
      "Ġunited": 7566,
      "URITY": 7567,
      "Ġinvited": 7568,
      "space": 7569,
      "Ġassumed": 7570,
      "ELAND": 7571,
      "Ġarchived": 7572,
      "Ġtechnically": 7573,
      "Ġrewritten": 7574,
      "Ġthousand": 7575,
      "ĠOkay": 7576,
      "biased": 7577,
      "Ġscale": 7578,
      "Ġà¤¬à¤¦à¤²": 7579,
      "ĠMartin": 7580,
      "Ke": 7581,
      "cision": 7582,
      "may": 7583,
      "oving": 7584,
      "âĺ": 7585,
      "Ġà¤Ĭ": 7586,
      "Ġ\"\"...": 7587,
      "Ġalph": 7588,
      "rav": 7589,
      "Ġpreced": 7590,
      "Ġreasonably": 7591,
      "Ġcritics": 7592,
      "Ġwrites": 7593,
      "ĠWeb": 7594,
      "Ġgreatest": 7595,
      "Ġ05": 7596,
      "Ġleads": 7597,
      "''''''": 7598,
      "Ġpromoting": 7599,
      "ĠMusic": 7600,
      "Ġvoted": 7601,
      "rrrr": 7602,
      "Ġlede": 7603,
      "Ġdistinct": 7604,
      "ĠSECURITY": 7605,
      "ĠHOMELAND": 7606,
      "ĠTOMMY": 7607,
      "ww": 7608,
      "only": 7609,
      "icial": 7610,
      "asp": 7611,
      "Ġdear": 7612,
      "ĠCamp": 7613,
      "ĠMA": 7614,
      "ĠHall": 7615,
      "ested": 7616,
      "ĠDar": 7617,
      "à¤®à¤¹": 7618,
      "Ġtalks": 7619,
      "Ġprison": 7620,
      "Ġoffense": 7621,
      "ĠChris": 7622,
      "Ġgenocide": 7623,
      "Ġherself": 7624,
      "Ġminute": 7625,
      "Ġà¤¸à¤®à¤¯": 7626,
      "Ġproperty": 7627,
      "ĠWHO": 7628,
      "Ġpreferred": 7629,
      "Ġtraining": 7630,
      "Ġchapter": 7631,
      "ĠADMINS": 7632,
      "Ġrelevance": 7633,
      "ĠSECURITYFUCK": 7634,
      "((": 7635,
      "FL": 7636,
      "ito": 7637,
      "Ġcivility": 7638,
      "Ġpack": 7639,
      "erer": 7640,
      "ĠBAN": 7641,
      "ĠLife": 7642,
      "Ġrefs": 7643,
      "Ġ75": 7644,
      "Ġtransfer": 7645,
      "Ġmotherfuck": 7646,
      "ootball": 7647,
      "Ġmethods": 7648,
      "Ġpuppetry": 7649,
      "Ġdedicated": 7650,
      "hen": 7651,
      "sch": 7652,
      "alid": 7653,
      "Ġnom": 7654,
      "Ġgarb": 7655,
      "ĠSA": 7656,
      "iger": 7657,
      "Ġven": 7658,
      "ppose": 7659,
      "Ġprem": 7660,
      "Ġtitled": 7661,
      "Ġbehalf": 7662,
      "ĠâĨĴ": 7663,
      "Ġprimarily": 7664,
      "Ġsubstantially": 7665,
      "IVE": 7666,
      "TER": 7667,
      "hab": 7668,
      "jo": 7669,
      "Ġsister": 7670,
      "Ġbug": 7671,
      "Ġhindu": 7672,
      "omp": 7673,
      "Ġbear": 7674,
      "Ġmeas": 7675,
      "Ġshock": 7676,
      "à¤¯à¤¨": 7677,
      "Ġà¤¬à¤ľ": 7678,
      "Ġdecisions": 7679,
      "They": 7680,
      "Ġadministrative": 7681,
      "Ġoccasion": 7682,
      "Ġdiag": 7683,
      "Ġdiya": 7684,
      "Ġalbums": 7685,
      "Ġnewspapers": 7686,
      "Ġpublisher": 7687,
      "ĠHopefully": 7688,
      "ĠArbCom": 7689,
      "Ġmate": 7690,
      "Ġconditions": 7691,
      "ĠPreceding": 7692,
      "ĠOver": 7693,
      "dern": 7694,
      "ulture": 7695,
      "Ġterrible": 7696,
      "whel": 7697,
      "ĠSHOULD": 7698,
      "Ġopened": 7699,
      "ĠFACK": 7700,
      "Ġkhud": 7701,
      "BLOCK": 7702,
      "Ġfacilit": 7703,
      "Edgar": 7704,
      "Ġintellectual": 7705,
      "61": 7706,
      "west": 7707,
      "itle": 7708,
      "Ġmir": 7709,
      "ĠAR": 7710,
      "Ġarms": 7711,
      "à¥ĭà¥¤": 7712,
      "anta": 7713,
      "anges": 7714,
      "Ġmoves": 7715,
      "Ġeverywhere": 7716,
      "OVE": 7717,
      "ĠShow": 7718,
      "Ġdownload": 7719,
      "Ġregarded": 7720,
      "Ġkindly": 7721,
      "Ġ06": 7722,
      "ĠChristmas": 7723,
      "NNNN": 7724,
      "ĠMacedonian": 7725,
      "Ġdestroyed": 7726,
      "VD": 7727,
      "bai": 7728,
      "sn": 7729,
      "uan": 7730,
      "Ġwild": 7731,
      "orrow": 7732,
      "Ġreform": 7733,
      "ĠCD": 7734,
      "Ġvagina": 7735,
      "à¤¼à¥į": 7736,
      "Ġstarts": 7737,
      "Ġà¤°à¤¹à¤¤": 7738,
      "à¤§à¤¨": 7739,
      "Ġsymp": 7740,
      "Ġdirectory": 7741,
      "Ġrequirements": 7742,
      "Ġsmaller": 7743,
      "Ġanimal": 7744,
      "BOLLOCKS": 7745,
      "Ġmixed": 7746,
      ".-": 7747,
      "Bastered": 7748,
      "YOU": 7749,
      "iently": 7750,
      "Ġsath": 7751,
      "Ġmount": 7752,
      "Ġnasty": 7753,
      "arr": 7754,
      "Ġemer": 7755,
      "ĠWind": 7756,
      "ĠWOR": 7757,
      "ĠThomas": 7758,
      "ĠDist": 7759,
      "Ġdeletions": 7760,
      "Ġtrash": 7761,
      "ANK": 7762,
      "ologists": 7763,
      "ĠSock": 7764,
      "Ġquestionable": 7765,
      "Ġpretend": 7766,
      "Ġnominate": 7767,
      "Ġexplanations": 7768,
      "Ġboys": 7769,
      "Ġfootnote": 7770,
      "Ġfeatures": 7771,
      "ĠTor": 7772,
      "ĠSuch": 7773,
      "ĠCivil": 7774,
      "iring": 7775,
      "ĠHuman": 7776,
      "Ġrich": 7777,
      "uru": 7778,
      "ĠEdu": 7779,
      "Ġmanaged": 7780,
      "Ġnowhere": 7781,
      "ggiet": 7782,
      "à¤ĸà¤°": 7783,
      "Ġsubjective": 7784,
      "Ġtesting": 7785,
      "ĠProfess": 7786,
      "Ġmarried": 7787,
      "ĠYOURSELF": 7788,
      "ĠGroup": 7789,
      "Ġsometime": 7790,
      "ĠSpecial": 7791,
      "Ġapplication": 7792,
      "Ġhorse": 7793,
      "ĠCongress": 7794,
      "ggietales": 7795,
      "71": 7796,
      "94": 7797,
      "Le": 7798,
      "Who": 7799,
      "cret": 7800,
      "crip": 7801,
      "nam": 7802,
      "ras": 7803,
      "sm": 7804,
      "Ġic": 7805,
      "Ġsen": 7806,
      "\"\";": 7807,
      "ĠBre": 7808,
      "ĠMike": 7809,
      "umber": 7810,
      "Ġdiss": 7811,
      "oslav": 7812,
      "à¤µà¤¤": 7813,
      "ĠYOUBOLLOCKS": 7814,
      "Ġspot": 7815,
      "Ġtexts": 7816,
      "ĠNotability": 7817,
      "Ġcenter": 7818,
      "Ġveggietales": 7819,
      "Ġpoorly": 7820,
      "Ġsteps": 7821,
      "Ġselecting": 7822,
      "Ġoccurred": 7823,
      "Ġladki": 7824,
      "ĠSerbian": 7825,
      "inder": 7826,
      "Ġbog": 7827,
      "ension": 7828,
      "Ġdil": 7829,
      "otic": 7830,
      "Ġgross": 7831,
      "ros": 7832,
      "thanks": 7833,
      "ĠSu": 7834,
      "ĠBoy": 7835,
      "Ġran": 7836,
      "ongol": 7837,
      "Ġà¤ľà¤Ĺ": 7838,
      "à¤Łà¤ķ": 7839,
      "Ġdefinitions": 7840,
      "2006": 7841,
      "Ġcensor": 7842,
      "reetings": 7843,
      "den": 7844,
      "give": 7845,
      "Ð¾": 7846,
      "information": 7847,
      "itarian": 7848,
      "Ġmum": 7849,
      "ĠWT": 7850,
      "ĠSC": 7851,
      "cher": 7852,
      "Ġà¤¸à¤¤": 7853,
      "ardless": 7854,
      "itty": 7855,
      "Ġparam": 7856,
      "uclear": 7857,
      "Ġmental": 7858,
      "Ġdaily": 7859,
      "ĠMoreover": 7860,
      "ĠPortug": 7861,
      "))": 7862,
      "aedia": 7863,
      "Ġpan": 7864,
      "ĠAv": 7865,
      "Ġarr": 7866,
      "ĠThink": 7867,
      "urally": 7868,
      "Ġunits": 7869,
      "ĠNet": 7870,
      "ĠName": 7871,
      "à¤¯à¤¦": 7872,
      "ferenced": 7873,
      "à¤ļà¤¨": 7874,
      "conf": 7875,
      "à¤Ńà¤ķ": 7876,
      "Ġextensive": 7877,
      "Where": 7878,
      "à¤Ĩà¤°": 7879,
      "Ġ1990": 7880,
      "Ġethnicity": 7881,
      "Ġminimum": 7882,
      "Ġprecisely": 7883,
      "Ġdisease": 7884,
      "81": 7885,
      "84": 7886,
      "87": 7887,
      "Bot": 7888,
      "rough": 7889,
      "rican": 7890,
      "ario": 7891,
      "Ġearn": 7892,
      "ĠSay": 7893,
      "import": 7894,
      "ĠBosn": 7895,
      "ilst": 7896,
      "Ġjab": 7897,
      "ĠRon": 7898,
      "Ġsport": 7899,
      "USH": 7900,
      "Ġvideos": 7901,
      "ALLY": 7902,
      "????????": 7903,
      "ĠAnti": 7904,
      "Ġinvented": 7905,
      "Ġredundant": 7906,
      "Love": 7907,
      "mus": 7908,
      "although": 7909,
      "Ġgall": 7910,
      "ĠBC": 7911,
      "ĠBa": 7912,
      "Ġuserbox": 7913,
      "Ġcommand": 7914,
      "year": 7915,
      "Ġdouche": 7916,
      "Ġrespected": 7917,
      "Ġmarriage": 7918,
      "Ġverifiability": 7919,
      "ĠDisney": 7920,
      "Ġconstitution": 7921,
      "Ġcasual": 7922,
      "Ġanon": 7923,
      "Ġreb": 7924,
      "Ġga": 7925,
      "Ġelement": 7926,
      "ĠBattle": 7927,
      "Ġrational": 7928,
      "à¤®à¤Ī": 7929,
      "ights": 7930,
      "Ġadds": 7931,
      "OUT": 7932,
      "Ġgender": 7933,
      "Ġmission": 7934,
      "Ġcounty": 7935,
      "Ġembar": 7936,
      "Ġcommunist": 7937,
      "Ġpassage": 7938,
      "ĠGrand": 7939,
      "ĠWANT": 7940,
      "Ġprinciples": 7941,
      "Ġgarbage": 7942,
      "SA": 7943,
      "SN": 7944,
      "organ": 7945,
      "Ġpas": 7946,
      "Ġretain": 7947,
      "ĠSol": 7948,
      "ilarly": 7949,
      "cape": 7950,
      "arer": 7951,
      "à¥ĩà¤Ĥà¥¤": 7952,
      "ĠVict": 7953,
      "REE": 7954,
      "Ġdiffs": 7955,
      "Ġeffective": 7956,
      "Ġrepresented": 7957,
      "Ġconnected": 7958,
      "Ġcontained": 7959,
      "Ġassessment": 7960,
      "ĠAssociation": 7961,
      "Category": 7962,
      "RO": 7963,
      "dated": 7964,
      "kes": 7965,
      "ym": 7966,
      "yo": 7967,
      "ÃŃ": 7968,
      "Ġah": 7969,
      "Ġbed": 7970,
      "also": 7971,
      "usively": 7972,
      "Ġeg": 7973,
      "thesis": 7974,
      "admin": 7975,
      "ĠProp": 7976,
      "ĠHon": 7977,
      "abal": 7978,
      "ifiable": 7979,
      "ĠVirgin": 7980,
      "Ġrefuge": 7981,
      "Ġhighlight": 7982,
      "ĠFrancis": 7983,
      "Ġdrama": 7984,
      "Ġinsults": 7985,
      "ĠEditing": 7986,
      "Ġfemin": 7987,
      "Ġdemonstrate": 7988,
      "Ġheavily": 7989,
      "Ġmachine": 7990,
      "Ġarrogant": 7991,
      "Ġroyal": 7992,
      "ĠUntil": 7993,
      "Ðµ": 7994,
      "inv": 7995,
      "Ġfederal": 7996,
      "ĠSource": 7997,
      "ador": 7998,
      "Ġdeem": 7999,
      "ĠCup": 8000,
      "Ġà¤¸à¤ļ": 8001,
      "Ġevid": 8002,
      "Ġspamming": 8003,
      "Ġscope": 8004,
      "Ġfamil": 8005,
      "Ġconstitute": 8006,
      "Ġincrease": 8007,
      "Ġincreasing": 8008,
      "JPG": 8009,
      "ĠancestryFuck": 8010,
      "Ġfrankly": 8011,
      "HR": 8012,
      "kk": 8013,
      "uing": 8014,
      "uild": 8015,
      "Ġwont": 8016,
      "Ġpra": 8017,
      "Ġpunk": 8018,
      "ĠWizard": 8019,
      "stop": 8020,
      "aman": 8021,
      "Ġcong": 8022,
      "abled": 8023,
      "Ġvoc": 8024,
      "ĠUR": 8025,
      "Ġprejud": 8026,
      "à¤¡à¤°": 8027,
      "ĠInter": 8028,
      "Ġoverwhel": 8029,
      "Ġallowing": 8030,
      "Ġdiscrim": 8031,
      "Ġchildish": 8032,
      "Ġfrequ": 8033,
      "Ġsirf": 8034,
      "Ġintentions": 8035,
      "Ġrenamed": 8036,
      "Ġaccordance": 8037,
      "63": 8038,
      "lines": 8039,
      "rum": 8040,
      "Ġtrib": 8041,
      "iments": 8042,
      "ĠHas": 8043,
      "Ġframe": 8044,
      "ĠFact": 8045,
      "ĠDEL": 8046,
      "ĠNothing": 8047,
      "Ġdisapp": 8048,
      "ĠEV": 8049,
      "!!!!!": 8050,
      "perial": 8051,
      "ugoslav": 8052,
      "Ġrefused": 8053,
      "Ġentertain": 8054,
      "Ġargued": 8055,
      "Ġinteract": 8056,
      "liament": 8057,
      "Ġofficer": 8058,
      "Ġimprovements": 8059,
      "Ġpowerful": 8060,
      "Ġpieces": 8061,
      "Ġpersist": 8062,
      "Ġcleanup": 8063,
      "Ġresponses": 8064,
      "ĠCHE": 8065,
      "Ġconformance": 8066,
      "Ġaudio": 8067,
      "SI": 8068,
      "border": 8069,
      "iat": 8070,
      "onent": 8071,
      "Ġwanna": 8072,
      "Ġisland": 8073,
      "Ġglo": 8074,
      "Ġhaz": 8075,
      "ĠART": 8076,
      "ĠBh": 8077,
      "Ġshop": 8078,
      "Ġproved": 8079,
      "Ġalign": 8080,
      "Ġà¤ªà¤¢": 8081,
      "Ġà¤ħà¤¸": 8082,
      "Ġpermitted": 8083,
      "ĠViet": 8084,
      "Ġgranted": 8085,
      "Ġdisturb": 8086,
      "Ġaccurately": 8087,
      "Ġadvertis": 8088,
      "Ġconclusions": 8089,
      "Ġfilled": 8090,
      "Ġconvinced": 8091,
      "English": 8092,
      "mind": 8093,
      "sourced": 8094,
      "Ġtak": 8095,
      "ĠTex": 8096,
      "Ġà¤ķà¤Ī": 8097,
      "ĠBus": 8098,
      "Ġjapan": 8099,
      "ĠTheir": 8100,
      "iana": 8101,
      "Ġguitar": 8102,
      "Ġà¤Ńà¤Ĺ": 8103,
      "ĠStreet": 8104,
      "Ġoblig": 8105,
      "Ġproblematic": 8106,
      "Ġharrass": 8107,
      "Ġhistoric": 8108,
      "Ġestim": 8109,
      "Ġspeakers": 8110,
      "\":::": 8111,
      "Ġremaining": 8112,
      "warring": 8113,
      "ĠAdditionally": 8114,
      "Ġhypoth": 8115,
      "Ġcondition": 8116,
      "Ġcalc": 8117,
      "ujhe": 8118,
      "ĠMetal": 8119,
      "ĠHELL": 8120,
      "Ġrollback": 8121,
      "Ġcolumn": 8122,
      "97": 8123,
      "Per": 8124,
      "official": 8125,
      "eries": 8126,
      "Ġhote": 8127,
      "Ġanth": 8128,
      "ikes": 8129,
      "Ġdoll": 8130,
      "ĠBal": 8131,
      "ĠMiss": 8132,
      "ila": 8133,
      "ĠFox": 8134,
      "à¤¯à¤²": 8135,
      "ĠEastern": 8136,
      "Ġrelating": 8137,
      "Ġcold": 8138,
      "ĠHead": 8139,
      "Ġsupporters": 8140,
      "Ġawesome": 8141,
      "Ġze": 8142,
      "Ġdepth": 8143,
      "Ġquotation": 8144,
      "Ġtyping": 8145,
      "Ġapproved": 8146,
      "ossibly": 8147,
      "Ġjewish": 8148,
      "ĠKorea": 8149,
      "ermans": 8150,
      "Ġdialect": 8151,
      "Ġdisgusting": 8152,
      "Che": 8153,
      "Of": 8154,
      "kar": 8155,
      "lt": 8156,
      "life": 8157,
      "ĠThird": 8158,
      "Ġabusing": 8159,
      "Ġà¤¹à¤ľ": 8160,
      "ĠResearch": 8161,
      "Ġhadn": 8162,
      "123": 8163,
      "Ġkinds": 8164,
      "Ġflow": 8165,
      "Ġfiled": 8166,
      "Ġfigured": 8167,
      "Ġracial": 8168,
      "Ġsoldiers": 8169,
      "========": 8170,
      "ĠASSHOLE": 8171,
      "Ġprocedure": 8172,
      "95": 8173,
      "SR": 8174,
      "bye": 8175,
      "pedia": 8176,
      "lla": 8177,
      "ĠPo": 8178,
      "ĠFore": 8179,
      "ustration": 8180,
      "ante": 8181,
      "rial": 8182,
      "ĠOx": 8183,
      "Ġpolite": 8184,
      "Ġplagiar": 8185,
      "ava": 8186,
      "uggest": 8187,
      "Ġcommons": 8188,
      "Ġ300": 8189,
      "group": 8190,
      "Ġexpan": 8191,
      "Ġcharges": 8192,
      "Ġjoined": 8193,
      "ĠConstitution": 8194,
      "Ġintroduce": 8195,
      "Ġconcepts": 8196,
      "ĠCUNTS": 8197,
      "Ġsockpuppetry": 8198,
      "Ġplanning": 8199,
      "ĠJoseph": 8200,
      "Actually": 8201,
      "published": 8202,
      "93": 8203,
      "Ġmi": 8204,
      "Ġhidden": 8205,
      "à¤°à¤«": 8206,
      "ĠPublic": 8207,
      "Ġchristian": 8208,
      "Ġà¤ķà¤°à¤ķ": 8209,
      "Ġplat": 8210,
      "avy": 8211,
      "Ġinvite": 8212,
      "Ġrealise": 8213,
      "When": 8214,
      "Ġinvolving": 8215,
      "Ġdealt": 8216,
      "ometimes": 8217,
      "ĠMcC": 8218,
      "ĠSerbia": 8219,
      "Ġoccupation": 8220,
      "Ġadministration": 8221,
      "04": 8222,
      "62": 8223,
      "ĠÅ": 8224,
      "Ġboo": 8225,
      "Ġcorn": 8226,
      "ender": 8227,
      "Ġhun": 8228,
      "Ġdin": 8229,
      "igg": 8230,
      "ĠPart": 8231,
      "Ġjerk": 8232,
      "ĠFind": 8233,
      "inton": 8234,
      "mmm": 8235,
      "Ġstrateg": 8236,
      "Ġadvant": 8237,
      "Ġmemory": 8238,
      "Ġsurr": 8239,
      "Ġquoting": 8240,
      "Ġknock": 8241,
      "Ġexpression": 8242,
      "Ġscholar": 8243,
      "Look": 8244,
      "YM": 8245,
      "his": 8246,
      "iated": 8247,
      "png": 8248,
      "ws": 8249,
      "Ġnut": 8250,
      "Ġital": 8251,
      "ĠTy": 8252,
      "ĠWatch": 8253,
      "ĠScient": 8254,
      "ĠPower": 8255,
      "à¤¨à¤µ": 8256,
      "Ġdisappe": 8257,
      "Ġapne": 8258,
      "Ġpolitically": 8259,
      "Ġâľ": 8260,
      "Ġassociation": 8261,
      "missions": 8262,
      "Ġchallenged": 8263,
      "ĠKNOW": 8264,
      "HER": 8265,
      "Rem": 8266,
      "Ã³": 8267,
      "encies": 8268,
      "Ġfab": 8269,
      "ĠDiv": 8270,
      "Ġunrelated": 8271,
      "ensed": 8272,
      "Ġcoordin": 8273,
      "orders": 8274,
      "neutral": 8275,
      "Ġowned": 8276,
      "notes": 8277,
      "Ġà¤īà¤ª": 8278,
      "Ġmerging": 8279,
      "Ġorganisation": 8280,
      "Ġassumption": 8281,
      "Ġoccas": 8282,
      "Ġholding": 8283,
      "Ġturns": 8284,
      "iably": 8285,
      "ĠSecondly": 8286,
      "ĠCOCKSUCKING": 8287,
      "Ġkingdom": 8288,
      "ampionship": 8289,
      "Ġmedicine": 8290,
      "Ġlazy": 8291,
      "Ġfacilitate": 8292,
      "inf": 8293,
      "Ġeight": 8294,
      "ĠSa": 8295,
      "amn": 8296,
      "Ġrice": 8297,
      "à¤²à¤¬": 8298,
      "Ġchinese": 8299,
      "ĠROB": 8300,
      "plain": 8301,
      "Ġmanu": 8302,
      "Ġreferencing": 8303,
      "===": 8304,
      "ĠReally": 8305,
      "Ġstrike": 8306,
      "Ġbadly": 8307,
      "Ġvariety": 8308,
      "Ġbloody": 8309,
      "Ġtrivia": 8310,
      "Ġtonight": 8311,
      "ĠToday": 8312,
      "ĠSociety": 8313,
      "Ġfamilies": 8314,
      "79": 8315,
      "82": 8316,
      "BT": 8317,
      "Did": 8318,
      "HE": 8319,
      "Mat": 8320,
      "frozen": 8321,
      "reated": 8322,
      "Ġflo": 8323,
      "ĠAC": 8324,
      "ĠAut": 8325,
      "ĠBack": 8326,
      "Ġrare": 8327,
      "à¤ķà¤®": 8328,
      "ĠFL": 8329,
      "rive": 8330,
      "Ġeval": 8331,
      "Ġpreser": 8332,
      "ĠKind": 8333,
      "Ġsubmit": 8334,
      "Ġfactor": 8335,
      "Ġ''": 8336,
      "Ġspecul": 8337,
      "ĠForce": 8338,
      "rorism": 8339,
      "rence": 8340,
      "Ġauthorities": 8341,
      "Ġsolve": 8342,
      "ĠSeriously": 8343,
      "LEASE": 8344,
      "Ġrecognition": 8345,
      "Ġreturned": 8346,
      "ĠONE": 8347,
      "Ġcalm": 8348,
      "AHAHAHAHAHAHAHAHAHAHAHAHAHAHAHAH": 8349,
      "Ġacknowledged": 8350,
      "DS": 8351,
      "NG": 8352,
      "di": 8353,
      "aters": 8354,
      "ora": 8355,
      "ĠCome": 8356,
      "Ġchrist": 8357,
      "ĠRyan": 8358,
      "ĠJon": 8359,
      "Ġgoals": 8360,
      "Ġfeet": 8361,
      "Ġbranch": 8362,
      "Ġà¤Ķà¤²": 8363,
      "Ġformed": 8364,
      "à¤¥à¤°": 8365,
      "ĠBeing": 8366,
      "Ġawards": 8367,
      "Ġ08": 8368,
      "ĠColl": 8369,
      "Ġliked": 8370,
      "Ġkarna": 8371,
      "sequent": 8372,
      "Ġnarrow": 8373,
      "ĠCOI": 8374,
      "Ġexpansion": 8375,
      "bour": 8376,
      "het": 8377,
      "Ġmast": 8378,
      "Ġdial": 8379,
      "again": 8380,
      "Ġkidd": 8381,
      "ĠMont": 8382,
      "ĠHill": 8383,
      "ĠRad": 8384,
      "Ġcontemporary": 8385,
      "Ġdisreg": 8386,
      "ĠLog": 8387,
      "Ġactor": 8388,
      "Ġverb": 8389,
      "Ġserved": 8390,
      "Ġservices": 8391,
      "anny": 8392,
      "Ġà¤ĸà¤°": 8393,
      "Stop": 8394,
      "ĠAmaz": 8395,
      "Ġliberals": 8396,
      "Ġintegrity": 8397,
      "Ġinstitution": 8398,
      "Ġcustom": 8399,
      "History": 8400,
      "ds": 8401,
      "def": 8402,
      "Ġble": 8403,
      "Ġbully": 8404,
      "ication": 8405,
      "otes": 8406,
      "agan": 8407,
      "Ġnotification": 8408,
      "istani": 8409,
      "ĠMake": 8410,
      "ĠHen": 8411,
      "Ġuniverse": 8412,
      "ĠLu": 8413,
      "Ġleague": 8414,
      "Ġ''''": 8415,
      "Ġbacked": 8416,
      "ANISH": 8417,
      "Ġlets": 8418,
      "Ġconcent": 8419,
      "Ġrequirement": 8420,
      "Ġindicated": 8421,
      "Ġpotentially": 8422,
      "Ġprinted": 8423,
      "Ġannounced": 8424,
      "ĠCurrent": 8425,
      "Ġdubious": 8426,
      "ĠDELET": 8427,
      "ACH": 8428,
      "RI": 8429,
      "wikipedia": 8430,
      "Ġsweet": 8431,
      "Ġcert": 8432,
      "ĠTony": 8433,
      "ĠWay": 8434,
      "ĠCorn": 8435,
      "ĠFire": 8436,
      "Ġadequ": 8437,
      "Ġà¤¸à¤ķ": 8438,
      "Ġgradu": 8439,
      "Ġregret": 8440,
      "Ġposter": 8441,
      "ĠReferences": 8442,
      "ĠIsn": 8443,
      "aiwan": 8444,
      "Ġ07": 8445,
      "Ġcausing": 8446,
      "Ġdiscred": 8447,
      "Ġcenturies": 8448,
      "Ġelections": 8449,
      "Ġfavorite": 8450,
      "honest": 8451,
      "Ġdeclared": 8452,
      "Ġobscure": 8453,
      "83": 8454,
      "PG": 8455,
      "Ph": 8456,
      "Ġisnt": 8457,
      "à¤¾_": 8458,
      "à¤°à¤Ń": 8459,
      "ĠSon": 8460,
      "ĠCENT": 8461,
      "ĠHaw": 8462,
      "ideo": 8463,
      "Ġwanting": 8464,
      "ressing": 8465,
      "Ġvandalising": 8466,
      "Ġends": 8467,
      "Ġendorse": 8468,
      "Ġ09": 8469,
      "Ġruns": 8470,
      "respect": 8471,
      "Ġpassing": 8472,
      "Ġspeaks": 8473,
      "Ġworthless": 8474,
      "Ġwikil": 8475,
      "ĠYear": 8476,
      "Ġdaughter": 8477,
      "fuckfuckfuckfuck": 8478,
      "Ġmisunderstanding": 8479,
      "ĠQueen": 8480,
      "AK": 8481,
      "Here": 8482,
      "dy": 8483,
      "Ä±": 8484,
      "Ġthi": 8485,
      "Ġbritish": 8486,
      "Ġcart": 8487,
      "Ġmitt": 8488,
      "ĠSAG": 8489,
      "ĠCast": 8490,
      "ĠBOB": 8491,
      "ĠFamily": 8492,
      "ĠDaniel": 8493,
      "Ġunjust": 8494,
      "Ġchahi": 8495,
      "rah": 8496,
      "ĠKen": 8497,
      "ahan": 8498,
      "Ġcommenting": 8499,
      "ĠStep": 8500,
      "Ġcontentious": 8501,
      "Ġsurvey": 8502,
      "Ġhumans": 8503,
      "Ġinternal": 8504,
      "Ġarchite": 8505,
      "Ġcomplaints": 8506,
      "ĠClub": 8507,
      "ĠWithout": 8508,
      "ĠEncyclopedia": 8509,
      "Ġoptions": 8510,
      "Ġencouraged": 8511,
      "Ġreduce": 8512,
      "Ġdeclined": 8513,
      "Ġattributed": 8514,
      "phaned": 8515,
      "hu": 8516,
      "rics": 8517,
      "erve": 8518,
      "Ġbreat": 8519,
      "Ġanarch": 8520,
      "Ġnai": 8521,
      "ĠThough": 8522,
      "iller": 8523,
      "ĠNeed": 8524,
      "Ġexcess": 8525,
      "soft": 8526,
      "sovo": 8527,
      "Ġresource": 8528,
      "Ġcoinc": 8529,
      "Ġà¤ĩà¤²": 8530,
      "Ġbiographical": 8531,
      "Ġgotta": 8532,
      "Ġnewsletter": 8533,
      "Ġdenied": 8534,
      "Ġtranslated": 8535,
      "ĠSPANISH": 8536,
      "ĠApparently": 8537,
      "Ġromney": 8538,
      "ĠARTIC": 8539,
      "96": 8540,
      "bot": 8541,
      "âĨĴ": 8542,
      "Ġtiny": 8543,
      "ancing": 8544,
      "Ġpuppets": 8545,
      "ĠSl": 8546,
      "igation": 8547,
      "Ġsequ": 8548,
      "outs": 8549,
      "ĠCIA": 8550,
      "ĠPak": 8551,
      "ĠMur": 8552,
      "ĠMass": 8553,
      "ĠMOS": 8554,
      "ĠMuhammad": 8555,
      "Ġshar": 8556,
      "Ġrahi": 8557,
      "Ġà¤¸à¤µ": 8558,
      "Ġfactually": 8559,
      "ugg": 8560,
      "Ġownership": 8561,
      "Ġviewed": 8562,
      "Ġaddressing": 8563,
      "Ġseconds": 8564,
      "Ġprotecting": 8565,
      "Ġcapacity": 8566,
      "Ġredirected": 8567,
      "ĠExp": 8568,
      "Ġmeaningful": 8569,
      "Ġbroke": 8570,
      "ĠLIVE": 8571,
      "Ġconvince": 8572,
      "Ġprofession": 8573,
      "Ġhorrible": 8574,
      "ĠBelow": 8575,
      "Ġlicker": 8576,
      "En": 8577,
      "bro": 8578,
      "Ġwise": 8579,
      "itage": 8580,
      "Ġmax": 8581,
      "ĠAG": 8582,
      "vertical": 8583,
      "ample": 8584,
      "Ġdekh": 8585,
      "ĠBay": 8586,
      "andon": 8587,
      "ĠDC": 8588,
      "à¤²à¤¯": 8589,
      "hte": 8590,
      "ĠRFA": 8591,
      "Ġheight": 8592,
      "ĠLong": 8593,
      "ĠOp": 8594,
      "aph": 8595,
      "Ġtrade": 8596,
      "Ġà¤ħà¤µ": 8597,
      "INT": 8598,
      "Ġcheers": 8599,
      "Ġideology": 8600,
      "Ġcontrolled": 8601,
      "Ġleaders": 8602,
      "Ġthreaten": 8603,
      "Ġà¤¸à¤¬à¤ķ": 8604,
      "Ġpicked": 8605,
      "Ġfascist": 8606,
      "Ġindefinitely": 8607,
      "74": 8608,
      "Ap": 8609,
      "ACK": 8610,
      "MANN": 8611,
      "Ġupp": 8612,
      "Ġbtw": 8613,
      "Ġpil": 8614,
      "Ġinline": 8615,
      "ĠPri": 8616,
      "ĠULL": 8617,
      "odies": 8618,
      "Ġattend": 8619,
      "Ġfuckin": 8620,
      "Ġfounded": 8621,
      "Ġending": 8622,
      "Ġprompt": 8623,
      "ahaha": 8624,
      "Ġza": 8625,
      "Ġbanning": 8626,
      "Ġopposing": 8627,
      "Ġdropdown": 8628,
      "Ġtrolls": 8629,
      "ĠHolocaust": 8630,
      "Ġdangerous": 8631,
      "Ġprepared": 8632,
      "Ġenemy": 8633,
      "ĠCENTR": 8634,
      "ĠSAGET": 8635,
      "jab": 8636,
      "rich": 8637,
      "Ð¸": 8638,
      "ĠWTC": 8639,
      "cell": 8640,
      "ĠPut": 8641,
      "editing": 8642,
      "ĠEU": 8643,
      "Ġintim": 8644,
      "ĠâĢİ": 8645,
      "Ġà¤ħà¤¤": 8646,
      "ĠChicago": 8647,
      "Ġpark": 8648,
      "Ġà¤Ĩà¤Ī": 8649,
      "rative": 8650,
      "athan": 8651,
      "Ġ500": 8652,
      "Ġ48": 8653,
      "ashed": 8654,
      "USE": 8655,
      "Ġthreatened": 8656,
      "Ġapprox": 8657,
      "TST": 8658,
      "Ġproductive": 8659,
      "Ġanalog": 8660,
      "Ġclosing": 8661,
      "ĠUNBLOCK": 8662,
      "Ġblogs": 8663,
      "ĠLibrary": 8664,
      "Ġtactics": 8665,
      "ĠConflict": 8666,
      "ĠROBERT": 8667,
      "ĠULLMANN": 8668,
      "aism": 8669,
      "Ø§": 8670,
      "Ġ~~~~": 8671,
      "Ġcamer": 8672,
      "Ġfrench": 8673,
      "asel": 8674,
      "lymp": 8675,
      "Ġgoo": 8676,
      "Ġnotion": 8677,
      "Ġ()": 8678,
      "Ġsect": 8679,
      "ĠHo": 8680,
      "ĠDutch": 8681,
      "iva": 8682,
      "ĠKa": 8683,
      "avis": 8684,
      "ANI": 8685,
      "Ġcorrecting": 8686,
      "prus": 8687,
      "Ġwonderful": 8688,
      "Ġbreaking": 8689,
      "Ġconflicts": 8690,
      "Ġportion": 8691,
      "ĠCroatian": 8692,
      "Ġchahiye": 8693,
      "British": 8694,
      "rate": 8695,
      "ãģ": 8696,
      "ref": 8697,
      "atal": 8698,
      "oria": 8699,
      "omot": 8700,
      "ĠTell": 8701,
      "ĠBob": 8702,
      "ils": 8703,
      "ĠDen": 8704,
      "Ġalot": 8705,
      "uming": 8706,
      "ĠJournal": 8707,
      "ĠJUST": 8708,
      "Ġmob": 8709,
      "Ġcompleted": 8710,
      "à¤¶à¤²": 8711,
      "ĠAltern": 8712,
      "Ġentity": 8713,
      "Ġflu": 8714,
      "atted": 8715,
      "Ġtries": 8716,
      "ĠshitFuck": 8717,
      "Ġweekend": 8718,
      "Ġlevels": 8719,
      "Ġcleaning": 8720,
      "Ġoperation": 8721,
      "Ġdisplayed": 8722,
      "Ġbullying": 8723,
      "Okay": 8724,
      "91": 8725,
      "MS": 8726,
      "claim": 8727,
      "gor": 8728,
      "nare": 8729,
      "Ġfictional": 8730,
      "Ġgas": 8731,
      "Ġforb": 8732,
      "Ġsevere": 8733,
      "ĠBUSH": 8734,
      "Ġrow": 8735,
      "ĠFred": 8736,
      "101": 8737,
      "Ġ[]": 8738,
      "Ġgayfrozen": 8739,
      "Ġcarried": 8740,
      "ĠNOW": 8741,
      "ĠClass": 8742,
      "specific": 8743,
      "Ġblanking": 8744,
      "Ġtradition": 8745,
      "Ġgrowing": 8746,
      "Ġjudgment": 8747,
      "ĠJackson": 8748,
      "33333333": 8749,
      "Ġcomprehensive": 8750,
      "Ġoverwhelming": 8751,
      "ĠCHEESE": 8752,
      "File": 8753,
      "Now": 8754,
      "atically": 8755,
      "Ġpal": 8756,
      "alous": 8757,
      "uting": 8758,
      "idel": 8759,
      "Ġconven": 8760,
      "ĠPC": 8761,
      "ĠBaby": 8762,
      "Ġpreceding": 8763,
      "uggle": 8764,
      "Ġà¤ĸà¤¬à¤°": 8765,
      "Ġuntr": 8766,
      "144": 8767,
      "Ġsorts": 8768,
      "ĠPlay": 8769,
      "ĠHarry": 8770,
      "trans": 8771,
      "Ġstrength": 8772,
      "bie": 8773,
      "pur": 8774,
      "uer": 8775,
      "xx": 8776,
      "Ġwinning": 8777,
      "atter": 8778,
      "Ġcos": 8779,
      "Ġdun": 8780,
      "ĠCONT": 8781,
      "ĠMatt": 8782,
      "Ġalive": 8783,
      "Ġcha": 8784,
      "ĠGra": 8785,
      "ummer": 8786,
      "ĠLouis": 8787,
      "ĠOper": 8788,
      "Ġtalked": 8789,
      "pty": 8790,
      "Ġprime": 8791,
      "Ġperpet": 8792,
      "ĠVal": 8793,
      "Ġdecades": 8794,
      "Ġnorthern": 8795,
      "Ġsockpuppets": 8796,
      "ĠSpain": 8797,
      "Ġpractices": 8798,
      "Ġcomplaining": 8799,
      "ĠGreeks": 8800,
      "Ġportray": 8801,
      "Ġtables": 8802,
      "ĠIntroduction": 8803,
      "Ġdeeply": 8804,
      "ALISTST": 8805,
      "ĠCENTRALISTST": 8806,
      "ĠCENTRALISTSTUPID": 8807,
      "lor": 8808,
      "Ġwitness": 8809,
      "Ġbure": 8810,
      "ĠImp": 8811,
      "Ġyout": 8812,
      "à¤°à¤ľ": 8813,
      "ĠWow": 8814,
      "ĠHy": 8815,
      "ĠDie": 8816,
      "ĠDick": 8817,
      "ĠDirect": 8818,
      "ĠEnd": 8819,
      "Ġinfring": 8820,
      "Ġorigins": 8821,
      "Ġdirector": 8822,
      "ĠIndeed": 8823,
      "oked": 8824,
      "Ġhyper": 8825,
      "Ġparticipation": 8826,
      "Ġdocumentation": 8827,
      "ĠPlus": 8828,
      "Ġcorrupt": 8829,
      "ennis": 8830,
      "books": 8831,
      "Ġteacher": 8832,
      "Ġkarta": 8833,
      "Ġsanction": 8834,
      "Ġwindow": 8835,
      "ĠFrequently": 8836,
      "FFFFFF": 8837,
      "AIDS": 8838,
      "Mer": 8839,
      "Mar": 8840,
      "met": 8841,
      "mology": 8842,
      "rage": 8843,
      "rick": 8844,
      "onian": 8845,
      "ĠIll": 8846,
      "Ġisrael": 8847,
      "à¥Ģ_": 8848,
      "char": 8849,
      "Ġseg": 8850,
      "ĠBad": 8851,
      "ĠEp": 8852,
      "Ġoutcome": 8853,
      "Ġà¤¤à¤¸": 8854,
      "Ġdiffer": 8855,
      "Ġdefam": 8856,
      "aza": 8857,
      "Ġobjects": 8858,
      "Ġ1980": 8859,
      "Ġreflects": 8860,
      "Ġcorrection": 8861,
      "ĠClearly": 8862,
      "Ġdistinguish": 8863,
      "Ge": 8864,
      "burg": 8865,
      "Ġ\\": 8866,
      "à¤ĥ": 8867,
      "Ġsouthern": 8868,
      "ĠSep": 8869,
      "ĠSection": 8870,
      "adav": 8871,
      "ilver": 8872,
      "ĠFace": 8873,
      "ĠDVD": 8874,
      "ĠJoe": 8875,
      "à¤¬à¤²": 8876,
      "assing": 8877,
      "Ġteen": 8878,
      "phet": 8879,
      "Ġsupply": 8880,
      "Ġà¤ıà¤µ": 8881,
      "spacing": 8882,
      "Ġhumor": 8883,
      "Ġdiscover": 8884,
      "AST": 8885,
      "222": 8886,
      "Ġblacks": 8887,
      "Ġtranslate": 8888,
      "Ġmeantime": 8889,
      "Ġsuperior": 8890,
      "Ġresponsibility": 8891,
      "Ġeconomy": 8892,
      "Ġcommunicate": 8893,
      "Ġruling": 8894,
      "ĠArmenian": 8895,
      "Ġobtained": 8896,
      "ĠTexas": 8897,
      "ĠOxford": 8898,
      "Int": 8899,
      "John": 8900,
      "Tube": 8901,
      "zech": 8902,
      "Ġcro": 8903,
      "Ġhint": 8904,
      "Ġeh": 8905,
      "Ġego": 8906,
      "semb": 8907,
      "opher": 8908,
      "isted": 8909,
      "ĠHell": 8910,
      "Ġrubb": 8911,
      "abs": 8912,
      "Ġunbiased": 8913,
      "ĠNight": 8914,
      "ĠNick": 8915,
      "ĠGh": 8916,
      "ĠLin": 8917,
      "ĠLink": 8918,
      "Ġplant": 8919,
      "Ġcommit": 8920,
      "Ġcommittee": 8921,
      "Ġinvalid": 8922,
      "Ġinfer": 8923,
      "Ġscr": 8924,
      "Ġdescend": 8925,
      "uese": 8926,
      "Ġworldwide": 8927,
      "ĠComment": 8928,
      "Ġextended": 8929,
      "à¤ħà¤Ĺà¤°": 8930,
      "Ġnationalist": 8931,
      "Ġmodified": 8932,
      "garian": 8933,
      "ĠContribs": 8934,
      "Ġsucceed": 8935,
      "ĠCenter": 8936,
      "Ġcommunication": 8937,
      "ĠAcadem": 8938,
      "Ġtaught": 8939,
      "ĠBYE": 8940,
      "ĠBrazil": 8941,
      "ĠPersonally": 8942,
      "cript": 8943,
      "Ġsending": 8944,
      "Ġwel": 8945,
      "Ġà¤¢": 8946,
      "Ġbarely": 8947,
      "Ġovert": 8948,
      "ĠTa": 8949,
      "ĠWood": 8950,
      "room": 8951,
      "then": 8952,
      "ĠCOM": 8953,
      "ĠMess": 8954,
      "leting": 8955,
      "Ġalum": 8956,
      "ĠOs": 8957,
      "à¤ªà¤ķ": 8958,
      "Ġpray": 8959,
      "Ġhole": 8960,
      "Ġstring": 8961,
      "Ġpossess": 8962,
      "Ġdepartment": 8963,
      "ophile": 8964,
      "Ġreceiving": 8965,
      "Ġlimits": 8966,
      "****": 8967,
      "Ġreleases": 8968,
      "Ġundue": 8969,
      "Ġsurprise": 8970,
      "ĠONLY": 8971,
      "Ġprograms": 8972,
      "Ġerrone": 8973,
      "Ġdemonstrated": 8974,
      "Ġruled": 8975,
      "Ġsolely": 8976,
      "Ġà¤Ĭà¤ªà¤°": 8977,
      "Te": 8978,
      "iser": 8979,
      "ĠIss": 8980,
      "una": 8981,
      "imp": 8982,
      "Ġstance": 8983,
      "Ġkare": 8984,
      "Ġkiss": 8985,
      "Ġdoctor": 8986,
      "ĠPal": 8987,
      "akers": 8988,
      "à¤²à¤°": 8989,
      "à¤ľà¤²": 8990,
      "à¤¬à¤¹": 8991,
      "Ġprick": 8992,
      "Ġsubt": 8993,
      "Ġoverview": 8994,
      "Ġspo": 8995,
      "Ġà¤Ĺà¤²": 8996,
      "Ġbrow": 8997,
      "......": 8998,
      "text": 8999,
      "Ġrepresents": 9000,
      "Ġsupposedly": 9001,
      "Ġinitially": 9002,
      "Ġselected": 9003,
      "Ġpetty": 9004,
      "roversial": 9005,
      "Ġtips": 9006,
      "Ġbatt": 9007,
      "Ġhel": 9008,
      "Ġhang": 9009,
      "Ġfif": 9010,
      "esy": 9011,
      "chi": 9012,
      "unction": 9013,
      "ĠRiver": 9014,
      "ĠGuy": 9015,
      "Ġprice": 9016,
      "ĠVER": 9017,
      "white": 9018,
      "Ġplays": 9019,
      "Ġsched": 9020,
      "ĠSeems": 9021,
      "Ġautom": 9022,
      "Ġrevolution": 9023,
      "Ġrepresentative": 9024,
      "Ġpromoted": 9025,
      "Ġsignificantly": 9026,
      "ĠArabic": 9027,
      "Ġpublishing": 9028,
      "ĠDaily": 9029,
      "Ġaggressive": 9030,
      "Ġvehicle": 9031,
      "ĠScotland": 9032,
      "Ġmanufact": 9033,
      "party": 9034,
      "rated": 9035,
      "rong": 9036,
      "Ġcir": 9037,
      "lee": 9038,
      "Ġpump": 9039,
      "oma": 9040,
      "Ġstable": 9041,
      "ĠCON": 9042,
      "Ġsuicide": 9043,
      "Ġrarely": 9044,
      "ĠFa": 9045,
      "Ġadjust": 9046,
      "Ġchron": 9047,
      "ĠLee": 9048,
      "arts": 9049,
      "acks": 9050,
      "Ġreliability": 9051,
      "Ġfucked": 9052,
      "ĠAli": 9053,
      "ĠAsk": 9054,
      "Ġà¤°à¤¹à¤¨": 9055,
      "ĠANON": 9056,
      "Ġvalues": 9057,
      "141": 9058,
      "Ġcrow": 9059,
      "ĠProv": 9060,
      "Ġlacks": 9061,
      "ournals": 9062,
      "Ġcontrast": 9063,
      "Ġportal": 9064,
      "Ġtowns": 9065,
      "Ġinterviews": 9066,
      "ANNON": 9067,
      "ĠPortal": 9068,
      "ĠCroatia": 9069,
      "ĠNEVER": 9070,
      "Ġemphasis": 9071,
      "ĠPHIL": 9072,
      "ĠFIRED": 9073,
      "!\"": 9074,
      "Any": 9075,
      "Add": 9076,
      "rid": 9077,
      "wik": 9078,
      "Ġcensus": 9079,
      "Ġfest": 9080,
      "Ġfought": 9081,
      "Ġgather": 9082,
      "unny": 9083,
      "Ġrah": 9084,
      "ĠFederal": 9085,
      "ĠDON": 9086,
      "ĠNic": 9087,
      "à¤¦à¤²": 9088,
      "Ġindex": 9089,
      "alem": 9090,
      "Ġdifferently": 9091,
      "Ġà¤ĸà¤¤à¤°": 9092,
      "Ġintervention": 9093,
      "ĠSHANNON": 9094,
      "à¤Ĩà¤ľ": 9095,
      "Ġcaption": 9096,
      "Ġbreach": 9097,
      "Ġfresh": 9098,
      "ĠTurks": 9099,
      "ĠWIKI": 9100,
      "Ġfocused": 9101,
      "à¤īà¤¨": 9102,
      "Ġconducted": 9103,
      "Ġshooting": 9104,
      "ĠBulgarian": 9105,
      "FOR": 9106,
      "Note": 9107,
      "Red": 9108,
      "bh": 9109,
      "nes": 9110,
      "rh": 9111,
      "Ġsand": 9112,
      "itative": 9113,
      "Ġblah": 9114,
      "esc": 9115,
      "Ġreversion": 9116,
      "ĠPan": 9117,
      "etch": 9118,
      "Ġorient": 9119,
      "irs": 9120,
      "ĠDave": 9121,
      "Ġcomfort": 9122,
      "lov": 9123,
      "raction": 9124,
      "Ġrelative": 9125,
      "à¤¶à¤¬": 9126,
      "Ġregional": 9127,
      "Ġregularly": 9128,
      "ibl": 9129,
      "ĠReal": 9130,
      "Ġraj": 9131,
      "Ġserver": 9132,
      "Ġserves": 9133,
      "Ġinstances": 9134,
      "Ġawful": 9135,
      "ĠISBN": 9136,
      "Ġà¤¸à¤®à¤°": 9137,
      "Ġmusical": 9138,
      "Ġheader": 9139,
      "ĠPolit": 9140,
      "Ġjaise": 9141,
      "Israel": 9142,
      "Ġ;-)": 9143,
      "ĠBlue": 9144,
      "Ġforums": 9145,
      "Ġadopted": 9146,
      "ĠAzerbai": 9147,
      "Ġintimid": 9148,
      "=)": 9149,
      "Dr": 9150,
      "Mus": 9151,
      "Template": 9152,
      "[[": 9153,
      "Ġnerd": 9154,
      "arre": 9155,
      "ĠWhether": 9156,
      "cho": 9157,
      "Ġrough": 9158,
      "ura": 9159,
      "ĠFollow": 9160,
      "ĠNext": 9161,
      "à¤®à¤¦": 9162,
      "ucks": 9163,
      "Ġadminship": 9164,
      "ategories": 9165,
      "ĠTHEY": 9166,
      "Ġengaging": 9167,
      "Ġwatched": 9168,
      "Ġmeaningless": 9169,
      "Ġparticipants": 9170,
      "ĠREAD": 9171,
      "CCC": 9172,
      "Ġvirtually": 9173,
      "Ġutterly": 9174,
      "ĠFYI": 9175,
      "Block": 9176,
      "MC": 9177,
      "main": 9178,
      "sorry": 9179,
      "wen": 9180,
      "Ġice": 9181,
      "Ġbird": 9182,
      "Ġfly": 9183,
      "Ġfont": 9184,
      "Ġdad": 9185,
      "igious": 9186,
      "iah": 9187,
      "ateful": 9188,
      "ĠCa": 9189,
      "Ġdozen": 9190,
      "ieve": 9191,
      "Ġdislike": 9192,
      "Ġquiet": 9193,
      "ogether": 9194,
      "Ġintr": 9195,
      "Ġacqu": 9196,
      "ugs": 9197,
      "rats": 9198,
      "Ġbits": 9199,
      "ysop": 9200,
      "AHAHAH": 9201,
      "Ġ82": 9202,
      "ĠOriginal": 9203,
      "Ġsearching": 9204,
      "Ġrepresentation": 9205,
      "Ġprofessor": 9206,
      "à¤¯à¤°à¤¸": 9207,
      "ĠCyprus": 9208,
      "YMOUS": 9209,
      "ĠPHILIP": 9210,
      "rine": 9211,
      "uations": 9212,
      "Ġ}}": 9213,
      "Ġain": 9214,
      "reements": 9215,
      "isc": 9216,
      "Ġni": 9217,
      "ionist": 9218,
      "unciation": 9219,
      "Ġstore": 9220,
      "ista": 9221,
      "ĠPicture": 9222,
      "ĠMs": 9223,
      "ĠYugoslav": 9224,
      "ĠRather": 9225,
      "Ġà¤®à¤¸": 9226,
      "Ġoutright": 9227,
      "...)": 9228,
      "Ġsubsequent": 9229,
      "ĠArbitration": 9230,
      "Ġamounts": 9231,
      "ĠIMO": 9232,
      "Ġreduced": 9233,
      "Ġpredict": 9234,
      "Ġsquare": 9235,
      "YYYY": 9236,
      "Ġdropped": 9237,
      "Ġsuddenly": 9238,
      "Ġmassacre": 9239,
      "Regarding": 9240,
      "Ġyoutube": 9241,
      "ĠANONYMOUS": 9242,
      "Ter": 9243,
      "ls": 9244,
      "pov": 9245,
      "Ġax": 9246,
      "Ġaka": 9247,
      "Ġsight": 9248,
      "atri": 9249,
      "ications": 9250,
      "asant": 9251,
      "aga": 9252,
      "ĠAward": 9253,
      "Ġstress": 9254,
      "people": 9255,
      "ĠFat": 9256,
      "ĠGermans": 9257,
      "ĠElect": 9258,
      "osing": 9259,
      "ultural": 9260,
      "ĠInstitute": 9261,
      "ĠAndy": 9262,
      "Ġissued": 9263,
      "ĠHebrew": 9264,
      "Ġgeneration": 9265,
      "Ġminds": 9266,
      "Ġstats": 9267,
      "Ġsocks": 9268,
      "Ġmarks": 9269,
      "Ġrecommended": 9270,
      "Ġexpertise": 9271,
      "ĠPHILIPPIN": 9272,
      "Res": 9273,
      "uate": 9274,
      "wall": 9275,
      "Ġti": 9276,
      "aland": 9277,
      "ĠTre": 9278,
      "ĠPE": 9279,
      "ĠPLEASE": 9280,
      "ĠMoh": 9281,
      "ndram": 9282,
      "Ġdishonest": 9283,
      "Ġsaf": 9284,
      "Ġsaved": 9285,
      "ĠVe": 9286,
      "Ġplacing": 9287,
      "Ġspoke": 9288,
      "whatever": 9289,
      "Ġbridge": 9290,
      "awa": 9291,
      "Ġscore": 9292,
      "onto": 9293,
      "Ġà¤¶à¤¹": 9294,
      "Ġpresenting": 9295,
      "Ġà¤ĩà¤¸à¤²": 9296,
      "ĠSecret": 9297,
      "Ġrevisions": 9298,
      "ĠFucking": 9299,
      "ĠQuestion": 9300,
      "ĠItaly": 9301,
      "Ġseeking": 9302,
      "Ġforgotten": 9303,
      "iveness": 9304,
      "Ġcoward": 9305,
      "Ġstrictly": 9306,
      "ĠNobody": 9307,
      "narendram": 9308,
      "narendramodi": 9309,
      ".âĢĶ": 9310,
      "LONG": 9311,
      "WH": 9312,
      "pop": 9313,
      "ront": 9314,
      "onder": 9315,
      "Ġbare": 9316,
      "Ġpakistan": 9317,
[...]
